. 28817
Ein 13905
einem 13697
in 11842
, 8938
und 8927
mit 8839
auf 8687
Mann 7808
einer 6750
Eine 5933
ein 4948
der 4506
Frau 4186
eine 3978
die 3609
einen 3479
Zwei 3177
im 3080
an 3047
@-@ 2415
von 2360
sich 2273
dem 2135
Mädchen 2124
vor 1927
zu 1905
steht 1781
Männer 1662
sitzt 1623
Hund 1607
den 1583
Junge 1571
Straße 1412
während 1386
Gruppe 1334
hält 1310
spielt 1307
Hemd 1215
Personen 1152
über 1126
das 1103
eines 1048
weißen 1034
blauen 1025
Frauen 996
roten 969
ist 964
neben 959
Kind 951
stehen 927
Menschen 924
aus 906
am 903
sitzen 899
durch 893
spielen 888
Drei 885
geht 858
trägt 848
bei 847
fährt 836
Wasser 820
um 794
Kinder 791
Person 759
kleines 754
macht 747
springt 732
schwarzen 727
entlang 699
zwei 696
kleiner 681
Leute 657
gehen 604
etwas 584
seinem 578
Oberteil 567
großen 566
grünen 531
Hand 517
Mehrere 502
junge 499
läuft 493
sind 490
Der 489
Fahrrad 482
Hintergrund 481
für 478
Jungen 475
Jacke 471
Ball 467
Freien 466
Luft 466
Strand 465
hat 465
anderen 461
Kleidung 460
schaut 459
Shirt 455
junger 443
gelben 437
hinter 429
nach 425
&quot; 415
andere 411
T 409
Hut 406
Gebäude 401
Tisch 400
schwarzer 399
sie 387
wird 387
Nähe 383
beim 379
kleine 377
kleinen 376
Menschenmenge 371
Kamera 366
weißer 362
Gras 356
vorbei 356
hoch 355
Hunde 353
Boden 349
Schnee 346
Die 342
rennt 340
ihre 336
schwarz 334
Vier 328
unter 325
Gitarre 322
ihren 321
Kleid 313
älterer 294
Feld 292
zusammen 292
sein 290
Bühne 288
ihr 287
fahren 286
draußen 285
Brille 281
er 279
herum 278
seine 277
Kopf 276
Gehweg 272
sehen 272
des 269
braunen 267
Foto 266
blickt 266
dabei 266
seinen 266
Park 263
Stadt 259
hinunter 257
Jeans 255
liegt 255
brauner 254
versucht 253
arbeitet 250
Bank 245
Baby 242
als 241
laufen 241
Paar 239
tragen 239
Dame 238
wie 237
machen 236
lächelt 234
Essen 233
schauen 233
große 231
orangefarbenen 229
ihrem 227
ihm 222
Skateboard 219
junges 217
Bürgersteig 216
Hose 216
ältere 216
zeigt 214
arbeiten 212
sieht 212
spricht 211
liest 210
weiß 210
blau 208
unterhalten 208
halten 205
Haaren 204
Wand 204
weißem 203
rosa 197
Boot 195
Sonnenbrille 195
zum 194
Pferd 193
drei 193
grauen 192
rot 192
Hosen 191
gekleidete 191
Spieler 190
seiner 190
Tag 188
blauem 186
Helm 185
singt 182
Gesicht 181
Auto 180
ihnen 180
Bild 177
Fußball 177
Mantel 177
weiße 177
Shorts 174
posiert 174
Felsen 173
darauf 173
klettert 172
führt 171
befindet 169
Band 165
Sand 164
Mikrofon 163
Baum 162
blauer 162
schwarzem 161
wirft 161
gekleideter 159
Das 158
rennen 158
sehr 158
Restaurant 156
Meer 155
oder 154
rotem 153
Weg 152
Arbeiter 151
Wald 151
isst 151
roter 151
Männern 150
Fenster 149
Kindern 149
Pullover 149
Raum 149
Wiese 149
anderer 149
gestreiften 149
schwarze 149
langen 148
wartet 147
ins 146
Anzug 145
Trikot 145
essen 145
Motorrad 143
Bluse 141
posieren 141
Schild 140
Haar 139
werden 139
Oberkörper 137
voller 137
Fünf 136
bereitet 136
springen 136
Stuhl 135
Viele 135
Spiel 134
betrachtet 132
Hügel 131
zwischen 130
Handy 129
blonde 128
Leuten 127
es 127
schläft 127
Berg 126
tanzen 126
zieht 126
Buch 125
Mütze 125
Rennen 125
ab 125
oben 125
warten 125
lehnt 123
reitet 123
Händen 122
Spielzeug 122
alter 122
Bahn 121
Stock 121
Maul 120
beobachtet 120
miteinander 120
Bäumen 119
Fluss 118
tanzt 118
Bauarbeiter 117
Kleinkind 117
Rucksack 117
ihrer 117
paar 117
Arm 116
haben 113
schiebt 113
vom 113
Radfahrer 112
befinden 112
Schwimmbecken 110
braun 110
gegen 110
Küche 109
Seite 109
Football 108
See 108
Geschäft 107
kurzen 107
Welle 106
Rücken 105
Treppe 105
U 105
Zaun 105
Familie 103
lächeln 103
verkauft 103
zur 103
trinkt 101
versammelt 101
rosafarbenen 99
Blumen 98
hängt 98
ihn 98
mitten 98
schneidet 98
Markt 96
einige 96
telefoniert 96
Wagen 95
belebten 95
bunten 95
gerade 95
rote 95
Zug 94
asiatische 94
fangen 94
malt 94
umgeben 94
Bus 93
Reihe 93
nimmt 93
schwimmt 93
spazieren 93
Gewässer 92
großer 92
weißes 92
Autos 91
Fußballspieler 91
denen 91
freiem 91
schneebedeckten 91
Mutter 90
Tasche 90
blicken 90
gekleidet 90
schlägt 90
vielen 90
Brücke 89
Fuß 89
Gebäudes 89
Hände 89
sonnigen 89
Himmel 88
Publikum 88
fliegt 88
- 87
Bart 87
Hemden 87
Richtung 87
hebt 87
kämpfen 87
Schwarz 86
grünem 86
herunter 86
Geländer 85
Weste 85
dunklen 85
Graffiti 84
Haus 84
hohen 84
Kopfbedeckung 83
Platz 83
Sprung 83
Zuschauer 83
grün 83
Erwachsene 82
Seil 82
Zeitung 82
Basketball 81
Mannes 81
asiatischer 81
blaue 81
Musik 80
blondes 80
hinauf 80
zuschauen 80
bereiten 78
davon 78
genießt 78
karierten 78
mehrere 78
überqueren 78
Decke 77
Hof 77
Jemand 77
Kunststück 77
alte 77
Frisbee 76
alten 76
lacht 76
mittleren 76
tritt 76
Mauer 75
Outfit 75
Schirm 75
Zuschauern 75
benutzt 75
Menge 74
Papier 74
Spielplatz 74
Stück 74
einigen 74
Baseballspieler 73
Einige 73
unterhält 73
Alters 72
Mensch 72
Pool 72
Schaukel 72
gelber 72
orangen 72
zusieht 72
Mitte 71
Rock 71
Sofa 71
großes 71
nahe 71
nebeneinander 71
zuschaut 71
Augen 70
Blick 70
Rasen 70
lässt 70
Fotos 69
Typ 69
bereit 69
braune 69
lila 69
nachts 69
zusehen 69
Bier 68
Dach 68
Gegenstand 68
Uniform 68
Zigarette 68
gelb 68
gibt 68
hinten 68
scheint 68
versuchen 68
vier 68
Nummer 67
Sonne 67
mehreren 67
Mund 66
Schal 66
Surfer 66
beobachten 66
fest 66
treten 66
Flagge 65
Trikots 65
fängt 65
kniet 65
raucht 65
öffentlichen 65
Armen 64
Ferne 64
Holz 64
Schürze 64
Stange 64
Stufen 64
beide 64
betrachten 64
führen 64
jungen 64
nicht 64
trinken 64
verschneiten 64
In 63
Rampe 63
Teenager 63
Veranstaltung 63
Wanderer 63
Gehsteig 62
einander 62
liegen 62
rotes 62
unten 62
viele 62
Snowboarder 61
Tennisball 61
außerhalb 61
blonden 61
Gemüse 60
Kostümen 60
rutscht 60
Auf 59
Bett 59
Statue 59
greift 59
Aufschrift 58
Kleidern 58
Musiker 58
Nacht 58
blaues 58
bärtiger 58
fotografiert 58
hilft 58
lachen 58
orange 58
teil 58
werfen 58
Basketballspieler 57
Kostüm 57
Mannschaft 57
Skifahrer 57
Sonnenuntergang 57
beiden 57
gelbem 57
grüner 57
männliche 57
reden 57
surft 57
Art 56
Haare 56
Herr 56
Hüten 56
Leiter 56
Maschine 56
Polizisten 56
Sechs 56
Zelt 56
dass 56
überquert 56
Damen 55
Tür 55
Ufer 55
da 55
gelbe 55
legt 55
nacktem 55
städtischen 55
versammeln 55
Bar 54
Sweatshirt 54
nehmen 54
weg 54
Leine 53
Rutsche 53
Schuhen 53
Tor 53
gestreiftem 53
guckt 53
kommt 53
Baseball 52
Bikini 52
Brunnen 52
Eimer 52
Läufer 52
Pfad 52
Polizist 52
Vater 52
Westen 52
blonder 52
genießen 52
schreibt 52
stellt 52
Badeanzug 51
Diese 51
Eis 51
Fahrzeug 51
Fisch 51
Grill 51
Reifen 51
Stühlen 51
Trick 51
Umgebung 51
asiatischen 51
leeren 51
Computer 50
Ende 50
Feuer 50
Getränk 50
Obst 50
Regen 50
Schlagzeug 50
gekleideten 50
gelbes 50
her 50
ohne 50
schlagen 50
streckt 50
wobei 50
Braut 49
Erwachsener 49
Konzert 49
Regenschirm 49
Schutzhelm 49
Soldaten 49
Wellen 49
grauem 49
grüne 49
inmitten 49
kaufen 49
riesigen 49
schwingt 49
sprechen 49
Erwachsenen 48
Fahrer 48
Gegend 48
Handschuhen 48
Instrument 48
Motorradfahrer 48
Parade 48
Parkplatz 48
Sohn 48
Uniformen 48
anderes 48
gemeinsam 48
lesen 48
älteren 48
Bereich 47
Bergen 47
Gebäuden 47
Kinderwagen 47
Korb 47
Shirts 47
Straßen 47
Straßenecke 47
Straßenrand 47
Volleyball 47
Weiß 47
hört 47
klettern 47
offenen 47
starrt 47
Arbeit 46
Arme 46
Baustelle 46
Laden 46
Mikrophon 46
Rodeo 46
Schoß 46
jagt 46
lächelnd 46
pinkfarbenen 46
s 46
schwarzes 46
umarmt 46
zurück 46
Jacken 45
Krawatte 45
Land 45
Pause 45
Rot 45
Waren 45
dunkelhäutiger 45
man 45
singen 45
Jugendlicher 44
Schreibtisch 44
Vogel 44
Vordergrund 44
gleich 44
kurz 44
orangefarbener 44
putzt 44
repariert 44
Fahrradfahrer 43
Garten 43
Kuchen 43
Rad 43
Sandalen 43
Schatten 43
Sie 43
Team 43
ganz 43
gegeneinander 43
gekleidetes 43
kurzer 43
verschiedene 43
Einkaufswagen 42
Fahrrädern 42
Footballspieler 42
Kunden 42
Party 42
asiatisches 42
balanciert 42
bedeckt 42
grünes 42
jemandem 42
verkaufen 42
Badehose 41
Erde 41
Fell 41
Netz 41
Pferden 41
Schiedsrichter 41
Stein 41
Stiefeln 41
alle 41
beugt 41
gegenüber 41
gut 41
setzt 41
winkt 41
ziehen 41
Felswand 40
Glas 40
Halsband 40
Klassenzimmer 40
Künstler 40
Mobiltelefon 40
Roller 40
Schulter 40
Schüler 40
Snowboard 40
Surfbrett 40
braunem 40
dreht 40
fällt 40
hellbrauner 40
orangefarbenem 40
wo 40
Blau 39
Es 39
Höhe 39
Kajak 39
Loch 39
Oberteilen 39
Schlitten 39
Schläger 39
Stand 39
belebte 39
dessen 39
lächelnde 39
reiten 39
unbefestigten 39
&apos; 38
Base 38
Bei 38
Bein 38
Cowboy 38
Kanu 38
Schuhe 38
aussieht 38
davor 38
durchs 38
leuchtend 38
redet 38
seines 38
weibliche 38
zeigen 38
Ecke 37
Kreis 37
Laptop 37
Schlange 37
Schnauze 37
Skateboarder 37
Spiegel 37
Telefon 37
Tischen 37
hin 37
küsst 37
verschiedenen 37
was 37
Bäume 36
Mikroskop 36
Rennstrecke 36
Schultern 36
Seifenblasen 36
Spaß 36
Tanktop 36
Taschen 36
Tochter 36
farbenfrohen 36
fünf 36
grasbewachsenen 36
küssen 36
lilafarbenen 36
schwimmen 36
schönen 36
Akkordeon 35
Flasche 35
Gerüst 35
Haufen 35
Hula 35
Kai 35
Kirche 35
Overall 35
Pflanzen 35
Ski 35
Spielfeld 35
Tasse 35
Tennis 35
Zimmer 35
gepflasterten 35
kocht 35
männlicher 35
violetten 35
Café 34
Freunde 34
Freunden 34
Helmen 34
Hunden 34
Kappe 34
Küste 34
Parkbank 34
Strecke 34
aussehende 34
bemalt 34
gegnerischen 34
grauer 34
hellen 34
schaukelt 34
unterwegs 34
Dieser 33
Farben 33
Fleisch 33
Gasse 33
Geige 33
Katze 33
Lastwagen 33
Maske 33
Sachen 33
Schaufel 33
Schutzhelmen 33
Schwimmbrille 33
Stadion 33
Steine 33
Teich 33
Trampolin 33
asiatisch 33
bedient 33
beleuchteten 33
bis 33
damit 33
entspannt 33
langem 33
steigt 33
ten 33
umarmen 33
Berge 32
Flaggen 32
Flugzeug 32
Fußballspiel 32
Hang 32
Kopfhörer 32
Rand 32
Schlamm 32
Schüssel 32
Skiern 32
Tanz 32
Tänzer 32
holt 32
hüpft 32
jongliert 32
verwendet 32
voll 32
; 31
Anzügen 31
Clown 31
Couch 31
Feldweg 31
Hoop 31
Kaffee 31
Klippe 31
Landschaft 31
New 31
Teams 31
Zeichen 31
dunkler 31
grau 31
hängen 31
kauft 31
links 31
lächelnder 31
nur 31
rechts 31
schießt 31
so 31
Asiate 30
Ausrüstung 30
Cowboyhut 30
Fahnen 30
Instrumenten 30
Kopftuch 30
Lkw 30
Metall 30
Objekt 30
Teller 30
Wüste 30
aussehender 30
barfuß 30
bekommt 30
berührt 30
bläst 30
dunkelhäutige 30
fotografieren 30
grillt 30
heben 30
hellblauen 30
reparieren 30
ruht 30
schüttelt 30
verfolgt 30
wandert 30
Beinen 29
Bilder 29
Handtasche 29
Instrumente 29
Mahlzeit 29
Nase 29
Personengruppe 29
Springbrunnen 29
Steinen 29
Tunnel 29
Veranda 29
amerikanische 29
bauen 29
geschlossenen 29
hockt 29
reinigt 29
überfüllten 29
Asiaten 28
Asiatin 28
Blatt 28
Geländemotorrad 28
Hauses 28
Im 28
Lederjacke 28
Marathon 28
Müll 28
Pferde 28
Reiter 28
Salto 28
Tennisspieler 28
Wettkampf 28
York 28
auch 28
diesem 28
felsigen 28
gezogen 28
gucken 28
heraus 28
hinab 28
linken 28
pinkfarbenem 28
schneiden 28
traditioneller 28
öffnet 28
Balkon 27
Fahrräder 27
Kampfsport 27
Kerl 27
Koch 27
Sitzen 27
Skater 27
Sänger 27
Tuch 27
Umzug 27
Winterkleidung 27
Zeit 27
hellbraunen 27
kann 27
schnell 27
taucht 27
te 27
untersucht 27
vollen 27
wäscht 27
Bach 26
Beton 26
Finger 26
Gebiet 26
Geld 26
Kleine 26
Kurve 26
Passanten 26
Schlauch 26
Sieben 26
Skateboardfahrer 26
Spielen 26
Teppich 26
Terrasse 26
Touristen 26
Werbung 26
Wurf 26
Zunge 26
Zähne 26
allein 26
beieinander 26
gelegt 26
gießt 26
kickt 26
kommen 26
nachdem 26
sitzende 26
weitere 26
wurde 26
übt 26
Bräutigam 25
Bullen 25
Büro 25
Fußgänger 25
Hals 25
Teil 25
bringt 25
gleitet 25
helfen 25
nassen 25
ob 25
rasiert 25
rothaarige 25
schlafen 25
steigen 25
vollführt 25
üben 25
: 24
Arbeitskleidung 24
Baumstamm 24
Besen 24
Cheerleader 24
Getränke 24
Hockeyspieler 24
Karren 24
Kissen 24
Kuh 24
Lebensmittel 24
Licht 24
Matte 24
Neoprenanzug 24
Rollstuhl 24
Schwimmer 24
Sportler 24
Straßenkünstler 24
Wasserfall 24
angelt 24
benutzen 24
bunte 24
darunter 24
frisch 24
geben 24
gezeigt 24
goldenen 24
hellhäutiger 24
hinaus 24
hinterher 24
jemand 24
paddelt 24
ringen 24
schreit 24
sitzenden 24
sitzender 24
viel 24
2 23
Auftritt 23
BMX 23
Berges 23
E 23
Handtuch 23
Jungs 23
Kapuzenpulli 23
Keyboard 23
Mänteln 23
Nahaufnahme 23
Ort 23
Stoff 23
Teleskop 23
Tennisschläger 23
Theke 23
Tier 23
Turnhalle 23
alleine 23
bewegt 23
chinesischen 23
entfernt 23
feiern 23
kehrt 23
konzentriert 23
schöne 23
stehenden 23
umher 23
verkleidet 23
vorbeigehen 23
ärmellosen 23
Bahnsteig 22
Becher 22
Farbe 22
Fläche 22
Fotograf 22
Freund 22
Gegenstände 22
Gewand 22
Handstand 22
Rolltreppe 22
Sees 22
Stapel 22
Station 22
Verkehr 22
Waldgebiet 22
Weihnachtsbaum 22
Wohnzimmer 22
baut 22
befestigt 22
braunes 22
braunhaarige 22
bringen 22
fast 22
folgt 22
geschäftigen 22
geworfen 22
glücklich 22
gräbt 22
jagen 22
jemanden 22
kalten 22
lassen 22
lehnen 22
lächelndes 22
offenem 22
rechten 22
schießen 22
stark 22
trainiert 22
Arena 21
Ballons 21
Baseballkappe 21
Blätter 21
Bushaltestelle 21
Da 21
Daumen 21
Eingang 21
Fans 21
Füßen 21
Gemälde 21
Geschenk 21
Hocke 21
Kleiner 21
Kunststücke 21
Mannschaften 21
Motorrädern 21
Mountainbike 21
Pfütze 21
Restaurants 21
Scheibe 21
Schlag 21
Schäferhund 21
Sonnenbrillen 21
Spitze 21
Trommel 21
Trägerhemd 21
Wandbild 21
Wettbewerb 21
angezogen 21
blondem 21
brünette 21
dunkelhaarige 21
en 21
gelehnt 21
hölzernen 21
hören 21
ihres 21
kahlköpfiger 21
komplett 21
nähert 21
runden 21
schaufelt 21
silbernen 21
steilen 21
streichelt 21
ung 21
weint 21
weit 21
Abend 20
Behälter 20
Brust 20
Dieses 20
Dreadlocks 20
Gassi 20
Gelände 20
Gerät 20
Geschirr 20
Getränken 20
Graffitis 20
Hammer 20
Hindernis 20
Hürde 20
Jugendliche 20
Kisten 20
Klavier 20
Kletterer 20
Kopfhörern 20
Luftballons 20
Menschengruppe 20
Orange 20
Pfosten 20
Projekt 20
Pärchen 20
Schnurrbart 20
Skatepark 20
Stadtstraße 20
Steinmauer 20
Studenten 20
Wäsche 20
Zuschauermenge 20
ausgestreckten 20
e 20
ern 20
geparkt 20
heißen 20
hell 20
joggt 20
jüngeren 20
kochen 20
scheinen 20
schmutzigen 20
sechs 20
spritzt 20
vorn 20
wunderschönen 20
zeichnet 20
( 19
) 19
Anlegestelle 19
Balls 19
Baseballmütze 19
Bildschirm 19
Bowlingbahn 19
Brett 19
Fischer 19
Flughafen 19
Füße 19
Gang 19
Gepäck 19
Hinterhof 19
Kids 19
Koffer 19
Kreuzung 19
Laub 19
Mädchens 19
Nickerchen 19
Nähmaschine 19
Outfits 19
Rede 19
Rädern 19
Schuh 19
Schutzbrille 19
Seiten 19
Soldat 19
Typen 19
amerikanischen 19
beschäftigt 19
direkt 19
einzelner 19
gesäumten 19
langhaariger 19
rosafarbenem 19
rudert 19
stellen 19
vorbeifährt 19
älteres 19
An 18
Angelrute 18
Bahnhof 18
Balken 18
Bauch 18
Blume 18
Bowlingkugel 18
Bänken 18
Bücher 18
Dinge 18
Einkaufszentrum 18
Feuerwehrmänner 18
Fotografen 18
Gelb 18
Gewässers 18
Heu 18
Hütte 18
Kleines 18
Kunstwerk 18
Pier 18
Regenschirmen 18
Rennwagen 18
Rucksäcken 18
Röcken 18
Schlagzeuger 18
Schule 18
Socken 18
Speisen 18
Strohhut 18
Tattoo 18
Traktor 18
Trompete 18
Verkauf 18
Wänden 18
Ziel 18
aber 18
afrikanischer 18
amüsieren 18
anhat 18
aufblasbaren 18
aufs 18
bearbeitet 18
bedeckten 18
berühren 18
geblümten 18
indische 18
kariertem 18
können 18
lachend 18
marschiert 18
mithilfe 18
schwach 18
setzen 18
steinigen 18
teilen 18
treffen 18
violettem 18
! 17
Abendessen 17
Backsteingebäude 17
Bekleidung 17
Bluejeans 17
Drachen 17
Dreck 17
Feier 17
Feuerwehrmann 17
Flüssigkeit 17
Geländemotorradfahrer 17
Gespräch 17
Gewehr 17
Gitarrist 17
Gruppen 17
Herd 17
Hochzeit 17
Hockey 17
Jahrmarkt 17
Klettergerüst 17
Labor 17
Lehrer 17
Moped 17
Orchester 17
Outdoor 17
Picknicktisch 17
Plattform 17
Rennauto 17
Rollerblades 17
Sandstrand 17
Saxophon 17
Schwimmbad 17
Skulptur 17
Spielkleidung 17
Stift 17
Teig 17
Umhang 17
Wein 17
Zeitschrift 17
a 17
afrikanische 17
beigefarbenen 17
bestehende 17
daneben 17
dicht 17
dunkelblauen 17
eins 17
erwachsene 17
flachen 17
füllt 17
gegenseitig 17
kaut 17
richtet 17
riesige 17
schwenkt 17
steckt 17
sucht 17
tes 17
tief 17
3 16
Badewanne 16
Ballon 16
Becken 16
Bowling 16
Brandung 16
Brot 16
Eltern 16
Fahne 16
Fahrgeschäft 16
Fahrt 16
Frisbeescheibe 16
Fußballfeld 16
Geldbörse 16
Geschäften 16
Geschäftskleidung 16
Grasfläche 16
Grimasse 16
Hilfe 16
Jeansjacke 16
Kalb 16
Kerzen 16
Kiste 16
Lied 16
Plakat 16
Puck 16
Robe 16
Sanddüne 16
Schlafanzug 16
Show 16
Sport 16
Sportveranstaltung 16
Sportwagen 16
Stier 16
Straßenhändler 16
Surfboard 16
Sängerin 16
Tafel 16
Torhüter 16
Treppen 16
Tricks 16
Turnerin 16
Waschsalon 16
Wasserflasche 16
begutachtet 16
beißt 16
bekommen 16
bewölkten 16
bunt 16
bunter 16
dunkelhaariger 16
entspannen 16
farbenfroher 16
fegt 16
findet 16
fliegen 16
füttert 16
herab 16
jüngere 16
kopfüber 16
leicht 16
noch 16
offenbar 16
parkt 16
planscht 16
rollt 16
schweißt 16
stehende 16
ter 16
trainieren 16
untersuchen 16
vorne 16
wandern 16
will 16
5 15
Afroamerikaner 15
Ast 15
Baseballspiel 15
Baumes 15
Beine 15
Bike 15
Blumenmuster 15
Bogen 15
Büschen 15
Dies 15
Einer 15
Einrad 15
Eishockeyspieler 15
Esel 15
Fallschirm 15
Flur 15
Fußgängerüberweg 15
Geschäfts 15
Jockey 15
Kapuze 15
Kegel 15
Körper 15
LKW 15
Maulkorb 15
Messer 15
Mittag 15
Mittagessen 15
Motorroller 15
Motorräder 15
Palmen 15
Piste 15
Podium 15
Poster 15
Schildern 15
Schirmen 15
Schubkarre 15
Silhouette 15
Softball 15
Spiels 15
Sportkleidung 15
Stirn 15
Stufe 15
Teenageralter 15
Tennisspielerin 15
Topf 15
Turner 15
Violine 15
Vögel 15
Waldweg 15
Welpen 15
Werkzeug 15
Wettrennen 15
Ziegelmauer 15
bespritzt 15
bewundert 15
bückt 15
dazu 15
diskutieren 15
eingezäunten 15
engen 15
farbigen 15
festhält 15
gefüllt 15
gleichen 15
graben 15
graue 15
hinein 15
lange 15
liche 15
malen 15
marschieren 15
näht 15
orangefarbene 15
rast 15
reinigen 15
runter 15
sammelt 15
scheinbar 15
treibt 15
verlässt 15
vielleicht 15
vorüber 15
wischt 15
überprüft 15
Achterbahn 14
Akustikgitarre 14
Asiatinnen 14
Aufführung 14
Bandana 14
Bibliothek 14
Blättern 14
Bällen 14
Cafe 14
Chor 14
Derby 14
Einem 14
Fahrrads 14
Fernglas 14
Figur 14
Gegner 14
Gewändern 14
Grimassen 14
Häusern 14
Kameras 14
Karate 14
Klassenraum 14
Kugel 14
Köche 14
Köpfen 14
Laufen 14
Linie 14
London 14
Löffel 14
Mitarbeiter 14
Mitglieder 14
Moment 14
Motocross 14
Muster 14
Ohren 14
Radrennen 14
Rande 14
Reifenschaukel 14
Rettungswesten 14
Schaufenster 14
Schmutz 14
Seilen 14
Snowboardfahrer 14
Stangen 14
Stirnband 14
Szene 14
Tauben 14
Taucher 14
Taxi 14
Verkäufer 14
Zöpfen 14
aussehenden 14
beginnt 14
de 14
drinnen 14
einsamer 14
entlanggeht 14
feiert 14
gehalten 14
glatzköpfiger 14
gleichzeitig 14
greifen 14
joggen 14
jubeln 14
khakifarbenen 14
landet 14
lockigen 14
ländlichen 14
neue 14
nächsten 14
rosafarbene 14
rothaariges 14
ruhigen 14
schen 14
schieben 14
starren 14
statt 14
städtische 14
t 14
teilweise 14
tem 14
verdeckt 14
verkleidete 14
vorbeigeht 14
webt 14
wendet 14
zubereitet 14
Asien 13
Basketballspiel 13
Bauarbeiten 13
Bewegung 13
Club 13
Computerbildschirm 13
Cowboys 13
Deck 13
Decken 13
Elefanten 13
Fest 13
Feuerwehrleute 13
Fingern 13
Floß 13
Flöte 13
Fänger 13
Gesichtsbemalung 13
Halstuch 13
Handschuh 13
Händler 13
Inlineskates 13
Karte 13
Kettensäge 13
Kindes 13
Klasse 13
Lebensmittelgeschäft 13
Lächeln 13
Marktplatz 13
Meeres 13
Mülltonne 13
Mützen 13
Ohr 13
Ozean 13
Papiere 13
Pitcher 13
Plastiktüte 13
Puppe 13
Radfahrern 13
Ring 13
Schilder 13
Schwert 13
Stehen 13
Streifen 13
Strickmütze 13
Stühle 13
Tanzen 13
Trainer 13
Tribüne 13
Versammlung 13
Videospiel 13
Wange 13
Werkstatt 13
abends 13
acht 13
aufmerksam 13
bewegen 13
bilden 13
brauen 13
dieser 13
em 13
erwachsener 13
gen 13
geparkten 13
gestikuliert 13
gestreiftes 13
gewickelt 13
grillen 13
hindurch 13
indischer 13
jubelt 13
klatscht 13
langhaarige 13
leckt 13
legen 13
nah 13
rosafarbener 13
sowie 13
stehend 13
stehender 13
streicht 13
unbefestigte 13
verheiratetes 13
verlassen 13
vorbereitet 13
Alter 12
Asiatische 12
Badeanzügen 12
Badezimmer 12
Banner 12
Bau 12
Beleuchtung 12
Betonwand 12
Booten 12
Breakdance 12
Computern 12
Dorf 12
Dudelsack 12
Freundin 12
Geräten 12
Gesichtern 12
Golfball 12
Grün 12
Haltung 12
Heißluftballon 12
Hocker 12
Hundes 12
Hüte 12
Inline 12
Jackett 12
Junger 12
Karten 12
Kette 12
Kleider 12
Knöpfen 12
Kreide 12
Kunstwerke 12
Köpfe 12
Laptops 12
Man 12
Maschendrahtzaun 12
Mountainbiker 12
Museum 12
Nebel 12
Paare 12
Produkte 12
Präsentation 12
Pudel 12
Rauch 12
Ringer 12
Schafe 12
Schiff 12
Schleife 12
Schmuck 12
Schneeanzug 12
Schwimmweste 12
Schüsseln 12
Sonnenschirm 12
Spaziergang 12
Sprungbrett 12
Süßigkeiten 12
Tarnkleidung 12
Texas 12
Trainingsanzug 12
Treppenstufen 12
Trommeln 12
Tänzerin 12
Tätowierung 12
Tätowierungen 12
Türen 12
USA 12
Uhr 12
Vergnügungspark 12
Waschbecken 12
Wassers 12
Welpe 12
Winter 12
Zahlreiche 12
Zement 12
afroamerikanische 12
altes 12
amerikanischer 12
ansieht 12
aufgestellt 12
ausgestellt 12
aussehen 12
barfüßige 12
begleitet 12
beisammen 12
bemalten 12
dunklem 12
fallen 12
gebeugt 12
gehende 12
gepunkteten 12
gestreifter 12
geöffneten 12
glänzenden 12
herumstehen 12
ich 12
knien 12
kümmert 12
lernt 12
manche 12
nieder 12
packt 12
paddeln 12
passenden 12
prüft 12
putzen 12
sandigen 12
schnitzt 12
selbst 12
spielerisch 12
suchen 12
traditionellen 12
tut 12
verschneite 12
waschen 12
watet 12
2012 11
A 11
Auge 11
Babys 11
Ballerina 11
Biker 11
Bordstein 11
Brettspiel 11
Bälle 11
City 11
Cola 11
Dock 11
Eimern 11
Einkaufstasche 11
Eiscreme 11
Feuerwehrauto 11
Fischen 11
Flaschen 11
Freude 11
Frisur 11
Fußballdress 11
Fußgängern 11
Gegenständen 11
Gehen 11
Geländewagen 11
Gläsern 11
Gold 11
Gürtel 11
Hafen 11
Helme 11
Herren 11
Holzbank 11
Händchen 11
Innenstadt 11
Jugendlichen 11
Kampf 11
Kante 11
Karussell 11
Kerle 11
Kleinkinder 11
Kran 11
Laborkittel 11
Lebensmitteln 11
Leinwand 11
Lieferwagen 11
Namen 11
Netze 11
Obststand 11
Operation 11
Orangen 11
Pferdeschwanz 11
Plastik 11
Rahmen 11
Rennfahrer 11
Straßenverkäufer 11
Stunt 11
Stöcke 11
Swimmingpool 11
Säugling 11
Säulen 11
Tablett 11
Tee 11
Tiere 11
Top 11
Turnschuhen 11
Türöffnung 11
Vorderseite 11
Waffe 11
Wasserrutsche 11
Wasserski 11
Webstuhl 11
Weihnachtsmann 11
Wette 11
Während 11
abgeworfen 11
afroamerikanischer 11
bekleidet 11
bekleidete 11
bekleideter 11
besteht 11
bietet 11
braunhaariger 11
chen 11
diese 11
dritte 11
drückt 11
entgegen 11
fischt 11
flauschiger 11
ge 11
gefüllten 11
gehender 11
gemacht 11
gesprungen 11
hart 11
hellhäutige 11
hohe 11
hoher 11
indem 11
japanischen 11
kleineren 11
langärmeligen 11
leuchtenden 11
liegenden 11
männlichen 11
möglicherweise 11
oranger 11
orientalische 11
pinkfarbener 11
präsentiert 11
ruhen 11
rückwärts 11
sammeln 11
schreiben 11
schwebt 11
schütteln 11
seltsamen 11
serviert 11
silberfarbenen 11
stand 11
strecken 11
stößt 11
transportiert 11
treiben 11
ungen 11
unterschiedlichen 11
verteilt 11
weil 11
weiter 11
wirbelt 11
örtlichen 11
&amp; 10
4 10
Acht 10
Anhänger 10
Arzt 10
Axt 10
Baseballschläger 10
Bergsteiger 10
Bildern 10
Bootes 10
Boxer 10
DJ 10
Dreirad 10
Dämmerung 10
Ente 10
Entfernung 10
Er 10
Erdhügel 10
Erzeugnisse 10
Fass 10
Flip 10
Freizeitpark 10
Früchte 10
Fußballmannschaft 10
Gitarren 10
Gitarristen 10
Gleisen 10
Halskette 10
Handschuhe 10
Herkunft 10
Herrn 10
Hier 10
Holzboden 10
Home 10
Jeep 10
Karton 10
Kasse 10
Kittel 10
Klappstuhl 10
Konferenz 10
Kopfschmuck 10
Kostüme 10
Krankenhaus 10
Körben 10
Lacrosse 10
Lagerfeuer 10
Lampe 10
Landstraße 10
Lasso 10
Leggings 10
Locken 10
Luftballon 10
Maschinen 10
Menschenansammlung 10
Motorhaube 10
Mülleimer 10
Namensschild 10
Ofen 10
Overalls 10
Parcours 10
Partie 10
Perlen 10
Pflanze 10
Pink 10
Quarterback 10
Richtungen 10
Rikscha 10
Rugby 10
Rückseite 10
Rücksitz 10
Schlagmann 10
Schlauchboot 10
Schneeschuhen 10
Schulkinder 10
Schutzausrüstung 10
Schutzkleidung 10
Sicht 10
Sieg 10
Stelzen 10
Stöcken 10
Säule 10
Teilnehmer 10
Tracht 10
Turban 10
US 10
Unterwäsche 10
Vorrichtung 10
Vortrag 10
Werfer 10
Windhund 10
Ziegel 10
Ziegelsteinen 10
Ziegelwand 10
Ziellinie 10
Zylinder 10
abgebildet 10
abgestellt 10
afrikanischen 10
amüsiert 10
aneinander 10
angeboten 10
angebracht 10
aufgeregt 10
aufgereiht 10
beladen 10
blocken 10
deren 10
ebenfalls 10
eingeschlafen 10
enden 10
ene 10
erklimmen 10
filmt 10
fischen 10
fliegenden 10
formt 10
fremden 10
fröhlich 10
gefolgt 10
gesehen 10
größeren 10
gt 10
iert 10
jeder 10
jüngerer 10
kauert 10
kratzt 10
kurze 10
kurzem 10
ließt 10
lächelnden 10
löschen 10
meisten 10
mischt 10
männliches 10
namens 10
nasser 10
niedrigen 10
oberen 10
rechte 10
regnerischen 10
rutschen 10
sche 10
schlendert 10
schminkt 10
schneit 10
schwarzhaarige 10
soll 10
spärlich 10
staubigen 10
streichen 10
stürzt 10
trifft 10
ungewöhnlichen 10
unordentlichen 10
unterrichtet 10
vergnügt 10
verwenden 10
wunderschöne 10
Öffentlichkeit 10
überall 10
übergewichtiger 10
Am 9
Ampel 9
Apfel 9
Asiat 9
Aufnahme 9
Aussicht 9
Autobahn 9
Außenbereich 9
Bad 9
Banjo 9
Bauernmarkt 9
Beachvolleyball 9
Begeisterung 9
Betrachter 9
Bildes 9
Blasen 9
Board 9
Bruder 9
Busses 9
Cello 9
China 9
Clowns 9
College 9
Darbietung 9
Einkaufstüten 9
Eishockey 9
Essensstand 9
Experiment 9
Fahrzeuge 9
Felsbrocken 9
Felsvorsprung 9
Fenstern 9
Fernseher 9
Festival 9
Figuren 9
Fische 9
Fischernetz 9
Flipflops 9
Flugzeugs 9
Flusses 9
Flussufer 9
Flügeln 9
Gericht 9
Geschwindigkeit 9
Golf 9
Halloween 9
Hamburger 9
Herbst 9
High 9
Hinterbeinen 9
Holzzaun 9
Hoodie 9
Hotel 9
Irokesenschnitt 9
John 9
Kapuzenpullover 9
Karohemd 9
Kartons 9
Kies 9
Kneipe 9
Knie 9
Kreuz 9
Kricket 9
Laster 9
Laufbahn 9
Lippen 9
Maler 9
Mitglied 9
Musikgruppe 9
Musikinstrumente 9
Neugeborenes 9
Oberfläche 9
Osten 9
Passagiere 9
Patienten 9
Pizza 9
Plate 9
Platte 9
Pullunder 9
Rasenfläche 9
Regenmantel 9
Reklametafel 9
Rennens 9
Rohr 9
Rosa 9
Röhre 9
Sandwich 9
Saxofon 9
Schach 9
Schachtel 9
Schnur 9
Schürzen 9
Segelboot 9
Sessel 9
Sicherheitsweste 9
Skateboards 9
Stab 9
Steintreppe 9
Stil 9
Strands 9
Straßenarbeiter 9
Straßenmusiker 9
Straßenseite 9
Stromschnellen 9
Studio 9
Tanzfläche 9
Treppenhaus 9
Tüten 9
Vor 9
Wasserfläche 9
Welt 9
Yoga 9
Zauns 9
angezogener 9
anhaben 9
attraktive 9
ausgestreckt 9
ausgezogen 9
aussehendes 9
bedienen 9
bedruckten 9
befahrenen 9
beleuchtet 9
bestellen 9
besucht 9
betreten 9
bevor 9
bewaldeten 9
bindet 9
boxen 9
bzw. 9
dahinter 9
daran 9
darin 9
diesen 9
dribbelt 9
dritter 9
elektrischen 9
entfernen 9
erhobenen 9
erleuchteten 9
erreichen 9
fasst 9
fertig 9
festgebunden 9
formeller 9
freien 9
füllen 9
gelangen 9
ger 9
geschnitten 9
geschäft 9
gespannt 9
getroffen 9
geöffnet 9
heller 9
heruntergekommenen 9
hohes 9
holen 9
hübsche 9
hübschen 9
jeweils 9
klaren 9
kleidung 9
lichen 9
los 9
men 9
mäht 9
nass 9
of 9
orangefarbenes 9
orientalisch 9
passiert 9
pink 9
protestiert 9
rudern 9
sauber 9
schaukeln 9
schlammigen 9
schneebedeckte 9
schneebedecktes 9
schwingen 9
schützen 9
schützt 9
seichten 9
spaziert 9
spring 9
steile 9
tagsüber 9
teilnehmen 9
tätowierte 9
umringt 9
unteren 9
vergnügen 9
verzierten 9
vorderen 9
vorführt 9
völlig 9
warmen 9
weiteren 9
würde 9
z 9
ähnlich 9
überprüfen 9
-Schild 8
Anweisungen 8
Anzahl 8
Arbeitern 8
Armee 8
Aufzug 8
Auslage 8
Ausstellung 8
Backsteinmauer 8
Bahnstation 8
Baseballfeld 8
Basketballfeld 8
Betonmauer 8
Blaskapelle 8
Bohrmaschine 8
Bord 8
Brillen 8
Buchstaben 8
Bündel 8
Demonstranten 8
Dose 8
Dunkelheit 8
Einkäufer 8
Elmo 8
Esstisch 8
Europa 8
Fabrik 8
Fackel 8
Fahrradhelm 8
Fahrzeugen 8
Fels 8
Feuerstelle 8
Fliege 8
Flops 8
Fontäne 8
Footballspiel 8
Forscher 8
Fußgängerübergang 8
Fächer 8
Garage 8
Gehstock 8
Geldautomaten 8
Gipfel 8
Glatze 8
Gleichgewicht 8
Grau 8
Großer 8
Grünfläche 8
Halle 8
Handys 8
Hause 8
Hochstuhl 8
Hockeyspiel 8
Holzkonstruktion 8
Horizont 8
Hosenträgern 8
Hotdog 8
Hängematte 8
Hüfte 8
Ich 8
Indien 8
Jockeys 8
Kabine 8
Kajakfahrer 8
Kampfsportler 8
Kopfbedeckungen 8
Kürbis 8
Ladefläche 8
Logo 8
Lokal 8
Läuferin 8
Marathonläufer 8
Metallstange 8
Mitspieler 8
Modell 8
Monopoly 8
Natur 8
OP 8
Oldtimer 8
Olympischen 8
Ozeans 8
Peace 8
Pfanne 8
Pfeil 8
Pilot 8
Polohemd 8
Rasenmäher 8
Rockband 8
Ruder 8
Rugbyspieler 8
Sack 8
Sandburg 8
Schachteln 8
Schaf 8
Schlucht 8
Seifenblase 8
Sicherheitswesten 8
Smoking 8
Snack 8
Sommertag 8
Sonnenlicht 8
Spiegelbild 8
Spielerin 8
Spielsachen 8
Spielzeugauto 8
Sporthalle 8
Stadtpark 8
Stativ 8
Staub 8
Steinbank 8
Stiefel 8
Straßenfest 8
Straßenszene 8
Strumpfhose 8
Tal 8
Taube 8
Teenagern 8
Telefonzelle 8
Tennisplatz 8
Times 8
Tomaten 8
Ton 8
Turm 8
Turnier 8
Unterhemd 8
Verkaufsstand 8
Vorführung 8
Vögeln 8
Wachmann 8
Wanne 8
Waschmaschine 8
Wasserbecken 8
Wassersprenger 8
Weißer 8
Wildnis 8
Windhunde 8
Wolken 8
Wollmütze 8
Zahnbürste 8
Zeitschriften 8
Zelten 8
Zeremonie 8
Ziegelbau 8
Ziegelgebäude 8
afroamerikanisches 8
altmodischen 8
angehalten 8
angezogene 8
ansehen 8
aufblasbare 8
begeistert 8
beißen 8
bestehend 8
betet 8
blockt 8
bockenden 8
breiten 8
brennende 8
bürstet 8
chinesische 8
darüber 8
dekoriert 8
dicken 8
dieselbe 8
dritten 8
eingewickelt 8
einiger 8
el 8
elektronischen 8
eln 8
erhält 8
erin 8
erklimmt 8
faulenzen 8
fen 8
folgen 8
frischem 8
gelegenen 8
gepflasterte 8
geschmückt 8
gespielt 8
gestreifte 8
gewinnen 8
graues 8
hellgrünen 8
heraushängender 8
hohem 8
igen 8
irgendeinem 8
kompletter 8
kämpft 8
lachende 8
laden 8
legerer 8
lernen 8
lich 8
mehrfarbigen 8
meißelt 8
muskulöser 8
möchte 8
orientalischer 8
passt 8
probiert 8
reicht 8
richten 8
rosaroten 8
rostigen 8
rothaariger 8
ruhig 8
rührt 8
saugt 8
schaufeln 8
scher 8
sches 8
schmalen 8
schnappt 8
schnüffelt 8
schwenken 8
schöner 8
sen 8
silberne 8
skatet 8
soeben 8
spritzen 8
sprüht 8
späht 8
sten 8
stolz 8
sägt 8
the 8
trockenen 8
tun 8
umgebenen 8
uniformierter 8
uns 8
verschieden 8
verschränkten 8
vorsichtig 8
wahrscheinlich 8
warm 8
weiterer 8
zen 8
zuhört 8
Ältere 8
öffnen 8
? 7
Absperrung 7
Afrikaner 7
Aktentasche 7
Alkohol 7
Ansicht 7
Backflip 7
Backsteinstraße 7
Badehosen 7
Badekappe 7
Baskenmütze 7
Batman 7
Baumstumpf 7
Baumstämmen 7
Bauwerk 7
Beginn 7
Begriff 7
Berglandschaft 7
Betonstufen 7
Beutel 7
Blazer 7
Boote 7
Brautjungfern 7
Cheerleaderin 7
Cheerleadern 7
Coach 7
Coca 7
Demonstration 7
Dosen 7
Draußen 7
Dress 7
Drink 7
Eier 7
Einkaufstaschen 7
Enten 7
Ereignis 7
Fahrzeugs 7
Fangen 7
Fassade 7
Felsens 7
Felsklippe 7
Fernsehen 7
Fischmarkt 7
Flammen 7
Fliesen 7
Food 7
Footballfeld 7
Friedenszeichen 7
Friseur 7
Fußballteam 7
Geldbeutel 7
Geländefahrzeug 7
Gesichtsausdruck 7
Getreide 7
Gleis 7
Gletscher 7
Habseligkeiten 7
Handtaschen 7
Handwerker 7
Herz 7
Herzen 7
Holzbrett 7
Horn 7
Hubschrauber 7
Huhn 7
Hundespielzeug 7
Innenraum 7
Jeansshorts 7
Jenga 7
Kaffeetasse 7
Kajaks 7
Kamel 7
Kameramann 7
Kamm 7
Kanus 7
Kartenspiel 7
Kellner 7
Kilt 7
Knien 7
Konstruktion 7
Kontrolle 7
Kraft 7
Kragen 7
Kunstgalerie 7
Käfig 7
Ladens 7
Lampen 7
Laternen 7
Lauf 7
Laufband 7
Lebensmittelmarkt 7
McDonalds 7
Motocrossfahrer 7
Motor 7
Musikinstrument 7
Musikinstrumenten 7
Möwen 7
Müllcontainer 7
Nahen 7
Neben 7
Nummern 7
Objekte 7
Palme 7
Papa 7
Passagieren 7
Perücke 7
Pfadfinder 7
Pfeife 7
Pflasterstraße 7
Pinsel 7
Pistole 7
Pizzeria 7
Plüschtier 7
Pony 7
Porträt 7
Position 7
Produkt 7
Profi 7
Pullovern 7
Pult 7
Puppen 7
Quad 7
Randstein 7
Reihen 7
Ringkampf 7
Rodeoreiter 7
Ruderboot 7
Sandhügel 7
Schals 7
Schlittschuhen 7
Schuss 7
Schutt 7
Schwebebalken 7
Schülern 7
Sims 7
Sitz 7
Skate 7
Smartphone 7
Spielern 7
Spielers 7
Square 7
St. 7
Stadtszene 7
Staffelei 7
Stammeskleidung 7
Startlinie 7
Staubsauger 7
Straßenrennen 7
Struktur 7
Student 7
Subway 7
Supermarkt 7
Säge 7
Tankstelle 7
Tauziehen 7
Theater 7
Untergrund 7
Verschiedene 7
Versuch 7
Verteidiger 7
Videokamera 7
Vogelperspektive 7
Volleyballspiel 7
Volleyballspieler 7
Vorstellung 7
Waffel 7
Walmart 7
Warnweste 7
Wassermelonen 7
Wasserstraße 7
Wetter 7
Winterjacke 7
Wintertag 7
Wippe 7
Xylophon 7
Zahl 7
Zeitungen 7
Ziege 7
Zigarre 7
Zutaten 7
albern 7
aller 7
anderem 7
angefeuert 7
anzusehen 7
aufeinander 7
ausgebreitet 7
ausgebreiteten 7
barfüßiger 7
be 7
beten 7
binden 7
bleiben 7
bleibt 7
blondhaariger 7
braunhaariges 7
brennenden 7
burgunderroten 7
denkt 7
dieses 7
dirigiert 7
dünnen 7
einfachen 7
einsamen 7
entweder 7
ert 7
ete 7
etwa 7
faulenzt 7
frische 7
frischen 7
fröhliche 7
g 7
ganzen 7
gefallen 7
gefangen 7
gefleckter 7
geflochtenen 7
gegnerische 7
gemusterten 7
gesäumte 7
getragen 7
gießen 7
glückliche 7
hackt 7
halb 7
haltend 7
hervor 7
hinteren 7
hinweg 7
historischen 7
hochhackigen 7
hochzuklettern 7
hocken 7
hüpfen 7
interagieren 7
irgendeiner 7
karierter 7
khakifarbener 7
kostüm 7
krabbelt 7
kümmern 7
langes 7
leitet 7
liegende 7
lilafarbener 7
linke 7
lädt 7
muss 7
nassem 7
neuen 7
pflanzen 7
reflektierenden 7
regelt 7
regnet 7
schenkt 7
schlafend 7
schlafendes 7
schleift 7
schwere 7
segelt 7
seichtem 7
sieben 7
sortiert 7
spielenden 7
steuert 7
säubert 7
teilt 7
telefonieren 7
tippt 7
traditionelle 7
tropischen 7
trottet 7
trüben 7
türkisen 7
umzäunten 7
versteckt 7
violett 7
violetter 7
voran 7
weiblichen 7
wenn 7
wieder 7
wilden 7
zielt 7
zuhause 7
zurecht 7
zweite 7
Übung 7
ähnlichen 7
10 6
11 6
Air 6
Amboss 6
Apple 6
Aquarium 6
Aufmerksamkeit 6
Aufschlag 6
Ausflug 6
Ausschau 6
Auswahl 6
Autositz 6
BH 6
Badekleidung 6
Bagger 6
Bahngleisen 6
Bambus 6
Bandmitglieder 6
Baseballkleidung 6
Batik 6
Baums 6
Beamte 6
Betonbank 6
Betonplatte 6
Bikinis 6
Billard 6
Blumenstrauß 6
Bordsteinkante 6
Bulle 6
Bullenreiter 6
Bücherregal 6
Bürste 6
Dekorationen 6
Digitalkamera 6
Dunkeln 6
Ei 6
Einkaufspassage 6
Einrichtung 6
Einsatz 6
Eisbahn 6
Eislaufen 6
Eiswaffeln 6
Eiswagen 6
Engel 6
Essenswagen 6
Fahrradrennen 6
Fan 6
Feldhockey 6
Feuerwerk 6
Film 6
Filzhut 6
Fitnessstudio 6
Freizeitkleidung 6
Fußballspielen 6
Fußballteams 6
Fußballtrikot 6
Fußgängerbrücke 6
Fußweg 6
Garn 6
Gehwegs 6
Gesichter 6
Gesichts 6
Geste 6
Gewehren 6
Glastür 6
Golfplatz 6
Großstadt 6
Gymnastik 6
Gürteln 6
Haken 6
Haut 6
Hemdbluse 6
Hindernisparcours 6
Hochzeitskleidung 6
Hochzeitstorte 6
Holztisch 6
Hotdogs 6
Hydranten 6
Hörsaal 6
Hüpfburg 6
Inhalt 6
Innenhof 6
Japan 6
Joggen 6
Jogger 6
Kabel 6
Kabeln 6
Kaninchen 6
Karateanzug 6
Karateanzügen 6
Kathedrale 6
Kegeln 6
Khakihose 6
Kiefern 6
Klappstühlen 6
Konfetti 6
Kopfsteinpflasterstraße 6
Krankenschwestern 6
Kulisse 6
Kunde 6
Kunst 6
Kämpfer 6
Können 6
Körbe 6
Küchentresen 6
Landkarte 6
Liegestühlen 6
Limousine 6
Lippenstift 6
Maulkörben 6
Metallzaun 6
Miami 6
Mikrofone 6
Mikrofonen 6
Modellflugzeug 6
Montur 6
Mopp 6
Motorradfahrern 6
Musikern 6
Möbelstück 6
Mülltüte 6
Nachbarschaft 6
Nachmittag 6
Nachtclub 6
Notizen 6
Obdachloser 6
Ochsen 6
Parasailing 6
Pass 6
Pinata 6
Polizei 6
Popcorn 6
Pose 6
Professor 6
Promenade 6
Punkten 6
Pyjama 6
Pyramide 6
Radrennfahrer 6
Rast 6
Regenbogen 6
Ringen 6
Rollern 6
Rollschuh 6
Rosen 6
SMS 6
Saal 6
Saiteninstrument 6
Schale 6
Schaufeln 6
Schaufensterfront 6
Schaulustige 6
Schienen 6
Schlafzimmer 6
Schlittschuh 6
Schmetterling 6
Schnuller 6
Schotterstraße 6
Schotterweg 6
Schritt 6
Schwanz 6
Schwertern 6
Schwimmflügeln 6
Schwimmwesten 6
Schülerin 6
Seattle 6
Seilspringen 6
Seitenlinie 6
Skateboardpark 6
Sooners 6
Spazierstock 6
Speer 6
Speisekarte 6
Spielzeuge 6
State 6
Steg 6
Stelle 6
Stern 6
Stofftier 6
Strandpromenade 6
Straßenmarkt 6
Stücke 6
Taucheranzug 6
Teenagerin 6
Tempel 6
Tennisschuhen 6
The 6
Thema 6
Tischdecke 6
Trenchcoat 6
Trinken 6
Tänzerinnen 6
Tänzern 6
Ufers 6
Ultimate 6
Umhängen 6
Ureinwohner 6
Van 6
Video 6
Videospiele 6
Violett 6
Wakeboard 6
Wanderweg 6
Wandmalerei 6
Warnwesten 6
Weihnachten 6
Weihnachtsmannkostüm 6
Werkzeugen 6
Wettlauf 6
Wir 6
Wohnung 6
Wände 6
Zebrastreifen 6
Zelte 6
Zuckerwatte 6
Zähnen 6
abgedunkelten 6
abgesperrten 6
akustische 6
anschaut 6
armen 6
aufgeblasenen 6
aufgenommen 6
aufhat 6
aufrecht 6
außen 6
balgen 6
bedeckter 6
beendet 6
befahrene 6
befindlichen 6
begutachten 6
beigen 6
ben 6
bestellt 6
besuchen 6
beteiligt 6
bild 6
blühenden 6
bohrt 6
bricht 6
buntem 6
buntes 6
ch 6
cher 6
chinesischer 6
cht 6
chte 6
decken 6
dekorativen 6
dekorierten 6
dreiköpfige 6
dunkel 6
durchsucht 6
einzufangen 6
end 6
enes 6
eng 6
erreicht 6
erwachsenen 6
erwischt 6
essend 6
eten 6
eventuell 6
fahrenden 6
farbenfroh 6
farbige 6
fasziniert 6
feuert 6
freut 6
fröhliches 6
füttern 6
gebaut 6
gefahren 6
gegenüberliegenden 6
gehoben 6
gehüllt 6
gelbbrauner 6
genau 6
geradeaus 6
gerichtet 6
gerät 6
geschminkt 6
geschminkten 6
geschrieben 6
geschäftige 6
gesenktem 6
geöffnetem 6
glückliches 6
gold 6
goldfarbenen 6
hellbraune 6
hellbraunem 6
helle 6
hellgelben 6
hochgehoben 6
hochhält 6
hochspringt 6
i 6
iPod 6
inspizieren 6
inspiziert 6
irgendetwas 6
irgendwo 6
jüngeres 6
kehren 6
keine 6
kicken 6
kleinere 6
kten 6
kunstvollen 6
leger 6
licher 6
lohfarbener 6
losen 6
marineblauen 6
mehr 6
mehrfarbige 6
modernen 6
nackte 6
nackten 6
nackter 6
nacktes 6
nichts 6
obwohl 6
offener 6
pflückt 6
pinken 6
pinkfarbene 6
platziert 6
probieren 6
rauchen 6
rauchend 6
raufen 6
rothaarigen 6
ruft 6
ruhigem 6
schild 6
schippt 6
schlecht 6
schlendern 6
schmettert 6
schmutziges 6
schwarzweißer 6
schweren 6
schält 6
se 6
seitlich 6
servieren 6
sorgfältig 6
spült 6
statue 6
stoßen 6
strickt 6
studiert 6
surfen 6
tackelt 6
teilnimmt 6
tiefen 6
trocknet 6
trommelt 6
tätowierter 6
türkisfarbenen 6
umgestürzten 6
unaufgeräumten 6
uniformierte 6
untergeht 6
unterschiedlicher 6
up 6
verfolgen 6
verkleideter 6
verlassenen 6
verlegt 6
verärgert 6
war 6
weinendes 6
wenig 6
wiegt 6
wir 6
wurden 6
wählt 6
wäre 6
zeichnen 6
zeit 6
zt 6
zündet 6
ärmellosem 6
überblickt 6
überdachten 6
/ 5
6 5
9 5
Abhang 5
Abstammung 5
Afrikanische 5
Afroamerikanerin 5
Als 5
Alte 5
Angel 5
Anlage 5
Ansammlung 5
Anzeige 5
Arbeiten 5
Artikel 5
Asphalt 5
Aufgabe 5
Aufwärmen 5
Auszeichnung 5
Außenseite 5
Babyschaukel 5
Backsteinwand 5
Bademantel 5
Bahnen 5
Balkonen 5
Ballbesitz 5
Bananen 5
Barkeeper 5
Basketballkorb 5
Bass 5
Bauer 5
Bauernhof 5
Begleiter 5
Beim 5
Bekleidungsgeschäft 5
Berghang 5
Bergsteigen 5
Besitz 5
Betonrampe 5
Blattwerk 5
Blumenwiese 5
Blätterhaufen 5
Boots 5
Brunnens 5
Bulldozer 5
Busch 5
Büchern 5
Büsche 5
Collie 5
Country 5
Cowgirl 5
Day 5
Diadem 5
Domino 5
Dschungel 5
Dunk 5
Durchgang 5
Ebene 5
Einfahrt 5
Eishockeyspiel 5
Eisschnellläufer 5
Eiswaffel 5
Elternteil 5
Endzone 5
Erdboden 5
Euro 5
Fackeln 5
Fahrradreifen 5
Feder 5
Federn 5
Felsblock 5
Fensterputzer 5
Fernrohr 5
Fliesenboden 5
Freundinnen 5
Fußboden 5
Fußtritt 5
Führung 5
Gabel 5
Garagentor 5
Gartenstuhl 5
Geiger 5
Geschäftsmann 5
Gokart 5
Golden 5
Golfspieler 5
Graben 5
Grills 5
Gurt 5
Haarschnitt 5
Halfpipe 5
Halsketten 5
Harfe 5
Heißluftballons 5
Highschool 5
Hochzeitsfeier 5
Hochzeitsgesellschaft 5
Hochzeitskleid 5
Holzstuhl 5
Huckepack 5
Hängebrücke 5
Indianer 5
Informationen 5
Inneren 5
Jahre 5
Kamelen 5
Kamin 5
Karikatur 5
Katzen 5
Kerze 5
Kindergruppe 5
Kinn 5
Klarinette 5
Kleinigkeit 5
Kleinstadt 5
Klettern 5
Kletterwand 5
Kollegen 5
Konferenztisch 5
Kopftüchern 5
Korridor 5
Kragenhemd 5
Krankenhausbett 5
Krankenschwester 5
Krug 5
Kunstausstellung 5
Kunststoff 5
Kuss 5
Kutsche 5
Käse 5
Labrador 5
Ladung 5
Landung 5
Lappen 5
Lastwagens 5
Lautsprecher 5
Ledermantel 5
Lehrerin 5
Lichtern 5
Läufern 5
M 5
Make 5
Mannschaftskollegen 5
Marathonlauf 5
Marktstand 5
Maskottchen 5
Mast 5
Matratze 5
McDonald 5
Mehl 5
Metallgegenstand 5
Meter 5
Minigolf 5
Mit 5
Morgen 5
Motorboot 5
Motorradrennen 5
Mönch 5
Nachrichten 5
Nike 5
Noten 5
Nudeln 5
Obama 5
Oberhemd 5
Open 5
Operationssaal 5
Orangensaft 5
Paket 5
Parks 5
Pferderennen 5
Picknick 5
Pitch 5
Plakatwand 5
Plane 5
Polizistin 5
Poloshirt 5
Priester 5
Projektor 5
Radio 5
Red 5
Redner 5
Rednerpult 5
Reis 5
Rennbahn 5
Restaurantküche 5
Roboter 5
Rollerskates 5
Rollstühlen 5
Rucksäcke 5
Ruinen 5
Runde 5
Rückwärtssalto 5
Sackhüpfen 5
Salat 5
Sandskulptur 5
Sari 5
Sattel 5
Schalter 5
Schanze 5
Schaufenstern 5
Schaumbad 5
Schauspieler 5
Scheinwerferlicht 5
Schloss 5
Schminke 5
Schneeball 5
Schneehaufen 5
Schnorchel 5
School 5
Schusswaffe 5
Schutzwesten 5
Schwarze 5
Schwester 5
Schwierigkeiten 5
Schwimmerin 5
Seife 5
Seilschaukel 5
Senioren 5
Skateboardrampe 5
Skateboardtrick 5
Skates 5
Skigebiet 5
Skulpturen 5
Spielzeugen 5
Spielzug 5
SpongeBob 5
Sportplatz 5
Sprache 5
Stabhochsprung 5
Stadtplatz 5
Staffellauf 5
Stamm 5
Stiel 5
Straßencafé 5
Stroh 5
Strom 5
Superman 5
Tank 5
Tauchausrüstung 5
Teddybär 5
Tellern 5
Tennisspielen 5
Terrier 5
Textnachricht 5
Tische 5
Tischtennis 5
Torbogen 5
Toreinfahrt 5
Tourist 5
Training 5
Transporter 5
Tutu 5
Türeingang 5
Tüte 5
Uferweg 5
Unfall 5
Unterricht 5
Vaters 5
Vordach 5
Vorlesung 5
Waffen 5
Wangen 5
Warenkorb 5
Wasserfahrzeug 5
Wasserlauf 5
Wassermelone 5
Wasserskifahrer 5
Weingläsern 5
Wheelie 5
Wildwasser 5
Wintermantel 5
Zeichnung 5
Ziegen 5
Zigaretten 5
and 5
angemaltem 5
ans 5
anschauen 5
anscheinend 5
anzugreifen 5
anzuziehen 5
auftritt 5
ausgestrecktem 5
außerdem 5
ball 5
band 5
barfüßiges 5
bastelt 5
beaufsichtigt 5
beenden 5
befestigen 5
befragt 5
befördert 5
beige 5
beladenen 5
betritt 5
bettelt 5
bewundern 5
blaugrünen 5
blond 5
blondhaarige 5
blondhaariges 5
brechen 5
brett 5
brät 5
bräunlicher 5
brünettes 5
bt 5
buckelnden 5
ckten 5
d 5
dafür 5
deckt 5
deutet 5
deutsche 5
dicker 5
dische 5
drängen 5
dunkelhaariges 5
dünne 5
einheimischer 5
einkaufen 5
einschließlich 5
einzelne 5
elt 5
ende 5
enge 5
eren 5
erhalten 5
erhöhten 5
erledigen 5
erleuchtet 5
erzielen 5
erzählt 5
ett 5
farben 5
farbenfrohe 5
fechten 5
felsige 5
fertigen 5
fertigt 5
flaches 5
flauschigen 5
for 5
foto 5
funktioniert 5
förmigen 5
gedrängt 5
geholfen 5
gejagt 5
gemalt 5
gemütlich 5
geschlagen 5
geschminktem 5
geschmückten 5
geschoben 5
gespritzt 5
gesteckt 5
gestützt 5
gewonnen 5
grauhaarige 5
grauhaariger 5
großem 5
gute 5
harten 5
hechtet 5
heißt 5
hellrosa 5
herrlichen 5
hochklettert 5
ig 5
iger 5
intensiv 5
interessanten 5
interviewt 5
it 5
jacke 5
jemandes 5
k 5
kahl 5
kanadischen 5
kastanienbraunen 5
kein 5
klatschen 5
knallbunten 5
lackiert 5
langärmligen 5
laufende 5
leere 5
lehrt 5
leidenschaftlich 5
len 5
lenkt 5
letzten 5
lten 5
m 5
me 5
medizinischen 5
mindestens 5
mischen 5
misst 5
n 5
nasse 5
navigiert 5
ne 5
nebligen 5
neugeborenes 5
nippt 5
nächtlichen 5
näher 5
olympischen 5
packen 5
parken 5
plantscht 5
platz 5
poliert 5
politischen 5
probt 5
pustet 5
reagieren 5
richtig 5
rollen 5
rundes 5
räumt 5
schaft 5
schattigen 5
schlafenden 5
schlafender 5
schmutzige 5
schreiendes 5
schwarzweißen 5
schwimmenden 5
sitzend 5
sitzendes 5
sortieren 5
spanischer 5
springenden 5
st 5
stecken 5
stehendes 5
steinernen 5
stolpert 5
streicheln 5
stöbern 5
stützt 5
sägen 5
tet 5
tisch 5
traurig 5
umklammert 5
unglücklich 5
unterhalb 5
unterschiedliche 5
verbringen 5
verbundenen 5
verdienen 5
verdunkelten 5
vereisten 5
verkehrt 5
verlassene 5
verletzt 5
verliert 5
vermutlich 5
verschiedenfarbigen 5
versehen 5
verteilen 5
verwirrt 5
verzieht 5
vierköpfige 5
volle 5
vorbeifahren 5
vorbereiten 5
wadet 5
wagen 5
waten 5
weite 5
weißhaariger 5
wetteifern 5
wissenschaftliches 5
würden 5
zugeht 5
zugewandt 5
zugucken 5
zuguckt 5
zuhören 5
zupft 5
zweiten 5
zweiter 5
Älterer 5
Ärmel 5
Ärmeln 5
Übungen 5
ähnliche 5
älter 5
überkreuzten 5
# 4
-T 4
12 4
@ 4
Abenddämmerung 4
Absatzschuhen 4
Absolventen 4
Absperrband 4
Affen 4
Akkordeonspieler 4
Aktion 4
America 4
Ananas 4
Anblick 4
Angeln 4
Angelruten 4
Angelschnur 4
Angesicht 4
Angestellte 4
Anweisung 4
Anzüge 4
Arbeitsplatz 4
Armband 4
Aufdruck 4
Aufgaben 4
Aufkleber 4
Aufnahmen 4
Aus 4
Ausblick 4
Ausdruck 4
Ausführung 4
Backsteingebäudes 4
Badebekleidung 4
Badesachen 4
Bahngleise 4
Ballett 4
Banane 4
Bandmitgliedern 4
Barren 4
Baseballkappen 4
Baseballspiels 4
Baseballwerfer 4
Bassgitarre 4
Bauprojekt 4
Baustellen@@ 4
Bedienung 4
Bekan@@ 4
Berggipfel 4
Besuch 4
Betrieb 4
Bewegungen 4
Bikinioberteil 4
Blase 4
Bleistift 4
Block 4
Blue 4
Blumenfeld 4
Blumenkleid 4
Blumenmädchen 4
Blusen 4
Blöcken 4
Boston 4
Braun 4
Brautkleid 4
Briefkasten 4
Broschüre 4
Brünette 4
Buffet 4
Bäckerei 4
Bärten 4
Chips 4
Chirurgen 4
Cockpit 4
Concert 4
Cricket 4
Deckel 4
Deere 4
Denkmal 4
Dingen 4
Dinosaurier 4
Dirigent 4
Dirtbike 4
Disk@@ 4
Disney 4
Dorfbewohner 4
Dreh@@ 4
Dritte 4
Drähten 4
Dunking 4
Eiern 4
Eines 4
Einkaufen 4
Einkäufern 4
Einteiler 4
Eisenbahnschienen 4
Elektriker 4
Elektrogitarre 4
Essstäbchen 4
Esszimmer 4
Fahren 4
Fahrradgeschäft 4
Fahrradtrick 4
Fall 4
Fallschirmspringen 4
Fang 4
Farbstiften 4
Feldes 4
Felsenklippe 4
Felsformation 4
Festzug 4
Feuerleiter 4
Feuerwehrwagen 4
Fingernägel 4
Fischerboot 4
Flag 4
Flanellhemd 4
Flanke 4
Flaschen@@ 4
Flecken 4
Fliegen 4
Flohmarkt 4
Flügel 4
Footballteam 4
Form 4
Fotograph 4
Fotographen 4
Freiluftmarkt 4
Friedhof 4
Frühstücks@@ 4
Fundament 4
Funken 4
Fußballmannschaften 4
Fußballplatz 4
Fuße 4
Gabelstapler 4
Geburtstag 4
Geburtstagskuchen 4
Gedanken 4
Gegenspieler 4
Geländern 4
Gerätschaften 4
Geschichte 4
Gesichtsmaske 4
Gestrüpp 4
Getränke@@ 4
Glasgebäude 4
Glatzenansatz 4
Goalie 4
Griff 4
Grillen 4
Große 4
Großküche 4
Größe 4
Gäste 4
Hacken 4
Hafengebiet 4
Halbkreis 4
Haltestelle 4
Happen 4
Harmonika 4
Haupt@@ 4
Hausaufgaben 4
Hausmeister 4
Hawaii 4
Hemdchen 4
Henna 4
Hinter 4
Hinterteil 4
Holzboot 4
Holzpfahl 4
Holzplattform 4
Holzrampe 4
Hot 4
Hotel@@ 4
Hundeshow 4
Husky 4
Häuser 4
Höhle 4
Hölle 4
Inder 4
Indische 4
Innenseite 4
Jack 4
Jahren 4
Jean@@ 4
Jeansrock 4
Jetski 4
Kaffee@@ 4
Kampfkunst@@ 4
Kanal 4
Kanone 4
Kastenwagen 4
Kaufhaus 4
Keller 4
Kellnerin 4
Ketten 4
Khaki 4
Khakihosen 4
Kickboxen 4
Kiefer 4
Kimonos 4
Kiosk 4
Kirsch@@ 4
KitchenAid 4
Kleidungsstücke 4
Knieschonern 4
Kopfball 4
Kranich 4
Krawatten 4
Kricketspieler 4
Kronen 4
Krücken 4
Kunstmuseum 4
Kurs 4
Kälte 4
Körper@@ 4
Küchentheke 4
Küchentisch 4
Kühen 4
Künstlerin 4
Lager 4
Lama 4
Langarmhemd 4
Lasters 4
Laubbläser 4
Laubhaufen 4
Leben 4
Lebensmittelgeschäfts 4
Leitern 4
Lenker 4
Leopardenmuster 4
Lesen 4
Licht@@ 4
Lieblings@@ 4
Liegestütze 4
Lobby 4
Locken@@ 4
Love 4
Luftsprung 4
Magazin 4
Maiskolben 4
Makeup 4
Mama 4
Masken 4
Massen 4
Match 4
Material 4
Matsch 4
Matten 4
Maulesel 4
Maus 4
Meeresufer 4
Meerjungfrau 4
Meerwasser 4
Melonen 4
Menschenschlange 4
Menü 4
Messe 4
Metallkonstruktion 4
Militärangehörige 4
Militärs 4
Militäruniform 4
Militäruniformen 4
Mittelalter@@ 4
Motiv 4
Motorrollern 4
Mundharmonika 4
Männergruppe 4
Möwe 4
Müllbeutel 4
Nagel 4
Neun 4
Notenständer 4
Notizbuch 4
Nudel@@ 4
Oberteile 4
Objekten 4
Obst- 4
Offiziere 4
Ohrhörern 4
Oklahoma 4
Ordnung 4
Outfielder 4
Oxford 4
Packung 4
Paddeln 4
Paintball 4
Party@@ 4
Pelzmantel 4
Pendler 4
Pfannen 4
Pferdes 4
Pflaster 4
Pfoten 4
Piers 4
Planschbecken 4
Podest 4
Pokal 4
Polo 4
Poolbillard 4
Posaune 4
Protestschild 4
Prüfung 4
Pub 4
Punkt 4
Radfahren 4
Radfahrerin 4
Rallyeauto 4
Raums 4
Regal 4
Regenschirme 4
Reinig@@ 4
Reisen 4
Reitern 4
Renaissance 4
Reparaturen 4
Rettungsschwimmer 4
Rettungsweste 4
Riemen 4
Roben 4
Rolle 4
Rotes 4
Rudel 4
Rängen 4
Rückenschwimmen 4
Rückhand 4
SUV 4
Sakko 4
Sandplatz 4
Saris 4
Schafen 4
Schau 4
Schaufensterpuppe 4
Schaukeln 4
Scheinwerfer 4
Schere 4
Schiene 4
Schießen 4
Schiffs 4
Schildkröte 4
Schläfchen 4
Schnauzer 4
Schneeengel 4
Schneehügel 4
Schneemann 4
Schneidebrett 4
Schokoladeneis 4
Schrift 4
Schriftzug 4
Schuhgeschäft 4
Schulbus 4
Schwan 4
Schwimmen 4
Schwimmhilfe 4
Schwung 4
Schädel 4
Schärpen 4
Segelboote 4
Seile 4
Sesseln 4
Shop 4
Sicherheitsausrüstung 4
Sicherheitskleidung 4
Singen 4
Sitzende 4
Skiausrüstung 4
Skilift 4
Skimütze 4
Skipiste 4
Skyline 4
Slam 4
Snacks 4
Softballspielerin 4
Sommerkleid 4
Sonnenhut 4
Sonnenschein 4
Sonnenschirmen 4
Spagat 4
Speedo 4
Spiderman 4
Spielmannszug 4
Spielplatzgerät 4
Spielzeugpferd 4
Spinnrad 4
Sportereignis 4
Sportlerin 4
Sportspiel 4
Springen 4
Sprühfarbe 4
Spüle 4
Stadtviertel 4
Starbucks 4
Statuen 4
Staubwolke 4
Steingebäude 4
Steinstufen 4
Steinwand 4
Stern@@ 4
Stier@@ 4
Strafzettel 4
Strandes 4
Strauß 4
Straßenarbeiten 4
Street 4
Strickjacke 4
Strohhalm 4
Strähnen 4
Stäbchen 4
Städtische 4
Surfen 4
Symbol 4
Tages 4
Talent 4
Tassen 4
Taucherbrille 4
Taxis 4
Teile 4
Telefonmasten 4
Tennisbällen 4
Tenniskleidung 4
Tisches 4
Toiletten 4
Touristen@@ 4
Treppengeländer 4
Trocken@@ 4
Trocknen 4
Truthahn 4
Töpfen 4
Töpferscheibe 4
Töpferwaren 4
UNICEF 4
Umhängetasche 4
University 4
Unter 4
Untergrundbahn 4
Unterhaltung 4
Unterneh@@ 4
Unterseite 4
Unterteil 4
Verstärker 4
Volksfest 4
Vorbereitung 4
Vorhang 4
Wagens 4
Waldes 4
Wanderung 4
Washington 4
Wasserfontäne 4
Wasserkante 4
Wasserschlauch 4
Weihnachtsgeschenke 4
Werbetafel 4
Werkzeuge 4
Wettkampf@@ 4
Wind 4
Windjacke 4
Wintermänteln 4
Wissenschaftler 4
Wäschekorb 4
Wäscheleine 4
Yamaha 4
Zentrum 4
Ziegeln 4
Zimmer@@ 4
Zitronen 4
Zoo 4
Zu 4
Zugs 4
Zügen 4
abgewandt 4
abwärts 4
abzuwehren 4
abzuwerfen 4
afrikanisches 4
akrobatische 4
albernen 4
all 4
alt 4
altmodischer 4
angelehnt 4
angerichtet 4
angezeigt 4
angezogenes 4
anische 4
ansetzt 4
antiken 4
anzug 4
arbeitende 4
artigen 4
as 4
at 4
aufzuheben 4
aufzunehmen 4
ausgeschnittenen 4
ausländischen 4
ausrüstung 4
auszuführen 4
baden 4
badet 4
bahn 4
balancieren 4
bar 4
baufälligen 4
baumgesäumten 4
befestigten 4
befreit 4
beginnen 4
belebter 4
bequem 4
bereits 4
bergigen 4
beschnüffelt 4
besprechen 4
besprühten 4
besuchten 4
bevor@@ 4
bewegung 4
biegt 4
bieten 4
blasen 4
blättert 4
breitkrempigen 4
brünett 4
bärtige 4
bügelt 4
chten 4
cremefarbenen 4
daraus 4
demonstriert 4
deutscher 4
dicke 4
dies 4
diskutiert 4
du 4
dunkelbrauner 4
dunkelgrünen 4
dunkles 4
durchge@@ 4
duscht 4
edlen 4
eigenen 4
eilen 4
eingegraben 4
einsames 4
empor 4
ender 4
ens 4
entgegengesetzte 4
enthält 4
entladen 4
entlanggehen 4
erhebt 4
erklärt 4
ersten 4
erwischen 4
eter 4
etes 4
f 4
fahrbaren 4
fahrt 4
farbenen 4
fein 4
ffen 4
fliegende 4
freuen 4
frustriert 4
fröhlicher 4
fs 4
förmlicher 4
führenden 4
gebückter 4
gedeckten 4
geduldig 4
gefilmt 4
gefliesten 4
gefrorenen 4
gefällten 4
gefärbten 4
gehören 4
geküsst 4
gelbbraunen 4
gemalten 4
genüsslich 4
gepflegten 4
gern 4
geschlossen 4
geschossen 4
gesichert 4
gespreizten 4
gestalteten 4
gesäumt 4
getackelt 4
gleiche 4
gleiten 4
glücklicher 4
goldener 4
grasbewachsene 4
grasbewachsenes 4
grinst 4
groß 4
grüßen 4
guten 4
gähnt 4
halle 4
hatte 4
hauptsächlich 4
heiraten 4
hellhäutigen 4
hellroten 4
herauf 4
herausge@@ 4
herstellt 4
hier 4
hinab@@ 4
hinunterfährt 4
hübsch 4
idyllischen 4
ieren 4
ierte 4
indianischer 4
indischen 4
ineinander 4
inklusive 4
innerhalb 4
irgendeine 4
isch 4
kahlen 4
kalte 4
kaputten 4
kargen 4
kariertes 4
kauern 4
kaum 4
klein 4
knabbert 4
knallgelben 4
knappen 4
kniehohen 4
kostet 4
kostümierte 4
kreisförmigen 4
kriecht 4
landen 4
langer 4
langsam 4
laubbedeckten 4
letzte 4
licht 4
liebkost 4
lilafarbene 4
ling 4
live 4
lockigem 4
lokalen 4
lt 4
lugt 4
lustigen 4
lötet 4
markt 4
maschine 4
maske 4
medizinische 4
merkwür@@ 4
mexikanischen 4
militärische 4
mittelgroßen 4
mixt 4
mobilen 4
müde 4
nacheinander 4
nasses 4
neigt 4
nen 4
neongrünen 4
ner 4
nähern 4
obdachloser 4
oberhalb 4
offene 4
onen 4
oranges 4
ordnet 4
orientalischen 4
per 4
pflanzt 4
pflügt 4
planschen 4
prachtvollen 4
protestieren 4
prüfen 4
ragt 4
rangeln 4
rasieren 4
rasierten 4
raus 4
recht 4
reibt 4
reist 4
riesiger 4
rock 4
rosafarbenes 4
ruhige 4
rum 4
rustikalen 4
saust 4
schaffen 4
schickes 4
schippen 4
schlanke 4
schlanker 4
schließen 4
schließt 4
schlummert 4
schmutziger 4
schwarzhaariger 4
schwer 4
schwerer 4
schönes 4
schüttet 4
seltsam 4
seltsames 4
show 4
sicher 4
sichtbar 4
sodass 4
sollen 4
sonnen 4
sowohl 4
spielend 4
spielende 4
spielern 4
sportliche 4
ssen 4
stapelt 4
stimmt 4
strahlend 4
streiten 4
stätte 4
tasche 4
tern 4
tollen 4
toter 4
trockenem 4
trockenes 4
tropischer 4
ts 4
türkis 4
umeinander 4
umgedrehten 4
unbefestigtem 4
unfertigen 4
unruhigem 4
unterbricht 4
veranstaltung 4
verbringt 4
verbunden 4
verhindern 4
verschiedener 4
verschiedenfarbige 4
verspritzt 4
verstecken 4
verteidigen 4
violettes 4
vorbeigehenden 4
vorliest 4
vorübergehen 4
wachsen 4
wegen 4
weggeht 4
welche 4
winken 4
winzigen 4
wirbt 4
wirken 4
wischen 4
wolkigen 4
zueinander 4
zug 4
zuläuft 4
zusammenzu@@ 4
zweier 4
zweiteiligen 4
Ärzte 4
Überqueren 4
ß 4
öffentliche 4
übergibt 4
überwiegend 4
1 3
24 3
8 3
Abfälle 3
Abschlag 3
Abschleppwagen 3
Abschluss@@ 3
Absätzen 3
Actionfoto 3
Afrikanerin 3
Agility 3
Aktivität 3
Alltag 3
Amerik@@ 3
Amish 3
Angels 3
Angler 3
Angriffs@@ 3
Anlass 3
Anleitung 3
Anorak 3
Anziehen 3
Apfel@@ 3
Apparat 3
Arcade 3
Arkade 3
Arten 3
Aschenbahn 3
Asiatisch 3
Asphaltstraße 3
Atem 3
Athlet 3
Athleten 3
Aufklebern 3
Aufnahmestudio 3
Ausland 3
Aussichtspunkt 3
Autobahn@@ 3
Außentreppe 3
Außenwand 3
BMW 3
Backwaren 3
Bahnlinie 3
Balance 3
Bandkollegen 3
Barbecue 3
Barett 3
Barriere 3
Baseballplatz 3
Baseballs 3
Baseman 3
Baserunner 3
Basketballplatz 3
Basketballwurf 3
Basketbälle 3
Bast@@ 3
Bauarbeiterhelm 3
Bauarbeitern 3
Baumaschinen 3
Baumgruppe 3
Beagle 3
Beamten 3
Begleit@@ 3
Bein@@ 3
Beisammensein 3
Bergpfad 3
Berufskleidung 3
Besitzer 3
Bestellung 3
Bierflaschen 3
Biergläsern 3
Bildhauer 3
Blickfeld 3
Blondes 3
Blumendruck 3
Blumentopf 3
Blut 3
Blutdruck 3
Bohrer 3
Boje 3
Bootsanlegestelle 3
Bowlingspieler 3
Boxkampf 3
Brat@@ 3
Brettern 3
British 3
Bronzestatue 3
Broschüren 3
Brustkorb 3
Bucht 3
Buden 3
Bull 3
Bungee 3
Business 3
Bustier 3
Butterbrot 3
Button 3
Bändern 3
Bären@@ 3
Bücherei 3
Bühnenauftritt 3
Bürgersteigs 3
Bürogebäude 3
Cabri@@ 3
Cafeteria 3
Camcorder 3
Campern 3
Cart 3
Cat@@ 3
Cheerleader@@ 3
Cheerleaders 3
Chefkoch 3
Chemi@@ 3
Chinatown 3
Chinesi@@ 3
Choreografie 3
Clubs 3
Coney 3
Couchtisch 3
Court 3
Cowboyhüten 3
Cowboykleidung 3
Cowboystiefeln 3
DS 3
Dalmatiner 3
Dampf 3
Dance 3
Darsteller 3
Designs 3
Dessert 3
Diashow 3
Dog 3
Dokumente 3
Donuts 3
Drachenkostüm 3
Drahtseil 3
Drahtzaun 3
Dreiräder 3
Drinks 3
Drummer 3
Dudelsack@@ 3
Dusche 3
Dutzende 3
East 3
Ehemann 3
Eierkuchen 3
Eingangshalle 3
Eins 3
Eiscrem 3
Eisenbahn 3
Eiskrem 3
Eisskulptur 3
Eisstand 3
Eistüten 3
Eiswagens 3
Elasthan 3
Elf 3
Enkelin 3
Erhebung 3
Erinner@@ 3
Ernte 3
Eseln 3
Essensverkäufer 3
Esswaren 3
Experi@@ 3
Explosion 3
Fabrikarbeiter 3
Fahrgäste 3
Fahrgästen 3
Fallschirme 3
Fallschirmen 3
Fallschirmspringer 3
Farbspritzern 3
Faust 3
Fechter 3
Fechtkampf 3
Fechtwettkampf 3
Feinkost@@ 3
Felds 3
Felsformationen 3
Fensterbank 3
Feuerwehrfahrzeug 3
Feuerwehrleuten 3
Filmset 3
First 3
Flach@@ 3
Fleck 3
Flieger@@ 3
Fließen@@ 3
Flug 3
Flughafens 3
Fond 3
Footballs 3
Ford 3
Formen 3
Fotoshooting 3
Frankreich 3
Freiheitsstatue 3
Freiluf@@ 3
Freiluftkonzert 3
Freiluftveranstaltung 3
Freundes 3
Friseursalon 3
Fußballer 3
Fußballnetz 3
Fußballspiels 3
Fußballtrikots 3
Fähre 3
Fällen 3
Fässer 3
Fäuste 3
Fäustlingen 3
Galerie 3
Gap 3
Gartenstühlen 3
Gartenwerkzeug 3
Gasmaske 3
Gebirge 3
Geburtstagsfeier 3
Gebäck 3
Gebäudeeingang 3
Gedenk@@ 3
Gehörschutz 3
Geisha 3
Geldbörsen 3
Geländefahrer 3
Geländemaschine 3
Gemeinde 3
Gemüsemarkt 3
Gemüsestand 3
Gepäckstücken 3
Gerüsten 3
Geschirrspüler 3
Geschäftsanzug 3
Gesellschaft 3
Gesellschafts@@ 3
Gesichtsmasken 3
Gesichtsschutz 3
Gewehre 3
Gewicht 3
Gewächshaus 3
Gewänder 3
Gitarrenspieler 3
Gitarrespieler 3
Glasur 3
Gleit@@ 3
Gläser 3
Go 3
Golfschläger 3
Gottesdienst 3
Green 3
Großmutter 3
Grube 3
Grundschulkinder 3
Gruppenbild 3
Gruppenfoto 3
Guitar 3
Gummistiefeln 3
Gärt@@ 3
Haarnetz 3
Haarsalon 3
Hahn 3
Handbewegungen 3
Handgelenk 3
Handgerät 3
Handgriff 3
Handtüchern 3
Handvoll 3
Headset 3
Hecke 3
Heimwerker@@ 3
Helfer 3
Herbsttag 3
Herde 3
Hero 3
Herrenfriseur 3
Hindernisse 3
Hinterbeine 3
Hintern 3
Hinterrad 3
Hispanoamerikaner 3
Hochstart 3
Hochzeitstag 3
Hockeymannschaften 3
Hof@@ 3
Hollister 3
Holzgebäude 3
Holzkohlegrill 3
Holztür 3
Hunderennen 3
Hunderte 3
Hundeschau 3
Hängegleiter 3
Häuser@@ 3
Hörnern 3
Hühner 3
I 3
Ihr 3
Imbiss 3
Imbissstand 3
Inderin 3
Industriegebäude 3
Inlineskater 3
Interessantes 3
Internet 3
Irokesenfrisur 3
Island 3
Jahrmarkts@@ 3
Japaner 3
Joe 3
Jogginganzug 3
Jogginghose 3
Jonglier@@ 3
Junges 3
Jä@@ 3
Kaffeetisch 3
Kamele 3
Kampfrichter 3
Kampfsportkleidung 3
Kapuzenjacke 3
Kapuzenteil 3
Karaoke 3
Karneval 3
Kartoffeln 3
Karussel 3
Kassi@@ 3
Kaugummi@@ 3
Kekse 3
Kelle 3
Kerami@@ 3
Khakis 3
Kid 3
Kiesweg 3
Kinds 3
Kino 3
Kitteln 3
Kitty 3
Kleinbus 3
Kletterausrüstung 3
Klettergurt 3
Knieschützern 3
Kniestrümpfen 3
Knochen 3
Kochen 3
Kochkleidung 3
Koffer@@ 3
Kokosnüsse 3
Kongress 3
Korbleger 3
Korbstuhl 3
Kostümierte 3
Krabbe 3
Krankenwagen 3
Kreide@@ 3
Kreuzfahrtschiff 3
Krone 3
Kugeln 3
Kundschaft 3
Kurz@@ 3
Käfer 3
Käse@@ 3
Küchenarbeit@@ 3
Küchenboden 3
Künstlern 3
Kürbisfeld 3
Küstenlinie 3
Lachen 3
Laderampe 3
Lakers 3
Lampen@@ 3
Landebahn 3
Last 3
Laterne 3
Latz 3
Laufbekleidung 3
Laufkleidung 3
Lebensmittelverkäufer 3
Lederkleidung 3
Lego 3
Lego@@ 3
Lehm@@ 3
Leichtathlet 3
Leichtathletik@@ 3
Lenkrad 3
Leotard 3
Lichter 3
Liga 3
Linien 3
Live 3
Lkws 3
Los 3
Lupe 3
Lächelnde 3
Läden 3
Löcher 3
Lösch@@ 3
Löwen 3
Machete 3
Mais 3
Mal 3
Maler@@ 3
Marathonläuferin 3
Mariachi 3
Marke 3
Markisen 3
Marktstraße 3
Marschkapelle 3
Mascara 3
Maultier 3
Mechaniker 3
Meeresfrüchten 3
Megafon 3
Megaphon 3
Metallgeländer 3
Metallschüssel 3
Metallstück 3
Mets 3
Mickey 3
Mikrophonen 3
Mikroskope 3
Militärangehöriger 3
Militärkleidung 3
Miniatur@@ 3
Minivan 3
Mischung 3
Mittelstreifen 3
Mitten 3
Monstertruck 3
Mosaik 3
Moschee 3
Motorradrennfahrer 3
Mountainbikes 3
Muscheln 3
Musikfestival 3
Musikkapelle 3
Musikstück 3
Möbel 3
Mönche 3
Mündern 3
Mütter 3
NY 3
Nachbarschaftsladen 3
Nadelstreifenanzug 3
Nagellack 3
Nahost 3
Nasen@@ 3
National@@ 3
Neoprenanzügen 3
Netzen 3
Nintendo 3
Nonne 3
Nur 3
Obdachlose 3
Oben 3
Oberhemden 3
Oberkörpern 3
Objektiv 3
Obstkarren 3
Ohio 3
Ohrring 3
Ollie 3
Orchester@@ 3
Paddelboot 3
Papiertüte 3
Pappkarton 3
Parkettboden 3
Parkweg 3
Passant 3
Patientin 3
Personal 3
Pfahl 3
Pferderücken 3
Pferds 3
Piano 3
Picknickbank 3
Picknickdecke 3
Picknicktischen 3
Pickup 3
Pirat 3
Piraten 3
Piñata 3
Plastikrutsche 3
Plastikstuhl 3
Plastiktüten 3
Platten 3
Plattenspieler 3
Platzes 3
Plüsch 3
Po 3
Polizeibeamte 3
Polospieler 3
Poncho 3
Porträts 3
Posen 3
Post 3
Prinzess@@ 3
Probe 3
Produkten 3
Programm 3
Protest 3
Protestkundgebung 3
Prozession 3
Pulli 3
Pulver 3
Puma 3
Punk 3
Punk@@ 3
Punkte 3
Puppen@@ 3
Puzzle 3
Quadraten 3
Radsportler 3
Radweg 3
Rampenlicht 3
Rauchen 3
Reagenz@@ 3
Regenstiefeln 3
Reh 3
Reiher 3
Reise 3
Reklame 3
Rennautos 3
Rennhunde 3
Rennkleidung 3
Reparatur 3
Rest 3
Restauranttisch 3
Retriever 3
Rings 3
Ringträger 3
Rockkonzert 3
Rohre 3
Rollen 3
Rollkoffer 3
Rollkragenpullover 3
Rollschuhen 3
Rugbyspiel 3
Rummel 3
Rummelplatz 3
Rund@@ 3
Rüschen 3
Rüstung 3
Saft 3
Saiten 3
Saiteninstrumente 3
Salon 3
Samurai 3
Sandale 3
Sanddünen 3
Sandwiches 3
Sattelzug 3
Satz 3
Sauna 3
Schalen 3
Schaum 3
Scheiben 3
Schiffes 3
Schildkappe 3
Schindeln 3
Schlammgrube 3
Schlammpfütze 3
Schlauchbooten 3
Schleifen 3
Schlepper 3
Schluck 3
Schlägern 3
Schläuchen 3
Schmerzen 3
Schnappschuss 3
Schneeflo@@ 3
Schneewehe 3
Schnit@@ 3
Schottenrock 3
Schrank 3
Schreibtischen 3
Schuhputzer 3
Schulband 3
Schultertasche 3
Schutthaufen 3
Schutzbrillen 3
Schutzweste 3
Schwamm 3
Schwarm 3
Schwarzer 3
Schwein 3
Schwert@@ 3
Schwestern 3
Schwimmanzug 3
Schwimmbeckens 3
Schwimmbrillen 3
Schwimmern 3
Schwimmflügel 3
Schüler@@ 3
Seesack 3
Seetang 3
Sehr 3
Seilrutsche 3
Seilspielzeug 3
Seitenstraße 3
Side 3
Sieb 3
Sig@@ 3
Silber@@ 3
Skijacke 3
Skiläufer 3
Skistöcken 3
Smokings 3
Sofas 3
Softballspiel 3
Softballspieler 3
Softballspiels 3
Soldaten@@ 3
Solo 3
Sombrero 3
Sommer 3
Sonn@@ 3
Sonnenschild 3
Sonnentag 3
Spanien 3
Spazierstöcken 3
Spielautomaten 3
Spielgerät 3
Spielhalle 3
Spielzeugzug 3
Spitzbart 3
Spitzen@@ 3
Sportbekleidung 3
Sportgeschäft 3
Sporthose 3
Spre@@ 3
Springbrunnen@@ 3
Spritzwasser 3
Sprungs 3
Sprungtritt 3
Sprungwurf 3
Spuren 3
Stachel@@ 3
Stadtbild 3
Stadtgebiet 3
Start 3
Staubsaugerschlauch 3
Steaks 3
Steigung 3
Steindenkmal 3
Stethoskop 3
Steuer@@ 3
Stiften 3
Stirnbändern 3
Stock@@ 3
Stoffe 3
Stoffhut 3
Stofftiere 3
Stoß 3
Straßenbahn 3
Straßenbahn@@ 3
Straßenkleidung 3
Straßenlampe 3
Straßenlaterne 3
Straßenschild 3
Straßenstand 3
Stroboskop@@ 3
Strümpfen 3
Stunde 3
Sturm@@ 3
Sturzhelm 3
Styropor@@ 3
Ständen 3
Stückchen 3
Substanz 3
Sumoringer 3
Sumpfgebiet 3
Sweatshirts 3
Säcken 3
Söhne 3
Sü@@ 3
Tabak 3
Tabletts 3
Talkie 3
Tandem 3
Tanktops 3
Tarnhose 3
Tarnmuster 3
Tastatur 3
Tattoos 3
Teamkollegen 3
Teammitglied 3
Teddybären 3
Tennisspiel 3
Teppichboden 3
Teppiche 3
Teppichen 3
Tiger 3
Tiger@@ 3
Tintenfisch 3
Toilette 3
Tonstudio 3
Top@@ 3
Torte 3
Torwart 3
Touristengruppe 3
Toyota 3
Training@@ 3
Traktor@@ 3
Transportmittel 3
Transportwagen 3
Trauzeugen 3
Treppenhauses 3
Trikotnummer 3
Tritt 3
Trockner 3
Trompeter 3
Truck 3
Truppe 3
Tu@@ 3
Tulpen 3
Tunika 3
Turnschuhe 3
Tutus 3
Twister 3
Töpferware 3
Ukulele 3
Um 3
Ungefähr 3
Uniformierte 3
Universität 3
Unkraut 3
Unterlagen 3
Unterstützung 3
V 3
VW 3
Vegas 3
Veranstaltungsort 3
Verkehrsmittel 3
Verkleiden 3
Verlassen 3
Verwendung 3
Vieh 3
Vielzahl 3
Viertel 3
Vogelschwarm 3
Volkswagen 3
Volleyballspielerin 3
Von 3
Vorschlaghammer 3
Vortragssaal 3
Waage 3
Wache 3
Wade 3
Wahr@@ 3
Waldhorn 3
Walkie 3
Wanderausrüstung 3
Wanderern 3
Wanderin 3
Wanderstöcke 3
Wandtafel 3
Ware 3
Wartebereich 3
Warten 3
Wartungsarbeiten 3
Wartungsarbeiter 3
Wasserball 3
Wasserfalls 3
Wassernähe 3
Wasserpfütze 3
Wasserpistole 3
Wasserpistolen 3
Wasserweg 3
Web@@ 3
Weibliche 3
Weihnachtszeit 3
Weinglas 3
Weit@@ 3
Weizen 3
Weiße 3
Welcome 3
Werbeanzeige 3
Werkzeuggürtel 3
Whirlpool 3
Wii 3
Wildblumen 3
Wimp@@ 3
Windsurfer 3
Winterjacken 3
Wisch@@ 3
Wochenmarkt 3
Wohngegend 3
Wohnmobil 3
Wohnwagen 3
Wok 3
Wort 3
Wunderkerze 3
Wunderkerzen 3
Wurf@@ 3
Wäldern 3
Wörter 3
Würstchen 3
Zahnspange 3
Zeichnungen 3
Zeigefinger 3
Zementmischer 3
Ziegelstraße 3
Ziegen@@ 3
Zombies 3
Zopf 3
Zugabteil 3
Zusammenkunft 3
Zweck 3
Zweig 3
Zweige 3
Zweigen 3
Zwölf 3
abgelegt 3
abgeschnittenen 3
abgestimmten 3
abseits 3
abzufangen 3
abzunehmen 3
afro 3
afroamerikanischen 3
akustischen 3
albert 3
alen 3
allen 3
altmodische 3
amp 3
anbietet 3
angebunden 3
angegriffen 3
angekettet 3
angeleint 3
angeln 3
angemalt 3
angemalten 3
angeschaut 3
angeschnallt 3
angucken 3
anhält 3
ankommenden 3
arabischer 3
are 3
attackieren 3
aufgebaut 3
aufgehängt 3
aufgemalt 3
aufgeregte 3
aufgeri@@ 3
aufgesetzten 3
aufgestellten 3
aufhalten 3
aufnehmen 3
aufnimmt 3
auftreten 3
ausführt 3
ausgefransten 3
ausgelassen 3
ausgelegt 3
ausgeschnittene 3
ausgestopfte 3
ausgestopften 3
ausländische 3
ausstreckt 3
auswirft 3
auszuruhen 3
auszuziehen 3
außergewöhn@@ 3
backen 3
basteln 3
becher 3
bedeckte 3
bedruckt 3
beeindruckende 3
beigefarbener 3
beleibter 3
beleuchtete 3
bellen 3
bemalte 3
benden 3
benen 3
bereich 3
bergab 3
beruhigt 3
beschmiert 3
beschädigtes 3
besetzte 3
bespritzen 3
bestehenden 3
besteigen 3
beta@@ 3
betreibt 3
betreut 3
betriebenen 3
beugen 3
bewachen 3
bewertet 3
bewölktem 3
bezeichnet 3
bildet 3
bittet 3
blass@@ 3
blaugrünem 3
bleckt 3
block@@ 3
bloßen 3
board 3
boden 3
braunhaarigen 3
brechenden 3
breit 3
breites 3
breitet 3
brennt 3
bräunlichen 3
bs 3
bs@@ 3
buch 3
bummeln 3
bärtigen 3
bäumen 3
che 3
cken 3
dahin@@ 3
danach 3
darstellt 3
darum 3
dasselbe 3
dehnt 3
denken 3
deutlich 3
deutschen 3
dige 3
diges 3
dischen 3
dort 3
dreckigen 3
drein 3
drängeln 3
drängt 3
duckt 3
dunkelhaarigen 3
dunkelhäutiges 3
dünner 3
einfach 3
eingepacktes 3
eingerahmte 3
eingesch@@ 3
einsame 3
einzigartigen 3
eis@@ 3
elte 3
elten 3
enen 3
ener 3
entdeckt 3
entfernten 3
entlangfährt 3
entscheiden 3
ere 3
erfahrener 3
erklettert 3
erkundet 3
ernten 3
errichten 3
errichtet 3
erscheint 3
erste 3
europäisches 3
fahrer 3
fahrzeug 3
fallenden 3
farbiger 3
farblich 3
fegen 3
fenster 3
fern 3
festlichen 3
finden 3
flache 3
flachem 3
flugzeug 3
formellen 3
französischen 3
frei 3
frisches 3
ft 3
föhnt 3
förmige 3
förmlichen 3
fünf@@ 3
für@@ 3
galoppiert 3
ganze 3
gebauten 3
gebeugter 3
geblockt 3
gebunden 3
gebückt 3
gedruckt 3
geduckter 3
gefließten 3
gefrorene 3
gefüttert 3
gegnerischer 3
gegrill@@ 3
gehenden 3
gehendes 3
geholt 3
gekauft 3
gekreuzten 3
gel 3
gelandet 3
gelt 3
gemeinsame 3
gemeinsamen 3
gemusterte 3
gemä@@ 3
gend 3
geometrischen 3
geparkte 3
gepolsterten 3
gers 3
ges 3
geschminkte 3
geschminkter 3
geschnitzte 3
gesenkt 3
gesicher@@ 3
gestapelt 3
gestellt 3
gestrichenen 3
gestürzt 3
getaucht 3
getraut 3
getupften 3
gewandt 3
gewaschen 3
gewinnt 3
geworfenen 3
gezogenen 3
giganti@@ 3
gitarren@@ 3
gleichauf 3
gleicher 3
gläser 3
glätten 3
glättet 3
glücklichen 3
goldfarbener 3
grindet 3
gruppe 3
grusel@@ 3
größer 3
größerer 3
grüßt 3
gte 3
gten 3
habe 3
hacken 3
halbwilden 3
halt 3
harkt 3
haube 3
haus 3
heim@@ 3
hellblauem 3
hellblauer 3
hellem 3
heran 3
herausragen 3
herauszufinden 3
herunterzu@@ 3
hingesetzt 3
hintere 3
hintereinander 3
hinunterzu@@ 3
hochgelegten 3
hochspringen 3
hochzuheben 3
holz@@ 3
hut 3
hämmert 3
hätte 3
hölzernes 3
hübscher 3
hübsches 3
hügeligen 3
ige 3
iges 3
ignoriert 3
indisches 3
inne 3
innen 3
interagiert 3
interessierten 3
irgendwelchen 3
italieni@@ 3
iter 3
its 3
ität 3
jedoch 3
jugendlicher 3
kahlköpfigen 3
kaltes 3
kanadische 3
kasten 3
kaukasische 3
kaukasischer 3
ke 3
ken 3
ker 3
klammert 3
klarem 3
kleinem 3
kleinerer 3
kniend 3
knurrt 3
komischen 3
kommunizieren 3
kommuniziert 3
komplizierten 3
konkur@@ 3
kontrollieren 3
kontrolliert 3
kostümen 3
kt 3
ktion 3
kurzhaarige 3
kurzhaariger 3
kurzärmeligen 3
kuscheln 3
langärmigen 3
laufenden 3
laufender 3
lauschen 3
laut 3
lauter 3
le 3
lebhaft 3
leisten 3
lesend 3
leuchten 3
leuchtende 3
liegender 3
lilafarbenes 3
lindgrünen 3
lung 3
malerische 3
manövriert 3
marineblau 3
matschigen 3
mauer 3
mechanischen 3
meditiert 3
mehrerer 3
mehrfarbigem 3
menschlichen 3
mer 3
messen 3
militärischer 3
mittelalterlichen 3
mittelalterlicher 3
mmel 3
modisch 3
modischen 3
motorisierten 3
musizieren 3
müssen 3
ndes 3
neu 3
neues 3
nieder@@ 3
niedliches 3
nis 3
nt 3
nten 3
o 3
offen 3
offiziellen 3
operieren 3
or 3
os 3
parallel 3
park 3
pflücken 3
ppen 3
prahlt 3
presst 3
proben 3
professioneller 3
proji@@ 3
prunkvollen 3
präsentieren 3
qualmt 3
r 3
rasen 3
rastet 3
raum 3
redend 3
reflektierender 3
reißt 3
religiösen 3
renoviert 3
riesiges 3
rockt 3
rosarot 3
rotbraunen 3
rotweißen 3
rundherum 3
runter@@ 3
räumen 3
rötlichen 3
rückt 3
sagen 3
scharfe 3
scheibe 3
schem 3
scher@@ 3
schicken 3
schickt 3
schirmen 3
schlachtet 3
schleudert 3
schmettern 3
schmutzigem 3
schneebedecktem 3
schnitzen 3
schreien 3
schreitet 3
schräg 3
schubsen 3
schulter@@ 3
schwangere 3
schwarzhaarigen 3
schweißen 3
schwerem 3
schwitzt 3
schöpft 3
schützend 3
seht 3
seichtes 3
seltsamer 3
senffarbenen 3
senkrecht 3
sichtbaren 3
silbernes 3
skaten 3
skulptur 3
sonnendurchfluteten 3
sonnt 3
spanische 3
spektakulären 3
spiel 3
spielzeug 3
sprintet 3
spülen 3
ss 3
stab 3
stacheligen 3
station 3
ste 3
steinen 3
stemmt 3
ster 3
stet 3
stoppen 3
stramm 3
straße 3
streut 3
stricken 3
stutzt 3
städtischer 3
stämmige 3
synchron 3
säubern 3
tackeln 3
tag 3
tanz 3
tanzenden 3
tauchen 3
tauscht 3
testen 3
theke 3
tiefe 3
tiefes 3
tiert 3
tigen 3
tragend 3
transportieren 3
traurigen 3
trübes 3
tuch 3
täglichen 3
tätowiert 3
umgedreht 3
umgekippten 3
umgibt 3
unbekannten 3
unechten 3
ungewöhnlich 3
unüberdachten 3
urbanen 3
verdre@@ 3
verheiratete 3
verkehrsreichen 3
verkäufer 3
verletzte 3
verletzten 3
verloren 3
verläuft 3
vermähltes 3
verrichtet 3
verrückter 3
verschwit@@ 3
verschwommen 3
versenkt 3
versetzt 3
verstreut 3
verteidigt 3
vervollständigt 3
verwahrlo@@ 3
verzerrtes 3
vollständig 3
voneinander 3
vorbeilaufen 3
vorführen 3
vorm 3
vorwärts 3
vorübergeht 3
warmer 3
wartenden 3
weht 3
weiblicher 3
weicht 3
weiten 3
weiter@@ 3
weiteres 3
wenige 3
werdender 3
werk 3
west@@ 3
wissenschaftlichen 3
wollen 3
wunderschönes 3
wählen 3
wärmen 3
wühlt 3
zahlreiche 3
zahlreichen 3
zeichen 3
zelt 3
zentrum 3
zerren 3
zeugen 3
zielen 3
zten 3
zter 3
zubereiten 3
zusammengedrängt 3
zusammengefunden 3
zusammengerol@@ 3
zwickt 3
Äpfeln 3
Ästen 3
Öffnung 3
Üben 3
ße 3
ähnlicher 3
ändert 3
ärmelloses 3
öffentlicher 3
übereinander 3
überfüll@@ 3
übergeben 3
übergewichtige 3
übergroßen 3
übernimmt 3
überreicht 3
übers 3
übersäten 3
ür 3
% 2
-Hemd 2
.. 2
.000 2
13 2
14 2
2008 2
30 2
30ern 2
38 2
50 2
63 2
7 2
80er 2
96 2
Abdeckplane 2
Abdeckung 2
Abendbrottisch 2
Abenteu@@ 2
Abfahrt 2
Abfall 2
Abflug 2
Abfluss@@ 2
Absatz 2
Abschluss 2
Absperrungen 2
Abwasser@@ 2
Abwehr@@ 2
Abzeichen 2
Acker 2
Ackerland 2
Afrika 2
Afro 2
Afroamerikanische 2
Ahornblatt 2
Airways 2
Akrobatik 2
Akrobatin 2
Aktion@@ 2
Aktivitäten 2
Alar@@ 2
Alaska 2
Algen 2
Alle 2
Allee 2
Allradfahrzeug 2
Alpha@@ 2
Alt@@ 2
Altar 2
Alters@@ 2
Alumini@@ 2
Ambiente 2
American 2
Amerika 2
Amput@@ 2
Angelausflug 2
Angeles 2
Angreifer 2
Angriff 2
Angst 2
Ankunft 2
Ansichten 2
Anspiel 2
Antiqu@@ 2
Antwor@@ 2
Apartment 2
Apartment@@ 2
Apotheke 2
Arbeitneh@@ 2
Arbeitsbank 2
Arbeitshandschuhe 2
Arbeitsort 2
Arbeitstag 2
Arbeitswesten 2
Archäologen 2
Armbanduhr 2
Armbändern 2
Armut 2
Asiatischer 2
Asphaltbelag 2
Assisten@@ 2
Astronautenanzug 2
Atlanta 2
Attraktion 2
Au 2
Auditorium 2
Aufgeregte 2
Aufsicht 2
Aufsitzmäher 2
Aufstell@@ 2
Augenbraue 2
Augenbrauen 2
Augenschein 2
Augenschutz 2
Ausschnitt 2
Ausstattung 2
Ausstellung@@ 2
Ausstellungs@@ 2
Ausstellungsraum 2
Auswirk@@ 2
Auszeit 2
Autodach 2
Autofahrer 2
Autofenster 2
Automaten 2
Autor 2
Außenanlage 2
Backsteinweg 2
Badeshorts 2
Badezeug 2
Badezimmer@@ 2
Badminton 2
Badminton@@ 2
Badmintonspieler 2
Bagel 2
Bahnarbeiter 2
Bahngleis 2
Bahnhofs 2
Bahnhofsgebäude 2
Bahnrennen 2
Bahnschienen 2
Bahntunnel 2
Ballerinas 2
Ballet@@ 2
Ballettklasse 2
Balletttänzer 2
Balletttänzerinnen 2
Ballonfiguren 2
Ballontier 2
Baltimore 2
Bananen@@ 2
Bande 2
Bandmitglied 2
Banjospieler 2
Barbie 2
Barkeeperin 2
Baseballcap 2
Baseballhandschuh 2
Baseballstadion 2
Baseballteam 2
Baseballuniform 2
Basketballkorbs 2
Basketballmannschaft 2
Basketballspielerin 2
Bassist 2
Batter 2
Bauchtänzerin 2
Bauern 2
Baugerät 2
Baumaschine 2
Baumgrenze 2
Baumstamms 2
Bauten 2
Beamter 2
Beanie 2
Bears 2
Beat@@ 2
Becherglas 2
Bechern 2
Beer@@ 2
Begleitung 2
Behand@@ 2
Beifahr@@ 2
Beil 2
Beispiel 2
Belag 2
Beleuchtungsk@@ 2
Benzin 2
Benzin@@ 2
Beobachter 2
Bereit@@ 2
Bereitschaft@@ 2
Berggipfeln 2
Bergkette 2
Bergspitze 2
Bergwand 2
Bergwanderweg 2
Bergweg 2
Beri@@ 2
Berieselungsanlage 2
Berlin 2
Beschreibung 2
Beschäftigter 2
Besprechung 2
Besteck 2
Besucher 2
Besuchern 2
Betonblock 2
Betongebäude 2
Betonkonstruktion 2
Betonsperren 2
Bettdecke 2
Betten 2
Beut@@ 2
Biene 2
Biergarten 2
Biersor@@ 2
Big 2
Bikes 2
Bikinioberteile 2
Bilderbuch 2
Bilds 2
Bill 2
Billard@@ 2
Birthday 2
Bissen 2
Blasinstrument 2
Blasinstrumente 2
Blasinstrumenten 2
Blech 2
Blechblasinstru@@ 2
Bleistiftrock 2
Blicken 2
Blonde 2
Blonder 2
Blondine 2
Blumengeschäft 2
Blumenladen 2
Blumentöpfe 2
Blüte 2
Blütenblätter 2
Boa 2
Boards 2
Bodenball 2
Bodennähe 2
Body 2
Bodyboard 2
Bodybuilder 2
Bodysuit 2
Bohnen 2
Bong@@ 2
Bongo 2
Bongos 2
Boogie 2
Boogieboard 2
Bootsdeck 2
Bootsfahrern 2
Bordercollie 2
Boss 2
Bot@@ 2
Bottich 2
Bou@@ 2
Boutique 2
Box 2
Boxershorts 2
Boxring 2
Boy 2
Brand 2
Brasilien 2
Brauner 2
Brautpaar 2
Brautstrauß 2
Breakdancer 2
Bretter 2
Brezeln 2
Brieftasche 2
Broadway 2
Brokkoli 2
Brotlaib 2
Brotstand 2
Brut@@ 2
Brötchen 2
Brüder 2
Brüsten 2
Brüstung 2
Buches 2
Buchladen 2
Budweiser 2
Bukett 2
Bulldogge 2
Bunte 2
Buntstiften 2
Burg 2
Burger 2
Burka 2
Busfahrer 2
Busfenster 2
Busse 2
Bussen 2
Butter 2
Bäcker 2
Bänder 2
Bären 2
Bögen 2
Büchertasche 2
Bügel@@ 2
Bühnenlicht 2
Bühnenmitte 2
Bürgerkrie@@ 2
Bürgerkriegs 2
Bürgerstein 2
Büroarbeit 2
Bürogebäudes 2
Cadillac 2
Calvin 2
Campen 2
Camper 2
Campingausrüstung 2
Campingstuhl 2
Campingstühlen 2
Campus 2
Canyon 2
Caprihosen 2
Capris 2
Car 2
Care 2
Casino 2
Cellospieler 2
Center 2
Challenge 2
Champagner 2
Chef 2
Chefs 2
Chevrolet 2
Chinese 2
Chinesen 2
Circus 2
Cocktails 2
Coffee 2
College@@ 2
Collegestudenten 2
Comic@@ 2
Comicfigur 2
Company 2
Computerbild@@ 2
Computers 2
Converse 2
Corgi 2
Cowboyhüte 2
Crayola 2
Crew 2
Crocs 2
Cross@@ 2
Cupcakes 2
Cur@@ 2
Cyclone 2
DJs 2
Dachdecker 2
Dachter@@ 2
Dachziegel 2
Dack@@ 2
Damenunterwäsche 2
Darth 2
Davidstern 2
Deckeln 2
Decken@@ 2
Defen@@ 2
Defense 2
Dekoration 2
Delfin 2
Deli 2
Design 2
Designer@@ 2
Desserts 2
Det@@ 2
Deutsche 2
Deutscher 2
Didgerido@@ 2
Dien@@ 2
Dinosauri@@ 2
Display 2
Do 2
Dober@@ 2
Dogge 2
Dojo 2
Doktor 2
Donner@@ 2
Doo 2
Doppeldeckerbus 2
Dou@@ 2
Down 2
Dr@@ 2
Drache 2
Drachenflieger 2
Dragster 2
Dreirädern 2
Dschungel@@ 2
Dung 2
Durch 2
Durcheinander 2
Dutzend 2
Düsen@@ 2
Eck@@ 2
Edelsta@@ 2
Ehepaar 2
Eichhörnchen 2
Eide@@ 2
Eiffelturm 2
Einbruch 2
Eindruck 2
Eingeboren@@ 2
Einhei@@ 2
Einheimischer 2
Einkaufskorb 2
Einkaufstüte 2
Einkaufszentrums 2
Einricht@@ 2
Einsatzkräfte 2
Einstieg@@ 2
Einzelhandels@@ 2
Einzelpersonen 2
Eisenstange 2
Eisfläche 2
Eiskunstläufer 2
Eislaufbahn 2
Eisläufer 2
Eisschnelllauf 2
Eistee 2
Eiszapfen 2
El 2
Elefant 2
Elefanten@@ 2
Elektrogerät 2
Elektronik 2
Elektronik@@ 2
Elementary 2
Eleph@@ 2
Ellbogen 2
Ellenbogen 2
Empanadas 2
Empfan@@ 2
Empfang 2
Empfang@@ 2
Enden 2
Engelskostümen 2
Engelsstatue 2
Engine 2
Enrolling 2
Enterta@@ 2
Entscheidung 2
Equipment 2
Erdbeere 2
Erfrisch@@ 2
Espresso 2
Essenstisch 2
Essenszubereitung 2
Esstischen 2
Etwa 2
Event 2
Exponat 2
Express 2
Extre@@ 2
Eyeliner 2
Fachkräfte 2
Factory 2
Faden 2
Fah@@ 2
Fahnen@@ 2
Fahrbahn 2
Fahrersitz 2
Fahrgast 2
Fahrrad- 2
Fahrradfahren 2
Fahrradhelme 2
Fahrradhelmen 2
Fahrradkleidung 2
Fahrradmechaniker 2
Fahrradrahmen 2
Fahrradständer 2
Fahrradtaxi 2
Fahrradtour 2
Fairway 2
Falke 2
Falken 2
Fallschirmsegeln 2
Familien 2
Familienmitglieder 2
Fanghandschuh 2
Farbdose 2
Farbwalze 2
Farm 2
Farn 2
Fast 2
Fastfood 2
Fau 2
Faust@@ 2
Federhut 2
Fee 2
Feiertage 2
Felder 2
Feldern 2
Feldfrü@@ 2
Feldhockeyspieler 2
Fell@@ 2
Felsab@@ 2
Felsblocks 2
Felsvorsprung@@ 2
Fensterfront 2
Fensters 2
Ferkel 2
Fernsehbild@@ 2
Fersen 2
Fertig@@ 2
Festsaal 2
Festumzugs 2
Feuchtgebiet 2
Feuerball 2
Feuerhydranten 2
Feuers 2
Feuerwehr 2
Feuerwehrangehöriger 2
Feuerwehrhelm 2
Feuerwehrmitarbeiter 2
Feuerwehrschlauch 2
Feuerwerkskörper 2
Filmcrew 2
Filmplakat 2
Fingernägeln 2
Fingerspitzen 2
Fire 2
Fischernetze 2
Fischzug 2
Fitnes@@ 2
Five 2
Flaggen@@ 2
Fleischer@@ 2
Fliegenfischen 2
Flucht 2
Flugbegleitung 2
Flugblatt 2
Fluggäste 2
Flugzeug@@ 2
Flyer 2
Flößen 2
Folklore@@ 2
Fontänen 2
Footballteams 2
Force 2
Formalitäten 2
Formation 2
Forschungs@@ 2
Fort 2
Fotoalbum 2
Fototermin 2
Fotovorlage 2
Foyer 2
Fra@@ 2
Frack 2
Fragen 2
Francisco 2
Frauengruppe 2
Frauenvolleyball 2
Frauenvolleyball@@ 2
Free 2
Freibad 2
Freiluftbühne 2
Freiwilli@@ 2
Freiwurf 2
Freue 2
Freundesgruppe 2
Fris@@ 2
Frisbees 2
Frisch@@ 2
Friseurladen 2
Friseurstuhl 2
Front 2
Frontscheibe 2
Frosch@@ 2
Frucht 2
Frucht@@ 2
Frühlingstag 2
Frühstück 2
Fußballs 2
Fußballspielern 2
Fußbrücke 2
Fußbälle 2
Fußgängerüberwegs 2
Fußspuren 2
Fäden 2
Fähigkeiten 2
Fässern 2
Föhn 2
Förderband 2
Führer 2
Fülle 2
Für 2
Gangs 2
Ganzkörper@@ 2
Garnelen 2
Gartenarbeit 2
Gasgrill 2
Gast 2
Gastronomiebereich 2
Gebetste@@ 2
Gebiets 2
Gebilde 2
Gebrau@@ 2
Gebäudekomplex 2
Gebüsch 2
Gedicht 2
Geflügel 2
Gefä@@ 2
Gefährt 2
Gefälle 2
Gegen 2
Gegnerin 2
Gegnerische 2
Gegnern 2
Gegners 2
Gehege 2
Geheim@@ 2
Gehende 2
Gehgestell 2
Geige@@ 2
Geigenspieler 2
Geist@@ 2
Gelbe 2
Geländefahrzeugs 2
Geländer@@ 2
Gemeinde@@ 2
Gemäldes 2
Gemüseauslage 2
Gepäcktasche 2
Geräte 2
Geräts 2
Geschenk@@ 2
Geschenken 2
Geschenkpapier 2
Geschwister@@ 2
Geschäfte 2
Geschäftsviertel 2
Gesichtsfarbe 2
Gestalt 2
Gesteins@@ 2
Gewalt 2
Gewebe 2
Gewichte 2
Gewichthe@@ 2
Gewür@@ 2
Gewürze 2
Gießkanne 2
Gipfeln 2
Gips 2
Gitarrenkoffer 2
Gitarrespielen 2
Gitarristin 2
Glasbehälter 2
Glasbläser 2
Glasflasche 2
Glasflaschen 2
Glasgebäudes 2
Glasscheibe 2
Glocke 2
Glück@@ 2
Glühbir@@ 2
Goldschmuck 2
Golfen 2
Grabenbagger 2
Grand 2
Grasbahn 2
Grashügel 2
Grass 2
Grasweg 2
Gremi@@ 2
Greyhound 2
Grillrestaurant 2
Großeltern 2
Großes 2
Großmarkt 2
Großvater 2
Grundstück 2
Grünes 2
Gum@@ 2
Gummi 2
Gummiball 2
Gummihammer 2
Gummischuhen 2
Gurtzeug 2
Gut 2
Gyros 2
Gänse 2
Gänse@@ 2
Gär@@ 2
Gässchen 2
Gü@@ 2
Gürteltasche 2
H 2
Hab 2
Hacke 2
Hafenbecken 2
Hafenbeckens 2
Hallenlaufbahn 2
Halsbändern 2
Halstüchern 2
Halt 2
Haltegurt 2
Handarbeit 2
Handbewegung 2
Handgelenk@@ 2
Handmixer 2
Handtrommel 2
Handtücher 2
Handwerk@@ 2
Harlem 2
Hartholzboden 2
Hasen 2
Hasenkostüm 2
Hasenohren 2
Haube 2
Hausparty 2
Hausti@@ 2
Haustür 2
Hawaiihemd 2
Head 2
Hebebühne 2
Hebevorrichtung 2
Heck 2
Hecken 2
Heckklappe 2
Heels 2
Heil@@ 2
Heimatlandes 2
Heimweg 2
Heineken 2
Helikopter 2
Hell@@ 2
Hello 2
Herbstlaub 2
Herstellung 2
Herzschlag 2
Heuballen 2
Hindernis@@ 2
Hindernispfad 2
Hintergrund@@ 2
Hip@@ 2
Hippie 2
Hirtenhund 2
Hitze 2
Hochdruckreiniger 2
Hochzeitsfoto 2
Hochzeitsfotos 2
Hochzeitskuchen 2
Hockern 2
Hockeyfeld 2
Hockeyschläger 2
Hockeyschlägern 2
Hockeyspielern 2
Hockeytorhüter 2
Holzbalken 2
Holzblöcke 2
Holzbrücke 2
Holzdeck 2
Holzfußboden 2
Holzfäller 2
Holzgeländer 2
Holzhaus 2
Holzhütte 2
Holzkiste 2
Holzkisten 2
Holzklötzen 2
Holzkreuz 2
Holzleiter 2
Holzmöbeln 2
Holzpfosten 2
Holzsch@@ 2
Holzstamm 2
Holzsteg 2
Holzstruktur 2
Holzstäbe 2
Holzstück 2
Holzstücken 2
Holztreppe 2
Holzveranda 2
Holzwand 2
Home@@ 2
Hoops 2
Hopper 2
Hornspieler 2
Hosentasche 2
Hosentaschen 2
Hotels 2
Hufei@@ 2
Hulk 2
Hundeh@@ 2
Hundem@@ 2
Hunderennbahn 2
Hundeschlitten 2
Hundet@@ 2
Hunds 2
Hä@@ 2
Hähn@@ 2
Häl@@ 2
Händlern 2
Hüften 2
Hügel@@ 2
Hügeln 2
Hügels 2
Hühn@@ 2
Hündin 2
Hürden@@ 2
Hütchen 2
Hütten 2
Iglu 2
Ihrem 2
Imbissbude 2
Imbisswagen 2
Inderinnen 2
Indianer@@ 2
Infield 2
Inlineskat@@ 2
Innenräumen 2
Innenstadtbereich 2
Ins@@ 2
Insassen 2
Insekt 2
Insekten 2
Interview 2
Iowa 2
Irgendein 2
Irokesenhaarschnitt 2
Italien 2
Jag@@ 2
Jahr 2
Jalousien 2
James 2
Japanerinnen 2
Jazz 2
Jazz@@ 2
Jeansanzug 2
Jerseys 2
Jerusalem 2
Jet 2
Jim 2
Jo 2
Johns 2
Jongleur 2
Jump 2
Jumping 2
Jungen@@ 2
Jungenmannschaft 2
Jury 2
Juwelier@@ 2
Juweliergeschäft 2
Jün@@ 2
Kabinen 2
Kaffeehaus 2
Kais 2
Kak@@ 2
Kalifornien 2
Kameracrew 2
Kameraobjektiv 2
Kampfanzügen 2
Kampfkunst 2
Kampfsportturnier 2
Kampfsportveranstaltung 2
Kanada 2
Kanals 2
Kandi@@ 2
Kanne 2
Kapitän@@ 2
Kappen 2
Karatekampf 2
Karateturnier 2
Karneval@@ 2
Karot@@ 2
Kartoffelchip 2
Kasino 2
Kassen@@ 2
Katzenbabies 2
Katzenbaby 2
Kaufhaus@@ 2
Kawasaki 2
Keba@@ 2
Keep 2
Kegel@@ 2
Kegelhut 2
Keks 2
Keni@@ 2
Kennzeichnung 2
Kettenkarussell 2
Key@@ 2
Kickbox@@ 2
Kieselsteine 2
Kieshügel 2
Kiesstrand 2
Kilt@@ 2
Kimono 2
Kinderbett 2
Kinderbuch 2
Kinderfahr@@ 2
Kinderschaukel 2
Kindertisch 2
King 2
Kinn@@ 2
Kippla@@ 2
Kirchenchor 2
Kirme@@ 2
Kirmesattraktion 2
Kissenschlacht 2
Kitesurfer 2
Klebe@@ 2
Kleidungsstück 2
Klein 2
Kleinbusses 2
Kleinkinds 2
Klem@@ 2
Kliff 2
Klippen 2
Klub 2
Klötze 2
Kneipen@@ 2
Kniestrümpfe 2
Knöpfe 2
Kochjacke 2
Kochmütze 2
Kochtopf 2
Koffern 2
Kolle@@ 2
Kolonial@@ 2
Kombis 2
Kommunikationsgerät 2
Kondit@@ 2
Kongress@@ 2
Konserven 2
Kontrabass 2
Konzert@@ 2
Konzertaufführung 2
Kopfstand 2
Kopie 2
Korb@@ 2
Korbs 2
Korken 2
Korn@@ 2
Kosmetik@@ 2
Kraft@@ 2
Krankenhauskleidung 2
Krankenpfleger 2
Kreuzen 2
Krieg 2
Krieger 2
Kriegs@@ 2
Krokodil 2
Krokodil@@ 2
Kräut@@ 2
Krügen 2
Kugelbad 2
Kuh@@ 2
Kultur 2
Kundgebung 2
Kunstartikeln 2
Kunsthand@@ 2
Kunsthandwerk 2
Kunstprojekt 2
Kunststoffbehälter 2
Kunststofffolie 2
Kunststoffro@@ 2
Kunststofftasse 2
Kätzchen 2
Küchenmaschine 2
Küchenutensilien 2
Kühe 2
Kühlbox 2
Kühlboxen 2
Künste 2
Kürbissen 2
Küstenwache 2
LA 2
Laborant 2
Laborkitteln 2
Labradoodle 2
Lachende 2
Lacrossespieler 2
Ladenfenster 2
Ladengeschäft 2
Lagerhalle 2
Lagerhaus 2
Lagerraum 2
Laken 2
Lametta 2
Landschaft@@ 2
Landungssteg 2
Landwirt 2
Langlauf 2
Langstrecken@@ 2
Las 2
Lateinamerikaner 2
Laternenpfahl 2
Latexhandschuhen 2
Lattenzaun 2
Latzhose 2
Latzhosen 2
Laubwerk 2
Laufgitter 2
Laufhosen 2
Laufoberteil 2
Laufschuhen 2
Laufstrecke 2
Lautsprechern 2
Le 2
LeBron 2
Leadsänger 2
Lebens 2
Lebensmittelbereich 2
Lebensmittelladen 2
Lebkuchen@@ 2
Leckerbissen 2
Leder 2
Lederoberteil 2
Lederschuhe 2
Lederstühlen 2
Lederweste 2
Lehnstuhl 2
Lein@@ 2
Leitplanken 2
Leitung 2
Leitungen 2
Leuchtreklame 2
Leuchtturm 2
Lichts 2
Lichtung 2
Life 2
Lift 2
Light 2
Lila 2
Limo 2
Limonaden 2
Limonaden@@ 2
Lineal 2
Linse 2
Live@@ 2
Livekonzert 2
Lokomotive 2
Lokomotiven 2
Lolli 2
Londoner 2
Lotteriel@@ 2
Louvre 2
Luftballontiere 2
Luftblasen 2
Luftmatratzen 2
Lutscher 2
Luxus@@ 2
Längsstreifen 2
Lätzchen 2
Löffeln 2
Löwen@@ 2
Löwenzahnblüte 2
MMA 2
Mac 2
Magazine 2
Mahl 2
Mahlzeiten 2
Mammutbaum 2
Mandel 2
Mannequin 2
Manns 2
Manöver 2
Marathonläufern 2
Marathons 2
Marine@@ 2
Marker 2
Markierung 2
Markierungen 2
Marmor 2
Marx 2
Masch@@ 2
Maschendraht 2
Masse 2
Massen@@ 2
Matador 2
Matrosen 2
Matrosenanzug 2
Mauer@@ 2
Mauern 2
Maurer@@ 2
Meda@@ 2
Medaillen 2
Medizinisches 2
Meeresfrüchte 2
Meeresstrand 2
Meereswellen 2
Mehrfamilienhaus 2
Meister@@ 2
Meißel 2
Menschenmassen 2
Metallabsperrung 2
Metallarbeiter 2
Metallbank 2
Metallbauwerk 2
Metalldach 2
Metallgebilde 2
Metallgerüst 2
Metallkiste 2
Metallobje@@ 2
Metallpfosten 2
Metallrahmen 2
Metallrohr 2
Metallskulptur 2
Metallstruktur 2
Metallstuhl 2
Metalltor 2
Metro@@ 2
Metzger 2
Metzgerei 2
Mexikanische 2
Mexiko 2
Michael 2
Michigan 2
Miene 2
Mike 2
Mikroskopen 2
Militärhosen 2
Mini 2
Minir@@ 2
Minirock 2
Minnesota 2
Misch@@ 2
Mitarbeiterin 2
Mitfahrgelegenheit 2
Mitgliedern 2
Mittelpunkt 2
Mix@@ 2
Mixer 2
Mode@@ 2
Modelleisenbahn 2
Modellflug@@ 2
Mohikaner 2
Mole 2
Monit@@ 2
Monitor 2
Monument 2
Morgen@@ 2
Morgenrock 2
Motorradfahren 2
Motorradfahrerin 2
Motorradhelm 2
Motorradhelme 2
Motorrads 2
Motorschlitten 2
Mouse 2
Muffins 2
Mul@@ 2
Muschel 2
Muse@@ 2
Musikausrüstung 2
Musikerin 2
Muskeln 2
Mustang 2
Mädchengruppe 2
Mädchenmannschaften 2
Männe 2
Männerteam 2
Männliche 2
Männliches 2
Möbelgeschäft 2
Mögli@@ 2
Müllhaufen 2
Mülltonnen 2
Münzfern@@ 2
Münzfernsprecher 2
Münztelefon 2
Nachbarn 2
Nachhauseweg 2
Nachricht 2
Nachrichten@@ 2
Nachrichtensprecher 2
Nacken 2
Nacken@@ 2
Nadelstreifenhemd 2
Nagelpistole 2
Nahrung 2
Namensschildern 2
Nasen 2
Naturpfad 2
Naturprodukten 2
Needle 2
Neongrün 2
Netzstrümpfen 2
Neujahr@@ 2
Nieder@@ 2
Ninj@@ 2
Nische 2
No 2
Nonnen@@ 2
Nonnentracht 2
Notebook 2
Notebooks 2
Notenblatt 2
Notenblättern 2
Notfall@@ 2
Notiz 2
Notre 2
Nutz@@ 2
Nägel 2
Nähen 2
Oakland 2
Oberleitungsfahrzeug 2
Objekti@@ 2
Ohrenschützern 2
Ohrhörer 2
Ohrringen 2
Ohrschützern 2
Ohrstöpseln 2
Oliven@@ 2
Olympia@@ 2
Olympische 2
Opfer 2
Orchesters 2
Ordner 2
Orgel 2
Orioles 2
Ort@@ 2
Orten 2
Oster@@ 2
P 2
PC 2
Pabst 2
Pain 2
Pakete 2
Palmwedeln 2
Pand@@ 2
Papagei 2
Papierhut 2
Papierteller 2
Pappschachtel 2
Pappteller 2
Paris 2
Parka 2
Parken 2
Parkgarage 2
Parkuhr 2
Part 2
Partner 2
Partnerin 2
Passagier 2
Patient 2
Pavillon 2
Pedal 2
Pedale 2
Pelikan 2
Penn 2
Perle 2
Personen@@ 2
Personenzug 2
Perücken 2
Pfadfindern 2
Pfannen@@ 2
Pfannkuchen 2
Pfarrer 2
Pfau 2
Pfauenkostüm 2
Pfeffer@@ 2
Pfeiler 2
Pferch 2
Pferdefuhrwerk 2
Pferdeschwänzen 2
Pferdewagen 2
Pflanzen@@ 2
Pflege@@ 2
Pfote 2
Pianist 2
Piercing 2
Piercings 2
Piloten@@ 2
Pilz 2
Ping@@ 2
Pinguin 2
Pinguine 2
Pinien 2
Pinien@@ 2
Pitbull 2
Plakate 2
Plastikbecher 2
Plastikeimer 2
Plastikflasche 2
Plastikflaschen 2
Plastikwanne 2
Plattenladen 2
Plät@@ 2
Plüschtier@@ 2
Plüschtieren 2
Pokemon 2
Polizeiauto 2
Polizeibeamter 2
Polizeifahrzeug 2
Polizeiuniform 2
Ponchos 2
Pools 2
Portra@@ 2
Postkarten 2
Postmitarbeiter 2
Power 2
Powerpoint 2
Preis@@ 2
Preise 2
Preisrichter 2
Presse 2
Presslufthammer 2
Presslufthä@@ 2
Pritschenwagen 2
Pro 2
Problem 2
Projektorleinwand 2
Propangas@@ 2
Pucks 2
Puderzucker 2
Pulk 2
Pullovers 2
Päckchen 2
Quadbike 2
Quarter@@ 2
Querflöte 2
Rafting 2
Rallye 2
Rampen 2
Rasenplatz 2
Rasiercreme 2
Rasierer 2
Rasiermesser 2
Rasseln 2
Rasterlocken 2
Rauchfa@@ 2
Rauchwolke 2
Reaktion 2
Rechen 2
Reden 2
Refle@@ 2
Regalen 2
Regenbogen@@ 2
Regengu@@ 2
Regenjacke 2
Regenkleidung 2
Regenschri@@ 2
Regierung 2
Reifenspur 2
Reiseführer 2
Reisfeld 2
Reishut 2
Reitwettbewerb 2
Reißverschluss 2
Reklame@@ 2
Religiöse 2
Rennausrüstung 2
Rennfahrern 2
Rennhund 2
Rennmotorrad 2
Rentier 2
Reporter 2
Reportern 2
Requisiten 2
Restaurantmitarbeiter 2
Rettungshelfer 2
Rettungskraft 2
Reze@@ 2
Ribbon 2
Richtern 2
Rinder 2
Ringe 2
Ringer@@ 2
Risiko 2
Ritter 2
Ritualtanz 2
Rocker 2
Rod 2
Rodeoarena 2
Rodgers 2
Roh@@ 2
Rohr@@ 2
Rollerblader 2
Rollschuhbahn 2
Rollstuhlrennen 2
Rolltreppen 2
Rollwagen 2
Rosen@@ 2
Rothaarige 2
Rout@@ 2
Rudermannschaft 2
Runden 2
Rut@@ 2
Räder 2
Röcke 2
Rückbank 2
Saft@@ 2
Saiteninstrumenten 2
Samen 2
Samm@@ 2
Sandkasten 2
Sandsack 2
Sandsturm 2
Sandwich@@ 2
Sanitäter 2
Sarong 2
Sauerstoff@@ 2
Saxofonspieler 2
Saxophone 2
Saxophonisten 2
Schachbrett 2
Schaff@@ 2
Schar 2
Schaufel@@ 2
Schaufensterauslage 2
Schaufensterbummel 2
Schaukelgestell 2
Schaukelpferd 2
Schaulustigen 2
Schaulustiger 2
Schaumstoff@@ 2
Scheffel 2
Scheit@@ 2
Scheitelpunkt 2
Scheren 2
Scheune 2
Schichten 2
Schien@@ 2
Schießplatz 2
Schießstand 2
Schilden 2
Schilds 2
Schirmchen 2
Schirme 2
Schlafanzughosen 2
Schlafanzügen 2
Schlafsäcken 2
Schlafzimmer@@ 2
Schlagen 2
Schlagmanns 2
Schlangen 2
Schlangen@@ 2
Schlapphut 2
Schleifmaschine 2
Schleppe 2
Schleuder 2
Schließfä@@ 2
Schlips 2
Schlitten@@ 2
Schlittenhunde 2
Schlittschuh@@ 2
Schlittschuhe 2
Schlü@@ 2
Schlüssel@@ 2
Schmetterlinge 2
Schmi@@ 2
Schmiedewerk@@ 2
Schmuck@@ 2
Schnabel 2
Schneeanzügen 2
Schneeausrüstung 2
Schneeballschlacht 2
Schneebrille 2
Schneejacke 2
Schneelandschaft 2
Schneemobil 2
Schneer@@ 2
Schnees 2
Schneeschaufel 2
Schneeschuh 2
Schneesturm 2
Schneidbrett 2
Schneiderin 2
Schneidersitz 2
Schnell@@ 2
Schnellboot 2
Schnellimbiss 2
Schnurrbärten 2
Schnüren 2
Schnürsenkel 2
Schokolade 2
Schottenröcken 2
Schotter 2
Schraubendreher 2
Schraubenschlüssel 2
Schraubenzieher 2
Schreiben 2
Schriftzeichen 2
Schritten 2
Schrott@@ 2
Schrän@@ 2
Schubkarren 2
Schuhputzstand 2
Schulalter 2
Schulen 2
Schuljungen 2
Schulkantine 2
Schulkindern 2
Schulklasse 2
Schuluniform 2
Schuppen 2
Schutzanzug 2
Schutzhelme 2
Schwammkopf 2
Schwarzen 2
Schwarzes 2
Schwei@@ 2
Schwein@@ 2
Schweinefleisch 2
Schweißen 2
Schweißer 2
Schweißer@@ 2
Schwelle 2
Schwerarbeiter 2
Schwimmbekleidung 2
Schwimmhalle 2
Schwimmhilfen 2
Schwimmkleidung 2
Schwimmring 2
Schwimmwettkampf 2
Schwäne 2
Schäferhunde 2
Schärpe 2
Schönheit 2
Schöpf@@ 2
Schülerinnen 2
Scooby 2
Scrabble 2
Seahawks 2
Security 2
Seeha@@ 2
Seest@@ 2
Segel 2
Segeln 2
Segway 2
Sehenswür@@ 2
Seifenblasen@@ 2
Seifenwasser 2
Seilbahn 2
Seils 2
Sein 2
Selbst@@ 2
Seminar 2
Sen@@ 2
Sense 2
Series 2
Servieren 2
Serviette 2
Sesam@@ 2
Sessellift 2
Set 2
Shampoo 2
Shopping 2
Short 2
Showgirl 2
Sicherheitsbeauftra@@ 2
Sicherungsseilen 2
Sicht@@ 2
Sieger@@ 2
Silhouetten 2
Situation 2
Sitzbank 2
Sitze 2
Sitzender 2
Sitzung 2
Skat@@ 2
Skateboardanlage 2
Skateboardfahren 2
Skateranlage 2
Skaterbahn 2
Skaterin 2
Skaterpark 2
Skelett@@ 2
Sketch 2
Skianzug 2
Skibrille 2
Skifahrerin 2
Skimboarden 2
Snap 2
Snowboards 2
Socke 2
Sockenhaltern 2
Soda 2
Softdrink 2
Soldatinnen 2
Sommerkleider 2
Sommerkleidung 2
Song 2
Sonnebrille 2
Sonnenanbetern 2
Sonnenauf@@ 2
Sonnenaufgang 2
Sonnenbad 2
Sonnenbl@@ 2
Sonnenhüten 2
Sonnenschirme 2
Sonnenuntergangs 2
Sousche@@ 2
South 2
Souvenir@@ 2
Soße 2
Space 2
Spachtel 2
Spare 2
Sparring 2
Speerwurf 2
Speiseraum 2
Spenden@@ 2
Sperr@@ 2
Spezial@@ 2
Spiegelungen 2
Spiele 2
Spielerinnen 2
Spielgeräten 2
Spielhaus 2
Spielkarten 2
Spielkonsole 2
Spielmannszugs 2
Spieltunnel 2
Spielzeugeisenbahn 2
Spielzeugfahrrad 2
Spielzeuggitarre 2
Spielzeughammer 2
Spielzeughaus 2
Spielzeuglaster 2
Spielzeuglastwagen 2
Spielzeugrutsche 2
Spielzeugs 2
Spielzeugtraktor 2
Spießen 2
Spinnkurs 2
Spirituosengeschäft 2
Spitz 2
Sportfans 2
Sportfeld 2
Sportgerät 2
Sporthallenboden 2
Sportjacke 2
Sportstudio 2
Sportteam 2
Springre@@ 2
Sprinkleranlage 2
Spruch@@ 2
Spruchbänder 2
Sprühdosen 2
Sprüngen 2
Spur 2
Spät@@ 2
Spül@@ 2
Stadions 2
Stadtarbeiter 2
Stadtbrunnen 2
Stadtbus 2
Stadtgebäude 2
Stadtlandschaft 2
Stadtplan 2
Stadtteil 2
Stahl 2
Stahlbalken 2
Stamm@@ 2
Stammes 2
Standbild 2
Star 2
Statur 2
Steiger 2
Steinboden 2
Steinbrücke 2
Steinhaufen 2
Steinoberfläche 2
Steinstraße 2
Steinstruktur 2
Steinsäulen 2
Steinweg 2
Stepp@@ 2
Steppdecke 2
Sternen 2
Steuer 2
Stewarde@@ 2
Stirnlampe 2
Stocks 2
Stoffen 2
Stofftieren 2
Stol@@ 2
Stolz 2
Stones 2
Stop 2
Stopp@@ 2
Stoppschild 2
Story 2
Stoß@@ 2
Strandbuggy 2
Strandkleid 2
Strandspaziergang 2
Straßenab@@ 2
Straßenansicht 2
Straßengeschäft 2
Straßenhändlers 2
Straßenkreuzung 2
Straßenkünstlern 2
Straßenlaternen 2
Straßenlauf 2
Straßenmarathon 2
Straßenmusik 2
Straßenmusik@@ 2
Straßenmusikanten 2
Straßent@@ 2
Street@@ 2
Streetho@@ 2
Streicher 2
Streichorchester 2
Streikschildern 2
Streitkräfte 2
Stretching 2
Stromleitungen 2
Strommasten 2
Strumpfhosen 2
Sträuchern 2
Studenten@@ 2
Studentenwohnheim 2
Stuhl@@ 2
Stuhlreihen 2
Stun@@ 2
Sturm 2
Sturzflug 2
Stäbe 2
Stände 2
Stängel 2
Stö@@ 2
Stöckelschuhen 2
Stützrädern 2
Summer 2
Sumpf 2
Superhelden@@ 2
Suppe 2
Suppen@@ 2
Surfbrettern 2
Sushi 2
Sweater 2
Synchronschwimmer 2
Szenerie 2
Säcke 2
Sängerinnen 2
Säuglings 2
Söhnen 2
Süßigkeit 2
Süßigkeitenladen 2
Süßigkeitenverkäufer 2
Tackle 2
Tagebuch 2
Tagesli@@ 2
Taille 2
Takt 2
Talkshow 2
Tambour@@ 2
Tamburin 2
Tanzende 2
Tanzstudio 2
Tanzvorführung 2
Tarnanzügen 2
Tarnfarben 2
Tarnhosen 2
Tarnjacke 2
Taschenbuch 2
Taschenlampe 2
Taschent@@ 2
Taste 2
Tasten 2
Tatort 2
Taubenschwarm 2
Teamkollege 2
Techn@@ 2
Technik 2
Technologie 2
Teenagerinnen 2
Teichs 2
Teilen 2
Telefonleitung 2
Telefontechniker 2
Telefonzellen 2
Tennisschuh 2
Termin@@ 2
Test@@ 2
Text 2
Theaterstück 2
Theatervorstellung 2
Thomas 2
Tieflader 2
Tiefschnee 2
Tiers 2
Tim 2
Tintenfisch@@ 2
Tischler 2
Toast 2
Toilettenpapier 2
Tomate 2
Tomaten@@ 2
Topfpflanzen 2
Torbogens 2
Torpfostens 2
Tortillas 2
Toten@@ 2
Totenk@@ 2
Totenkopf@@ 2
Tour 2
Tourbus 2
Touristin 2
Trage@@ 2
Tragen 2
Trainingsanzügen 2
Trampelpfad 2
Transformator 2
Transport 2
Trauung 2
Treffen 2
Tresen 2
Tribünen 2
Trinkgeld 2
Trittsteinen 2
Trommel@@ 2
Tropfen 2
Trophäe 2
Truthähne 2
Trägerhemden 2
Trägershirt 2
Tuba 2
Tuniken 2
Tunnels 2
Turbanen 2
Turnkleidung 2
Turnübung 2
Turnübungen 2
Tätigkeiten 2
Töchter 2
Töpfe 2
Tüchern 2
Tümpel 2
UFC 2
Ufernähe 2
Umarmungen 2
Umfeld 2
Umschlag 2
Umschlagtuch 2
Umzugs 2
Umzugswagen 2
Unfallort 2
Unfallstelle 2
Union 2
Unrat 2
Unterarm 2
Unterführung 2
Unterhaltungsbereich 2
Unterhaltungskünstler 2
Unterholz 2
Unterhosen 2
Untertasse 2
Ureinwohner@@ 2
Ureinwohnerin 2
Urinal 2
Urlau@@ 2
Urlaub 2
Urlaub@@ 2
Urlaubs@@ 2
Vader 2
Vans 2
Vase 2
Veget@@ 2
Ventilat@@ 2
Verand@@ 2
Verbindung 2
Verdä@@ 2
Vergrößerungsglas 2
Verkaufsautomaten 2
Verkaufstand 2
Verkehrs@@ 2
Verkehrske@@ 2
Verkehrspolizist 2
Verkehrsschild 2
Verkleid@@ 2
Verkleidung 2
Verkäuferin 2
Verkäufers 2
Verlet@@ 2
Verteidigern 2
Verwunderung 2
Verzier@@ 2
Videoaufnahme 2
Videokameras 2
Videospiel@@ 2
Videothek 2
Vieh@@ 2
Vierergruppe 2
Visier 2
Vitrine 2
Voll@@ 2
Volleyballplatz 2
Volleyballturnier 2
Vorbei@@ 2
Vorderpfoten 2
Vorderrad 2
Vorgarten 2
Vorgeset@@ 2
Vorhand 2
Vorräte 2
Vorstadthaus 2
Vorteil 2
Völ@@ 2
Wachleute 2
Waff@@ 2
Wagen@@ 2
Waggon 2
Wahl@@ 2
Wahlkampf@@ 2
Wakeboarden 2
Wakeboarding 2
Waldgebiets 2
Waldgegend 2
Waldlandschaft 2
Walkman 2
Wall 2
Wandbemalung 2
Wandbil@@ 2
Wandgemälde 2
Wandobjekt 2
Warnkegel 2
Warnkleidung 2
Warteraum 2
Wartezimmer 2
Waschmaschinen 2
Wasserbrunnen 2
Wasserfontänen 2
Wasserlache 2
Wasseroberfläche 2
Wasserpark 2
Wasserrand 2
Wasserrohre 2
Wasserschlacht 2
Wasserskil@@ 2
Wasserskulptur 2
Wasserspeier 2
Wassersprenganlage 2
Wasserspritzer 2
Wasserstrahl 2
Wegen 2
Weges 2
Weide 2
Weihnachtsbeleuchtung 2
Weihnachtsli@@ 2
Weihnachtsmannmützen 2
Weihnachtsmotiv 2
Weinflasche 2
Weise 2
Weißes 2
Well@@ 2
Wells 2
Wenn 2
Werferhügel 2
Werkbank 2
Werkzeuggürteln 2
Westernstil 2
Wettbewer@@ 2
Wettschwimmen 2
Wickel@@ 2
Wik@@ 2
Wildwasser@@ 2
Wildwasserrafting 2
Windel@@ 2
Winterbekleidung 2
Wirbel@@ 2
Wohnhauses 2
Wohnhäusern 2
Wohnviertel 2
Wolke 2
Wonder 2
Wort@@ 2
Worten 2
Wrestler 2
Wurzeln 2
Wälder 2
Würfel 2
Würste 2
YMCA 2
Yankees 2
Yogaübungen 2
Zahlen 2
Zahnarzt 2
Zahnstocher 2
Zange 2
Zauberer 2
Zaubertrick 2
Zaun@@ 2
Zebra 2
Zeh@@ 2
Zehenspitzen 2
Zeitung@@ 2
Zeltplane 2
Zeltplatz 2
Zementlaster 2
Zentimeter 2
Zickzack 2
Ziegelsteingebäude 2
Zielfernrohr 2
Zielort 2
Zigeuner@@ 2
Zirkus 2
Zitrone 2
Zivil@@ 2
Zombie 2
Zufahrt 2
Zuges 2
Zugfahrt 2
Zugführer 2
Zugglei@@ 2
Zugwaggons 2
Zuhörer@@ 2
Zuhörern 2
Zuhörerschaft 2
Zukunft 2
Zune 2
Zuneigung 2
Zusammensein 2
Zuschauerraum 2
Zustand 2
Zweikampf 2
Zweirad 2
Zwie@@ 2
Zwillinge 2
Zwillings@@ 2
Zwischen@@ 2
Zähneputzen 2
Zügel 2
abendlichen 2
abenteu@@ 2
abfallenden 2
abgefeuert 2
abgefüll@@ 2
abgelassen 2
abgeleckt 2
abgelenkt 2
abgestor@@ 2
abget@@ 2
abhebt 2
abhängen 2
abprallen 2
absol@@ 2
absolvieren 2
abteilung 2
abwischt 2
abzuspielen 2
achten 2
aden 2
aggressiv 2
aktiv 2
alko@@ 2
allem 2
alles 2
altertü@@ 2
amische 2
aneinanderge@@ 2
angefahren 2
angeh@@ 2
angehobenen 2
angehört 2
angelegt 2
angeleuchtet 2
angen@@ 2
angeseilt 2
angestarrt 2
angestrengt 2
anguckt 2
anhören 2
anischen 2
anmut@@ 2
anschneiden 2
anspruchs@@ 2
anstatt 2
ant 2
anzen 2
anzugucken 2
anzuschauen 2
anzuzünden 2
applaudiert 2
arbeitenden 2
arbeitender 2
arbeiter 2
architektonischen 2
arkt 2
arme 2
arrangiert 2
artikel 2
atemberau@@ 2
aten 2
ation 2
atmet 2
attackiert 2
aufbäumenden 2
aufdruck 2
aufender 2
auffäl@@ 2
aufgehenden 2
aufgeregtes 2
aufgesetztem 2
aufgesetzter 2
aufgespannt 2
aufgespie@@ 2
aufgewühlte 2
aufregen@@ 2
aufrei@@ 2
aufstellt 2
aufträgt 2
aufwirbelt 2
aufwärts 2
aufzufallen 2
aufzuführen 2
aufzuschlagen 2
ausdruckslo@@ 2
auseinander 2
ausgefall@@ 2
ausgefallenem 2
ausgestreckter 2
ausgetragen 2
ausgetrock@@ 2
ausm@@ 2
auspackt 2
ausruhen 2
aussteigen 2
auszuprobieren 2
automaten 2
außer 2
baby 2
baby@@ 2
bart 2
baumbestandenen 2
baumbewachsenen 2
baumlosen 2
baumreichen 2
be- 2
bearbeiten 2
bedecktem 2
bedruckter 2
beeindrucken 2
beeindruckenden 2
befindliche 2
befreien 2
befördern 2
begeister@@ 2
begeistertes 2
beginnender 2
behaar@@ 2
behandelt 2
behinderte 2
beiderseits 2
beigebracht 2
beigefarben 2
beigem 2
beinhaltet 2
bekleideten 2
bekleidetes 2
bel 2
beladenes 2
belegten 2
beleuchteter 2
beleuchtetes 2
belie@@ 2
bellt 2
bemaltem 2
bene 2
benötigt 2
beobacht@@ 2
bergauf 2
berittener 2
bernsteinfarbener 2
berät 2
berühmten 2
beschließen 2
beschmierte 2
beschneidet 2
beschreibt 2
beschädigten 2
beseitigen 2
besetztes 2
besichtigen 2
besonderen 2
besonders 2
bespricht 2
besprüht 2
besseren 2
bestaunen 2
besten 2
bestimmte 2
bestimmten 2
beteiligen 2
betonierten 2
betreiben 2
betrieben 2
betrunk@@ 2
betrunken 2
bevölk@@ 2
bevölkerten 2
bewachsenen 2
bewaffneten 2
bewegungen 2
bewegungslos 2
bewirft 2
beworfen 2
bewölkter 2
bezauber@@ 2
bin 2
bisschen 2
ble 2
blick 2
blut@@ 2
blutender 2
blühender 2
boarder 2
boards 2
bockendes 2
bowlt 2
boxt 2
brasili@@ 2
braucht 2
braunschwarzer 2
breite 2
brennen 2
brennendes 2
brille 2
britischen 2
brusttief 2
brünetter 2
bte 2
buckelndes 2
buckelt 2
buddeln 2
bummelt 2
bund 2
burgunderfarbener 2
bus 2
busses 2
bäckt 2
bändern 2
bäuchlings 2
bürste 2
chern 2
chigen 2
chirurgischen 2
chkeit 2
chsen 2
chtern 2
ckchen 2
cksler 2
ckstück 2
ckte 2
cktem 2
cool 2
coolen 2
dabei@@ 2
daneben@@ 2
danebenstehen 2
dann 2
dar 2
dargestellt 2
darstell@@ 2
darunter@@ 2
dasteht 2
dehnen 2
del 2
demselben 2
denselben 2
dern 2
dert 2
designer 2
dichten 2
dickem 2
dient 2
dig 2
digen 2
diger 2
digung 2
dir 2
diversen 2
dokum@@ 2
dominiert 2
dramatisch 2
drauf 2
dreckige 2
drehen 2
dreie@@ 2
dreifarbiger 2
dreirädri@@ 2
driftet 2
drittes 2
dummes 2
dunekl@@ 2
dunkelgrüner 2
dunkle 2
dunkleren 2
durchnässt 2
durchquert 2
durchschnittlich 2
durchsichtige 2
durchsichtigen 2
durchsuchen 2
durchtrennt 2
durchzu@@ 2
dösen 2
döst 2
dünnes 2
ebenso 2
echt 2
echten 2
ed 2
eifrig 2
eift 2
eigen@@ 2
eilt 2
eimer 2
ein- 2
einar@@ 2
einfährt 2
eingebuddelt 2
eingehüllt 2
eingelassenen 2
eingepackt 2
eingezäunte 2
einheit@@ 2
einhändigen 2
einstellt 2
einzelnen 2
einzusteigen 2
einzutau@@ 2
eis 2
eisigen 2
ekstatisch 2
eleganten 2
elektrische 2
elektronisches 2
endem 2
englische 2
ente 2
entgehen 2
entlangfahren 2
entleert 2
entlädt 2
entschlossen 2
entsetzt 2
entsorgt 2
entspre@@ 2
entwirft 2
entwirren 2
erer 2
erfol@@ 2
erforschen 2
erfrischenden 2
ergrau@@ 2
erhell@@ 2
erhäl@@ 2
erhöht 2
erhöhte 2
erinnern 2
erkenn@@ 2
erkennen 2
erklären 2
erkunden 2
erlangen 2
erledigt 2
ernstem 2
erobern 2
erregt 2
errichteten 2
ers 2
erschöpft 2
erstaun@@ 2
erstellt 2
erten 2
erung 2
erwachsenes 2
erzeugt 2
erörtert 2
ethnischen 2
ethnischer 2
etten 2
europäischen 2
europäischer 2
extravagan@@ 2
exzent@@ 2
fahrrad 2
falsch 2
falsche 2
faltet 2
farbenprächtigen 2
fassen 2
fe 2
fehlt 2
feier 2
feierlicher 2
feil 2
fein@@ 2
feld 2
fenden 2
ferngesteuerten 2
fertiggestellten 2
festgehalten 2
festgemacht 2
festlich 2
festzuhalten 2
feuern 2
filet@@ 2
filmen 2
fitte 2
flankiert 2
flattern 2
flattert 2
flauschige 2
fleisch 2
fleißig 2
flickt 2
fliederfarbenen 2
fliederfarbener 2
fliegender 2
fließenden 2
flussabwärts 2
fläche 2
flüstern 2
flüstert 2
folie 2
folklori@@ 2
form 2
formelle 2
formiert 2
free 2
freie 2
freies 2
fremdländischer 2
frequentierten 2
freundlich 2
frischgeback@@ 2
frisst 2
frühen 2
fte 2
ften 2
ftes 2
furcht 2
förmiges 2
förmlich 2
fügt 2
gang 2
gart 2
gebadet 2
geball@@ 2
gebeugten 2
gebildet 2
geblieben 2
geblümter 2
gebogen 2
gebräunte 2
gedeckt 2
gedr@@ 2
gedreht 2
gedrückt 2
gedä@@ 2
geeigneten 2
geernt@@ 2
gefaltet 2
gefalteten 2
gefan@@ 2
gefertigt 2
gefleckte 2
gefleckten 2
geform@@ 2
gefärbter 2
gefüllte 2
gegangen 2
gehaltenen 2
gehe 2
geheimnisvoller 2
gehäut@@ 2
gehörige 2
gehört 2
geklettert 2
geknöpften 2
gekräusel@@ 2
gekrönt 2
gekrü@@ 2
gekühlten 2
gela@@ 2
gelangweilt 2
gelassen 2
gelbbraunem 2
gelbli@@ 2
geleh@@ 2
geln 2
gelo@@ 2
gemauerten 2
gemessen 2
gemischte 2
gemischter 2
gemustertem 2
gemähte 2
geneigtem 2
geneigten 2
genen 2
gener 2
genommen 2
gepanzer@@ 2
gepolsterte 2
gepolsterter 2
gerahmte 2
gere 2
gereicht 2
gericht 2
gerichteten 2
geringer 2
gesagt 2
gesatt@@ 2
gesche@@ 2
gescheckter 2
geschieht 2
geschirr 2
geschleudert 2
geschlungen 2
geschnittenen 2
geschnitzten 2
geschwung@@ 2
geschäfts 2
geselligen 2
gesenkten 2
gespren@@ 2
gesprüht 2
gesty@@ 2
getreten 2
getrockn@@ 2
getrocknet 2
getäfelten 2
getönten 2
gewa@@ 2
gewebten 2
gewell@@ 2
gewundenen 2
gezeichneten 2
gitter 2
glas 2
glatten 2
glatzköpfige 2
glitzer@@ 2
glitzernden 2
glü@@ 2
gnet 2
golden 2
goldene 2
goldfarbenes 2
goldgelbe 2
grasbedeckten 2
grasen 2
grill 2
grinsender 2
grob 2
großartige 2
großartigen 2
gter 2
gung 2
gungs@@ 2
guter 2
gärt@@ 2
gäste 2
h 2
haar 2
haarige 2
haften 2
halben 2
halbhohen 2
halbnackte 2
halbwüchsiger 2
haltendes 2
haltung 2
handgemachten 2
hantiert 2
hawaiianischer 2
heimischen 2
heit 2
heiße 2
heißes 2
helles 2
hellgrauen 2
hellgrüner 2
hellhäutig 2
hellhäutiges 2
hellorangefarbenen 2
hellrosafarbenen 2
hellrotem 2
hellrotes 2
helm 2
hemd 2
herabgelassen 2
herabhängenden 2
herannahenden 2
heranrollenden 2
herausgestreckter 2
herausholt 2
herbstlichen 2
herein@@ 2
hereinbrechenden 2
hergeht 2
hergestellt 2
herrlich 2
herrscht 2
herumlaufen 2
herumläuft 2
heruntergefallen 2
heruntergefallenen 2
heruntergelassen 2
herunterkommt 2
hervor@@ 2
herz@@ 2
herzförmigen 2
herzustellen 2
himmel@@ 2
hinaufgehen 2
hindern 2
hingefallen 2
hinterlässt 2
hinunterrutscht 2
hispanisch 2
historische 2
hle 2
hlen 2
hlt 2
hochgehalten 2
hochgeschobener 2
hochkommt 2
hochsteigt 2
hollän@@ 2
holz 2
hren 2
ht 2
hung@@ 2
händchen@@ 2
hängende 2
hütet 2
identifi@@ 2
identisch 2
ien 2
ierend 2
ierter 2
igten 2
immer 2
indianischen 2
inen 2
inen@@ 2
iner 2
informell 2
informellen 2
ini 2
innen@@ 2
inspir@@ 2
instal@@ 2
interessant 2
intern@@ 2
interviewen 2
irgendein 2
irgendeinen 2
irgendeines 2
irgendwelche 2
irgendwohin 2
ische 2
isla@@ 2
japanische 2
japanisches 2
jede 2
jeden 2
jüdischen 2
jüdischer 2
kahlem 2
kahlrasiertem 2
kaltem 2
kamp@@ 2
kampf 2
kaputter 2
karge 2
kastanienbraunes 2
kauen 2
kegelförmigen 2
kelt 2
kennzeichnet 2
ketten 2
kind 2
kinder 2
kippt 2
kitzelt 2
klare 2
klassischen 2
klimpert 2
knielangen 2
kniender 2
knietief 2
knietiefes 2
knipst 2
knu@@ 2
komisch 2
komischer 2
komisches 2
korb 2
kore@@ 2
korpulentes 2
kosten 2
kostenlose 2
kostümierter 2
kreativ 2
kreischt 2
kristallklaren 2
kräfte 2
kräftige 2
kte 2
kuchen 2
kugel 2
kugel@@ 2
kulisse 2
kulti@@ 2
kulturellen 2
kunstvoll 2
kuppel@@ 2
kurs 2
kurvi@@ 2
kurzes 2
köche 2
könnte 2
köst@@ 2
kühlen 2
künstlerische 2
künstlerischen 2
künstlichem 2
kürzlich 2
küss@@ 2
l 2
lab@@ 2
lachenden 2
lachsfarbenen 2
lader 2
land 2
landschaft@@ 2
landwirtschaftlichen 2
lang 2
langgeht 2
langhaarigen 2
langärmeligem 2
langärmli@@ 2
langärmligem 2
lateinamerikanischen 2
latten 2
lauscht 2
lebendigen 2
lebhafte 2
lecker@@ 2
leckeren 2
leder@@ 2
leeres 2
leerstehenden 2
leht 2
lesenden 2
leuchtendem 2
leuchtender 2
lichem 2
liches 2
lichkeiten 2
liebe 2
lieben 2
liefern 2
lig 2
ligen 2
lilane 2
linie 2
linkes 2
linkshändiger 2
lohfarbenen 2
los@@ 2
lungern 2
lungert 2
lutscht 2
ländliche 2
ländlicher 2
lässig 2
lümmelt 2
mach 2
majestätischen 2
malerischen 2
mannschaft 2
manövrieren 2
marineblauer 2
maskierter 2
massiert 2
mast 2
mehrfarbiger 2
meine 2
meist 2
menschenleeren 2
menschliche 2
mente 2
metall 2
metallenen 2
mexikanische 2
militärischen 2
mische 2
mittelgroße 2
mittlerem 2
mlichen 2
mme 2
mmern 2
mmten 2
mobile 2
modelliert 2
moderner 2
modernes 2
modische 2
modischer 2
molliges 2
moosbedeckten 2
mt 2
mten 2
musikali@@ 2
musikalische 2
musiziert 2
muslimische 2
muslimischer 2
möglich 2
mürrisch 2
mütze 2
nachdenklich 2
nachgehen 2
nahöst@@ 2
nahöstlicher 2
nassgespritzt 2
natur@@ 2
natür@@ 2
nder 2
neonfarbenen 2
neongelben 2
nerin 2
nete 2
neten 2
neugeborene 2
neugeborenen 2
neugier@@ 2
neugieriges 2
neun 2
niedrig 2
niemand 2
normaler 2
nte 2
nuckelt 2
nächstes 2
nächtliches 2
nähen 2
nö@@ 2
oi@@ 2
oliv@@ 2
olive@@ 2
on 2
ons 2
operiert 2
opf 2
orangefarben 2
oren 2
organgefarbenen 2
organisieren 2
origin@@ 2
ose 2
ostasiati@@ 2
packten 2
parade 2
passende 2
passendem 2
passender 2
pastellfarbenen 2
patriotischen 2
patrouilliert 2
pau@@ 2
pe 2
pelzigen 2
perfe@@ 2
personen 2
perücke 2
pf 2
pfer 2
pfirsichfarbenen 2
pfla@@ 2
pflügen 2
pinkfarbenes 2
platten 2
platzt 2
plaudern 2
porträ@@ 2
ppe 2
praktizieren 2
prallen 2
primiti@@ 2
priv@@ 2
pro 2
probe 2
produkten 2
professionell 2
provis@@ 2
prächtig 2
prächtige 2
prächtigen 2
ption 2
puppen 2
purpurroten 2
pusten 2
putztes 2
quadratischen 2
rasch 2
rasiertem 2
rasse 2
rasten 2
rauen 2
rausgeworfen 2
reagiert 2
rechteckigen 2
reckt 2
regenbogenfarbenen 2
regenbogenfarbigen 2
regennassen 2
reichen 2
reihe 2
reihen 2
reiht 2
reißen 2
religiöse 2
rennenden 2
reten 2
rettet 2
riecht 2
rier 2
rieren 2
riesen@@ 2
ringsum 2
riss 2
rittlings 2
rodelt 2
rollschuh@@ 2
rosaroter 2
rost@@ 2
ruder@@ 2
rund 2
runzelt 2
russi@@ 2
rädern 2
rötlichem 2
salut@@ 2
sanft 2
satz 2
sauberen 2
sausen 2
sch 2
schafft 2
schale 2
schattenha@@ 2
schert 2
scheucht 2
schick 2
schirm 2
schirme 2
schirms 2
schirmt 2
schlammigem 2
schlammiges 2
schlechtem 2
schlechten 2
schleifen 2
schlittert 2
schluckt 2
schlür@@ 2
schmale 2
schmiert 2
schmol@@ 2
schmu@@ 2
schmuddel@@ 2
schnüffeln 2
schock@@ 2
schottischer 2
schreibend 2
schreienden 2
schroffen 2
schrägen 2
scht 2
schubst 2
schwarzhaariges 2
schwarzweiß 2
schwei@@ 2
schwier@@ 2
schwimmende 2
schwingenden 2
schwitzender 2
schwul@@ 2
schäbig 2
schäum@@ 2
schön 2
schürt 2
schüssel 2
schütter 2
sechsköpfige 2
sehe 2
sei 2
seilen 2
seite 2
selbstgebastelten 2
selbstgebauten 2
sendet 2
senkrechte 2
ser 2
shop 2
shosen 2
sichert 2
sicht 2
sichtbare 2
siert 2
signiert 2
silberfarbene 2
silbernem 2
singend 2
skop 2
skraft 2
smütze 2
sogar 2
sonniger 2
sorgt 2
spanischen 2
spannen 2
speisen 2
speist 2
speit 2
speziel@@ 2
spielender 2
spieler 2
spielerischen 2
spinnt 2
spitzen 2
spreizt 2
spru@@ 2
sprung 2
spät 2
später 2
sraum 2
ssene 2
ssenen 2
sst 2
stapeln 2
starker 2
startbereit 2
starten 2
startet 2
stattfindenden 2
stattfindet 2
statur 2
steigenden 2
stein 2
steiniges 2
stelle 2
stellung 2
stern 2
stern@@ 2
stets 2
steuern 2
sticht 2
stiert 2
stift 2
stil 2
stilles 2
stillt 2
stin 2
stisch 2
strahlendem 2
strahlt 2
strecke 2
streitet 2
striegelt 2
struppiger 2
strömenden 2
sts 2
stwagen 2
stämmiger 2
ständer 2
stück 2
stücke 2
stühlen 2
stürmischem 2
stürmt 2
sumpfigen 2
sumpfiges 2
szene 2
szug 2
sängern 2
süd@@ 2
süßer 2
süßes 2
tanzende 2
tauschen 2
team 2
teilnehmende 2
ters 2
testet 2
teur@@ 2
textet 2
tiefblauen 2
tig 2
tige 2
to 2
tollt 2
toten 2
trabenden 2
tracht 2
traditionell 2
traditionellem 2
transparenten 2
trauriges 2
trennt 2
trockene 2
trommeln 2
trotzt 2
träg 2
träger 2
trö@@ 2
trösten 2
tur 2
typi@@ 2
typischen 2
tätowieren 2
tätowierten 2
töpfert 2
türkise 2
uch 2
ue 2
umdreht 2
umgebenden 2
umgebene 2
umgedrehte 2
umgefallenen 2
umgekippt 2
ums 2
umstehenden 2
umzu@@ 2
umzäun@@ 2
unbeholfen 2
unbekannte 2
unbekannter 2
unebenen 2
ungepflegten 2
ungewöhnliches 2
unglückliches 2
ungsmauer 2
uniform 2
unschar@@ 2
unterirdischen 2
unterschreibt 2
unterstützen 2
us 2
usik 2
uten 2
v 2
ven 2
veranstaltet 2
verbeugen 2
verbirgt 2
verborgen 2
verboten 2
vereinzelten 2
verfär@@ 2
verfü@@ 2
verglasten 2
vergraben 2
verhaftet 2
verheirateter 2
verhüllte 2
verkehrsreiche 2
verkleideten 2
verkleidetes 2
verkün@@ 2
verlegen 2
verloren@@ 2
verm@@ 2
vermischt 2
verpasst 2
verquirlt 2
verregneten 2
verrückt 2
verschiedenfarbiger 2
verschlungenen 2
verschmiertem 2
verschmutz@@ 2
verschneiter 2
verschwomm@@ 2
verschwommenen 2
versorgen 2
versorgt 2
vertieft 2
vertrau@@ 2
vertreiben 2
verursacht 2
verwitterten 2
verz@@ 2
verziert 2
verzweifelt 2
vesammelt 2
vieler 2
vielfältige 2
vierb@@ 2
vieren 2
vierrädrigen 2
viert 2
vierte 2
vietname@@ 2
violette 2
visiert 2
volles 2
vollge@@ 2
vorbeifahrenden 2
vorbeikommt 2
vorbeiläuft 2
vorbeizukommen 2
vordere 2
vorhand@@ 2
vornehm 2
vornehmen 2
vornüber 2
vornübergebeugt 2
vorzubereiten 2
vorüberfährt 2
vorübergehend 2
vs 2
waager@@ 2
wackel@@ 2
wagemut@@ 2
wand 2
wartend 2
wartende 2
wechs@@ 2
wegschaut 2
wehrt 2
weiblich 2
weinroten 2
weise 2
weitläu@@ 2
weiß- 2
weißene 2
weißhaarige 2
welches 2
wenden 2
wer 2
werdendem 2
wetteifert 2
wichtiges 2
wieder@@ 2
wiegen 2
wild 2
winkend 2
winterlichen 2
wirbeln 2
wirkt 2
wodurch 2
wohl 2
wolken 2
worauf 2
wunderschön 2
wälzt 2
wünschen 2
würzt 2
wütend 2
you 2
zahlen 2
zapft 2
ze 2
zehn 2
zeichnung 2
zeige 2
zeitgenössi@@ 2
zelt@@ 2
zeltet 2
zementierten 2
zenden 2
zer 2
zerbricht 2
zerbrochene 2
zerbrochenen 2
zerei 2
zeremoniellen 2
zerfetzten 2
zerkleinert 2
zerklüft@@ 2
zerlegen 2
zerlumpter 2
zerri@@ 2
zerrissenen 2
zerzaust 2
ziert 2
zierten 2
zimmer 2
zitronen@@ 2
zotteliger 2
zuerst 2
zufri@@ 2
zufährt 2
zugedeckt 2
zuhält 2
zung 2
zurückge@@ 2
zurückgelegt 2
zurückzu@@ 2
zusammengebaut 2
zusammengebauten 2
zusammenpassenden 2
zwanzig 2
zweispurigen 2
zweistöckigen 2
zwirbelt 2
zöger@@ 2
Äpfel 2
Ärztin 2
Äste 2
Öffnungen 2
Ölfass 2
Überdachung 2
Überführung 2
Überhang 2
Überreste 2
Überschlag 2
Übungs@@ 2
ßen 2
ähnlichem 2
ähnliches 2
ändern 2
ängstlich 2
änzer 2
ärzt@@ 2
öffentliches 2
öpfen 2
ör 2
örpern 2
örtlicher 2
überdimensi@@ 2
überfliegt 2
überfluteten 2
übergewichtiges 2
überladenen 2
überlegt 2
überra@@ 2
überschlagen 2
übersät 2
übersäte 2
überwacht 2
übri@@ 2
üppig 2
üppigen 2
-Anzeige 1
-Ball@@ 1
-Banner 1
-Fleisch 1
-Gesicht 1
-Hasenohren 1
-Leuchtreklame 1
-Plakat 1
-Roll 1
-Roller 1
-Schaukel 1
-Schilds 1
-Schlagmann 1
-Spielzeug 1
-Teleskop 1
-Tische 1
-Tran@@ 1
-Video 1
-Wagen 1
-Zeichen 1
-handschuhe 1
-helm 1
-hut 1
-robe 1
-ta@@ 1
-unter@@ 1
.-@@ 1
.Zwei 1
0 1
0095 1
08 1
0er 1
1,@@ 1
100 1
10@@ 1
126 1
145 1
16 1
18th 1
19 1
19. 1
1950 1
195@@ 1
2,52 1
2. 1
20. 1
2010 1
21 1
22 1
25 1
25@@ 1
27 1
28 1
281 1
33 1
34 1
35 1
39 1
3D 1
3rd 1
4. 1
40 1
40er 1
41 1
43 1
44 1
46 1
49ers 1
5003 1
53 1
58 1
60ern 1
661 1
697 1
70er@@ 1
84 1
85 1
93 1
94 1
95@@ 1
96@@ 1
A. 1
ACE 1
AGAIN 1
AIDS 1
AMC 1
AND 1
AR 1
ARRIVO 1
ATM 1
AVEDA 1
Aaron 1
Abbild 1
Abbildung 1
Abbru@@ 1
Abdeckungen 1
Abdrü@@ 1
Abendkleid 1
Abendkostüm 1
Abendlicht 1
Abendstunden 1
Abendveranstaltung 1
Abenteur@@ 1
Aberdeen 1
Abfallhaufen 1
Abfluss 1
Abkühlen 1
Abl@@ 1
Abladen 1
Able@@ 1
Absatzschuhe 1
Absatzstiefel 1
Abschirm@@ 1
Abschle@@ 1
Abschnitt 1
Abschuss 1
Absperrbandes 1
Absperrkegel 1
Absperrseil 1
Absprung 1
Absprung@@ 1
Abstand 1
Abstimmung 1
Abteil 1
Abteilung 1
Abwasch 1
Abwechs@@ 1
Access@@ 1
Achterdeck 1
Acker@@ 1
Actionaufnahme 1
Acura 1
Adidas 1
Adirondack 1
Adler 1
Adobe 1
Aeropostale 1
Affe 1
Afrikas 1
Afroafrikaner 1
Afroamerikanern 1
Ahead 1
Ahorn@@ 1
Ais@@ 1
Akkordeons 1
Akkordeonspiel 1
Akrobat@@ 1
Akrobaten 1
Akt 1
Akt@@ 1
Akten- 1
Aktentaschen 1
Akteure 1
Aktivitätszentrum 1
Akustikgitarrre 1
Aladdin 1
Allerlei 1
Alliance 1
Allig@@ 1
Alltagsmenschen 1
Ally 1
Almosen 1
Alpakas 1
Alpen@@ 1
Alpinist 1
Alten 1
Altersheim 1
Alu@@ 1
Amble 1
Ampelmast 1
Amphibi@@ 1
Amsterdam 1
Anaheim 1
Anbieter 1
Anbringen 1
Andenken@@ 1
Andere 1
Anfang 1
Angebot 1
Angebotstafel 1
Angehörige 1
Angehöriger 1
Angelausrüstung 1
Angelspiel 1
Angestellten 1
Angestellter 1
Angleroverall 1
Angles 1
Angusskanal 1
Anhängerladung 1
Anhängern 1
Anhängers 1
Anhöhe 1
Animaniacs 1
Ankuft 1
Ankün@@ 1
Anlasse 1
Anlege@@ 1
Anleger 1
Anliegen 1
Anne 1
Annual 1
Anordnung 1
Anpfi@@ 1
Anpflan@@ 1
Anruf 1
Anrufe 1
Anschauen 1
Anschlag@@ 1
Anschlu@@ 1
Anschneiden 1
Anspra@@ 1
Ansprü@@ 1
Anste@@ 1
Anstoß 1
Anstren@@ 1
Anstri@@ 1
Ansturm 1
Anti@@ 1
Antrie@@ 1
Anwendung 1
Anwesen@@ 1
Anzeigeta@@ 1
Anzieh@@ 1
Anzughose 1
Anzugjacke 1
Anzugjacken 1
Anzugs@@ 1
Anzugshosen 1
Anzugträger 1
Apo@@ 1
Apparatur 1
Applebee 1
Aqua 1
Aquamar@@ 1
Aquarienhaus 1
Araber 1
Araberin 1
Arbeitende 1
Arbeiterin 1
Arbeiterk@@ 1
Arbeiterweste 1
Arbeitsaufgaben 1
Arbeitsbox 1
Arbeitsflä@@ 1
Arbeitsfläche 1
Arbeitsgeräten 1
Arbeitsh@@ 1
Arbeitshand@@ 1
Arbeitsjacke 1
Arbeitskluft 1
Arbeitskol@@ 1
Arbeitskorb 1
Arbeitskraft 1
Arbeitskräfte 1
Arbeitsnische 1
Arbeitspause 1
Arbeitsplatte 1
Arbeitsraum 1
Arbeitsschiff 1
Arbeitstags 1
Arbeitsumgebung 1
Arbeitsweg 1
Arbeitswerkzeuge 1
Arc 1
Arch 1
Arch@@ 1
Archi@@ 1
Ariel 1
Armat@@ 1
Armdrücken 1
Armeeflugzeugen 1
Armeehund 1
Armeekleidung 1
Armen@@ 1
Armreif 1
Armschlinge 1
Army 1
Arrangement 1
Arschbom@@ 1
Arsenal 1
Art@@ 1
Artefakt 1
Artisan 1
Arts 1
Arzt@@ 1
Arztes 1
Aschenbecher 1
Asphaltstrecke 1
Asphaltsäge 1
Assi@@ 1
Astro 1
AstroTurf 1
Astronauten@@ 1
Atelier 1
Atem@@ 1
Athletics 1
Athletinnen 1
Atmosp@@ 1
Attraktionen 1
Attraktionsmittelpunkt 1
Auberg@@ 1
Audi 1
Audio 1
Audio@@ 1
Aufbau 1
Aufenthalt@@ 1
Auffahrt 1
Auffe@@ 1
Aufgeben 1
Aufgebot 1
Aufpasser 1
Aufregung 1
Aufruf 1
Aufschlagen 1
Aufschriften 1
Aufstand 1
Aufstapeln 1
Aufstellung 1
Aufstie@@ 1
Aufstän@@ 1
Auftragen 1
Aufwär@@ 1
Aufzeichnungen 1
Aufzug@@ 1
Aufzugs@@ 1
Aufzäh@@ 1
Augenbinden 1
Augenblick 1
Augenblicks 1
Augenhöhe 1
Aula 1
Aurora 1
Ausbildung 1
Ausche@@ 1
Ausflug@@ 1
Ausflü@@ 1
Ausführen 1
Ausgabe 1
Ausgeh@@ 1
Ausgehen 1
Ausklapp@@ 1
Auslagen 1
Auslagen@@ 1
Ausliefer@@ 1
Auslän@@ 1
Ausmal@@ 1
Auspu@@ 1
Ausrichten 1
Ausrufer 1
Ausrüstungen 1
Aussage 1
Ausschachtungen 1
Aussichtsterrasse 1
Aussichtsturm 1
Ausspar@@ 1
Auszieh@@ 1
Autofahrerin 1
Autofahrt 1
Autogramm 1
Autohandel 1
Autohaus 1
Autokolonne 1
Autom@@ 1
Autopanne 1
Autorennbahn 1
Autorennen 1
Autorennfahrer 1
Autoscheinwerfer 1
Autoschlü@@ 1
Autoschlüssel 1
Autoskooter 1
Autotank 1
Autoverkehr 1
Autowasch 1
Außenanzeige 1
Außenborder 1
Außenbordmotor 1
Außenfahrstuhl 1
Außenfeld 1
Außenfenster 1
Außenhof 1
Außenpark@@ 1
Außenseiten 1
Außenverkäufer 1
Außenwaschbecken 1
Available 1
Avril 1
BBQ 1
BH@@ 1
BUA 1
Babyelephanten 1
Babyflasche 1
Babyjunge 1
Babypuppe 1
Babypuppen 1
Babyschale 1
Babyspielzeug 1
Babytrage 1
Babywippe 1
Bachbett 1
Bachs 1
Backble@@ 1
Backen 1
Backflips 1
Backgammon 1
Background 1
Backstein 1
Backsteinbau 1
Backsteinen 1
Backteig 1
Backware 1
Badekappen 1
Bademeister 1
Bademänteln 1
Bademütze 1
Bademützen 1
Baden 1
Bades 1
Badspiegel 1
Bag 1
Bagg@@ 1
Bagu@@ 1
Bahnarbeiters 1
Bahnbetrie@@ 1
Bahnläufer 1
Bahnschiene 1
Bahnschran@@ 1
Bahnsteigs 1
Bahnübergang 1
Bahre 1
Bake 1
Bakers 1
Balkone 1
Balkongeländer 1
Ballbad 1
Ballen 1
Ballerin@@ 1
Ballettkleidern 1
Ballettlehr@@ 1
Ballettshow 1
Balletttänzerin 1
Ballettunterricht 1
Ballettvorstellung 1
Balljunge 1
Ballkontrolle 1
Ballonanordnung 1
Ballone 1
Ballonhüte 1
Ballonkampf 1
Ballontiere 1
Ballonverkäufer 1
Ballplatz 1
Ballrück@@ 1
Ballsaal 1
Ballspielen 1
Ballspiels 1
Ballspielzeug 1
Ballsport 1
Balustra@@ 1
Bambusbäumen 1
Bambuskopf@@ 1
Bambusstange 1
Bambusstangen 1
Bambusstöcken 1
Bambuszaun 1
Bandage 1
Bandanat@@ 1
Bandkollegin 1
Bandsäge 1
Banduniformen 1
Bandunterricht 1
Bandvorspiel 1
Banjo@@ 1
Bankau@@ 1
Bankett 1
Bankrett@@ 1
Bann 1
Bannern 1
Barbie@@ 1
Barfuß 1
Barfüß@@ 1
Bargeld 1
Barhocker 1
Barhockern 1
Bari@@ 1
Barker 1
Barney 1
Barrieren 1
Barrikade 1
Barrikaden 1
Bart@@ 1
Bartenderin 1
Bartisch 1
Basar 1
Baseballausrüstung 1
Baseballhandschuhe 1
Baseballhelm 1
Baseballmützen 1
Baseballprofis 1
Baseballschlägern 1
Baseballspielen 1
Baseballspielerin 1
Baseballständer 1
Baseballteams 1
Basecap 1
Basecaps 1
Bases 1
Basketballcourt 1
Basketballduell 1
Basketballkappe 1
Basketballmütze 1
Basketballplatzes 1
Basketballspielen 1
Basketballspielerinnen 1
Basketballspielfelds 1
Basketballspiels 1
Basketballstadion 1
Basketballteam 1
Basketballtrikot 1
Basketballwur@@ 1
Basketbällen 1
Baskin 1
Basset 1
Bassi@@ 1
Bassinstrument 1
Bassspieler 1
Basstro@@ 1
Batmanhose 1
Batterie 1
Bauarbeiterhelmen 1
Bauarbeiterjacke 1
Bauarbeiterkleidung 1
Bauarbeitermannschaft 1
Bauarbeiterweste 1
Bauchmu@@ 1
Baucht@@ 1
Bauernhaus 1
Bauernmakrt 1
Baufahrzeug 1
Baufahrzeugs 1
Baugeräte 1
Bauhelmen 1
Baukolonne 1
Baumarbeiter 1
Baumarten 1
Baumateri@@ 1
Baumhaus 1
Baumkronen 1
Baumreihe 1
Baumrinde 1
Baumschaukel 1
Baumschnit@@ 1
Baumstumpfe 1
Baumstämme 1
Baumwol@@ 1
Baumzwei@@ 1
Bauschild 1
Bauteilen 1
Bauvorhaben 1
Bauwerken 1
Bauwerkzeug 1
Bauweste 1
Bauzäunen 1
Bay 1
Beach 1
Beachvolley@@ 1
Beachvolleyball@@ 1
Beanbag 1
Bearbeitung 1
Bearded 1
Becher@@ 1
Beckens 1
Bedar@@ 1
Bedeut@@ 1
Bedient 1
Bedienungspult 1
Beding@@ 1
Beeren 1
Beet 1
Befol@@ 1
Begleiten 1
Begrenzung 1
Begrüßung 1
Beguta@@ 1
Behausungen 1
Behutsame 1
Behältern 1
Behörden 1
Beiboot 1
Beichtstuhl 1
Beide 1
Beifahrer 1
Beifahrern 1
Beifall 1
Beijing 1
Beiwagen 1
Beladung 1
Bellingham 1
Bem@@ 1
Benatar 1
Beoba@@ 1
Bereichen 1
Bergan@@ 1
Bergbau@@ 1
Bergflan@@ 1
Bergmänner 1
Bergs 1
Bergsicht 1
Bergstraße 1
Bergszene 1
Bergszenerie 1
Bergwanderer 1
Bergwiese 1
Berliner 1
Bermudashorts 1
Bernhard@@ 1
Beruf@@ 1
Beschil@@ 1
Beschri@@ 1
Beschwerden 1
Besitzerin 1
Besitzerinnen 1
Besitzern 1
Besitzers 1
Besitztümer 1
Best 1
Besteck@@ 1
Bestellen 1
Bestellungen 1
Bestimm@@ 1
Bestuhlung 1
Betonabsperrung 1
Betonbahn 1
Betonbaus 1
Betonbauwerk 1
Betonblöcke 1
Betonboden 1
Betonbrocken 1
Betoneinfa@@ 1
Betoneinfahrt 1
Betonfläche 1
Betong@@ 1
Betongeländer 1
Betonkante 1
Betonlochs 1
Betonmischer 1
Betonmischla@@ 1
Betonmonument 1
Betonoberfläche 1
Betonpark 1
Betonpfosten 1
Betonplatten 1
Betonplattform 1
Betonpodest 1
Betonschal@@ 1
Betonsims 1
Betonstange 1
Betonstatue 1
Betonstraße 1
Betonstufe 1
Betontreppe 1
Betontunnel 1
Betonweg 1
Betonwänden 1
Betriebes 1
Betron@@ 1
Bettchen 1
Bettlaken 1
Bettler 1
Betttuch 1
Bettwäsche 1
Beurteilung 1
Bevor 1
Bewegen 1
Bewässerungs@@ 1
Bezeichnungen 1
Bezug 1
Biber 1
Bie@@ 1
Bieber 1
Bien@@ 1
Bienvenue 1
Bierdose 1
Bierdosen 1
Bierflasche 1
Bierflaschenkissen 1
Bierhahn 1
Bierkrü@@ 1
Biertrinken 1
Big@@ 1
Bikern 1
Bikers 1
Biking 1
Bikiniunterteil 1
Biknioberteil 1
Bildbereich 1
Bildlink 1
Bildschirme 1
Bildschirmen 1
Bildschirms 1
Billiard@@ 1
Billig@@ 1
Bills 1
Billy 1
Binde 1
Binder 1
Bindeverschluss 1
Bingo 1
Binky 1
Bioschutzanzügen 1
Birmingham 1
Birne 1
Bison 1
Bistro 1
Bistros 1
Bitte 1
Blackberry 1
Blake 1
Blaser 1
Blashor@@ 1
Blasor@@ 1
Blaubeer@@ 1
Blaue 1
Blauem 1
Blaukrabben 1
Blechbläser 1
Blechdach 1
Blecheimer 1
Blechklarinette 1
Blechkuchen 1
Blechtonne 1
Blend@@ 1
Blickrichtung 1
Blickwinkel 1
Blin@@ 1
Blitzlicht 1
Blockbuster 1
Blocken 1
Blockflöte 1
Blockhaus 1
Blonden 1
Blondinen 1
Bloo@@ 1
Blues 1
Blumenarrangement 1
Blumenaufdruck 1
Blumenbeet 1
Blumenblätter 1
Blumenbukett 1
Blumengarten 1
Blumenhemd 1
Blumenhut 1
Blumenhändler 1
Blumenkarren 1
Blumenkette 1
Blumenkorb 1
Blumenkostümen 1
Blumenkranz 1
Blumenkränze 1
Blumenmarkt 1
Blumenmustern 1
Blumenschmuck 1
Blumenstand 1
Blumenstiel 1
Blumenteppich 1
Blumentopfes 1
Blumenverkauf@@ 1
Blumenwagen 1
Blut@@ 1
Blätterkronen 1
Blöcke 1
Blöd@@ 1
Blümchen 1
Blümchen@@ 1
Blüten 1
Board@@ 1
Boat 1
Bob 1
Bocci@@ 1
Bockspringen 1
Bodenarbeit 1
Bodenkacheln 1
Bodenkissen 1
Bodenspringbrunnen 1
Bodenstreit@@ 1
Bodent@@ 1
Bodies 1
Bodyboarder 1
Bohrhammer 1
Bohrinsel 1
Bollywood 1
Bon 1
Bonbon 1
Bonbondose 1
Bongospieler 1
Boogie@@ 1
Books 1
Bootdock 1
Booth 1
Bootrennen 1
Bootsfahrt 1
Bootsführer 1
Bootsseite 1
Bowl 1
Bowle 1
Bowlinbahn 1
Bowlinghalle 1
Bowlingkegeln 1
Bowlingwurf 1
Boxen 1
Boxencrew 1
Boxenteam 1
Boxers 1
Boxhandschuhe 1
Boxkampf@@ 1
Boxsack 1
Boxschläge 1
Boxstellung 1
Boxwettkampf 1
Boys 1
Bradford 1
Brandschutt 1
Bratenwender 1
Braun@@ 1
Brautjunger 1
Brautjungfer 1
Brautschleier 1
Bravo 1
Brechstange 1
Breeze 1
Breit@@ 1
Brenmark 1
Brett- 1
Brewing 1
Bridges 1
Briefmarke 1
Briefträgern 1
Brilleng@@ 1
Brise 1
Broad 1
Bronco 1
Bronislaw 1
Bronzeschindeln 1
Brote 1
Broten 1
Brotkisten 1
Brotkörben 1
Brownies 1
Bruce 1
Bruchstein@@ 1
Bruders 1
Brulé@@ 1
Brunnenpumpe 1
Brustschwimmen 1
Brustwarzen@@ 1
Bryant 1
Brückengeländer 1
Bubble 1
Buchhandlung 1
Buchmesse 1
Buchs 1
Bucks 1
Bud 1
Buddha 1
Buddhistischer 1
Buffettisch 1
Bugs 1
Buletten 1
Bulldo@@ 1
Bullenköpfen 1
Bullenritt 1
Bullter@@ 1
Bum@@ 1
Bummel 1
Bundesstaat 1
Bungeeseilen 1
Bungie 1
Bunny 1
Bunsenbrenner 1
Bunt@@ 1
Burberry 1
Burgfest@@ 1
Burkas 1
Burning 1
Burrito 1
Burritos 1
Busbahnhof 1
Busches 1
Buschlandschaft 1
Bush 1
Buster 1
Bustiers 1
Buswart@@ 1
Butchers 1
Buy 1
Bäckerbekleidung 1
Bäckereimitarbeiter 1
Bällebad 1
Bändertän@@ 1
Bänke 1
Bärtiger 1
Böden 1
Böschung 1
Böschungen 1
Bücherregalen 1
Bücherstapeln 1
Bücherverkauf 1
Büffel 1
Bügeln 1
Bühnen 1
Bühnenbeleuchtung 1
Bühnenbild 1
Bühnenlichter 1
Bühnenrand 1
Bühnenshow 1
Bühnenvorstellung 1
Bündeln 1
Bürger 1
Bürgersteigen 1
Bürgersteigs@@ 1
Bürgerteig 1
Bürgerversammlung 1
Büroangestellte 1
Büroausstattung 1
Bürobereichs 1
Büroparty 1
Büroraum 1
Büroschreibtisch 1
Bürostuhl 1
Bürostühlen 1
Büroumgebung 1
Büste 1
CASQUE 1
CD 1
CDs 1
CG@@ 1
CUB@@ 1
CYFD 1
Cable 1
Cad@@ 1
Cafés 1
California 1
Calzone 1
Camelbak 1
Camping 1
Campingbusses 1
Campingplatz 1
Cand@@ 1
Candy 1
Canon 1
Canyons 1
Cape 1
Capp@@ 1
Carcassonne 1
Cardigan 1
Cargo 1
Cargohose 1
Carhartt 1
Cariboos 1
Carnegie 1
Carnival 1
Carol 1
Carolina 1
Cartoon 1
Casinos 1
Casterol 1
Castle 1
Castro 1
Castros 1
Cells 1
Celtics 1
Central 1
Centre 1
Champa@@ 1
Chan 1
Chan@@ 1
Chance 1
Channel 1
Charade 1
Cheap 1
Cheerleaderinnen 1
Cheerleading 1
Cheese@@ 1
Cheesecake 1
Chef@@ 1
Chelsea 1
Chemie@@ 1
Cher 1
Cher@@ 1
Chevron 1
Chi 1
Chica@@ 1
Chiefs 1
Children 1
Chilidä@@ 1
Chilli 1
Chinesinnen 1
Chip 1
Chip@@ 1
Chirurg 1
Chirurgie 1
Chor@@ 1
Christian 1
Chun 1
Chung 1
Cigar 1
Cirque 1
Classic 1
Clear 1
Clip@@ 1
Clippers 1
Clog 1
Clogs 1
Clownschminke 1
Clownskostüm 1
Clownsmaske 1
Clownsnase 1
Clownsnasen 1
Clowsnase 1
Clubsessel 1
Clydesdale 1
Cocker@@ 1
Code 1
Coke 1
Collector 1
Color 1
Columbia 1
Comcast 1
Comics 1
Computerarbeitsplatz 1
Computergeschäft 1
Computerkurs 1
Computerlabor 1
Computermaus 1
Computermonitor 1
Computermonitore 1
Computerprojekt 1
Computerspiel 1
Computersystem 1
Computerteil 1
Computerterminals 1
Computertest 1
Computertisch 1
Computertischen 1
Conchor@@ 1
Cone 1
Conference 1
Connah 1
Connie 1
Container 1
Cop@@ 1
Cord@@ 1
Corgis 1
Corp 1
Cosplay 1
Costa 1
Costco 1
Courtboden 1
Cover 1
Cowbow 1
Cowboyhose 1
Cowboyweste 1
Cowgirls 1
Cracker 1
Cream 1
Cristy 1
Cros@@ 1
Cross 1
Crou@@ 1
Croupier 1
Cru@@ 1
Cruz 1
Crè@@ 1
Cue 1
Cunningham 1
Cup@@ 1
Cure 1
Curr@@ 1
Cyclothon 1
Cyranka 1
D 1
DAHLAK 1
DEMOS 1
DHL 1
DIEGO 1
DIO 1
DMC 1
DOWN 1
DU 1
DVD 1
Dachshund 1
Dachshunde 1
Dachspitze 1
Damen@@ 1
Damm 1
Damp@@ 1
Daniels 1
Darstellung 1
Dart 1
Dart@@ 1
Darts 1
Dashiki 1
Dauerwelle 1
Daunen@@ 1
Dave 1
Dead 1
Deckblatt 1
Deco 1
Deep 1
Degenkampf 1
Dekolleté 1
Deku@@ 1
Deleon 1
Delfins 1
Delikatessen@@ 1
Delkatessen@@ 1
Delphin 1
Delphine 1
Delwood 1
Dem 1
Demonstrant 1
Demonstrantin 1
Den@@ 1
Denkmals 1
Dennis 1
Dept. 1
Designer 1
Designtisch 1
Dessous 1
Deutsch 1
Deutschen 1
Deutschlands 1
Diabolo 1
Diagno@@ 1
Diagramm 1
Diagramme 1
Diamanten 1
Diavorführung 1
Diesel 1
Diet 1
Digger 1
Digital 1
Diner 1
Ding 1
Dinner 1
Dinner@@ 1
Dinosaurier@@ 1
Dior 1
Diplo@@ 1
Dirigenten 1
Dirt 1
Dischda@@ 1
Discountmarktes 1
Disneyfil@@ 1
Distanz 1
Diverse 1
Dixie 1
Diät@@ 1
Dodgers 1
Doktor@@ 1
Doktoren 1
Doktors 1
Dokument 1
Dolch 1
Dolchen 1
Doll 1
Dollar 1
Dollarzeichen 1
Domin@@ 1
Domingo 1
Donald 1
Doppel 1
Doppeldecker 1
Doppeldecker@@ 1
Doppelüberführung 1
Dorado 1
Dorfes 1
Dorfstraße 1
Dorfveranstaltung 1
Dorney 1
Dorothy 1
Downhill 1
Downtown 1
Dr 1
Drachenmarionette 1
Drachent@@ 1
Drag 1
Dragqueen 1
Dragster@@ 1
Draht 1
Drahtbündel 1
Drahtgewe@@ 1
Drahtturm 1
Drahtzahn 1
Drahtzäunen 1
Dre 1
Dreckwolke 1
Drehen 1
Drehung 1
Dreieck 1
Dreiradfahren 1
Dreirads 1
Dreistock 1
Dreizack 1
Dreißig@@ 1
Dressen 1
Dri@@ 1
Drit@@ 1
Driver 1
Dro@@ 1
Drumstick 1
Drähte 1
Du 1
Dudelsäcke 1
Dudelsäcken 1
Duellan@@ 1
Duft@@ 1
Dunkel 1
Dunklen 1
Durag 1
Durags 1
Durchführung 1
Durchgangs@@ 1
Durchschnittliche 1
Duschen 1
Dä@@ 1
Dän@@ 1
Dünen 1
Dünenbuggy 1
EL 1
ELOIN 1
END 1
Earth 1
Easter 1
Easy 1
Ebay 1
Ebenen 1
Eddies 1
Ehem@@ 1
Ehr@@ 1
Ehren 1
Eiattra@@ 1
Eiche 1
Eichel 1
Eien 1
Eik 1
Eimers 1
Eimmer 1
Einband 1
Einbaum 1
Einbäumen 1
Einde 1
Einef 1
Einerka@@ 1
Einfried@@ 1
Eingangs 1
Eingangsstufe 1
Eingangster@@ 1
Eingebo@@ 1
Eingemachtes 1
Eingespiel@@ 1
Eingriff 1
Einkauf 1
Einkaufsbeutel 1
Einkaufsbumm@@ 1
Einkaufsbummel 1
Einkaufskarren 1
Einkaufsladen 1
Einkaufsliste 1
Einkaufsmeile 1
Einkaufsstraße 1
Einkaufsviertel 1
Einkaufswagens 1
Einkaufwagen 1
Einkäufe 1
Einkäufen 1
Einkäuferin 1
Einmann 1
Einrädern 1
Einsame 1
Einsatzanzügen 1
Einsatzfahrzeuge 1
Einsatzkräften 1
Einschlag@@ 1
Einsteigen 1
Einstellungen 1
Einstie@@ 1
Eintreffen 1
Einwander@@ 1
Einwanderung 1
Einwickeln 1
Einzelhand@@ 1
Einzelheiten 1
Einzelne 1
Einzäun@@ 1
Eisbar 1
Eisblock 1
Eisblöcke 1
Eisblöcken 1
Eisbrocken 1
Eisbär@@ 1
Eiscremschüssel 1
Eisdiele 1
Eisenbahnbrücke 1
Eisenbahner 1
Eisenbahnfahrzeug 1
Eisenbahnschiene 1
Eisenbahnschwelle 1
Eisenpfanne 1
Eisenwarenhandlung 1
Eisenzaun 1
Eisfigur 1
Eishalle 1
Eisher@@ 1
Eishockeyfeld 1
Eishockeyspielern 1
Eishöhle 1
Eiskletterausrüstung 1
Eiskühler 1
Eislauf@@ 1
Eisloch 1
Eisläuferin 1
Eismitte 1
Eissk@@ 1
Eisstücken 1
Eistüte 1
Eisverkäufers 1
Eiswgen 1
Elchmütze 1
Elektrizität 1
Elektromobil 1
Elektrorollstuhl 1
Elementen 1
Elfen 1
Elfenflügeln 1
Elfmet@@ 1
Ellen@@ 1
Elmos 1
Elton 1
Em 1
Emoti@@ 1
End 1
Endspurt 1
Endstation 1
Ener@@ 1
Energizer 1
Engelsflügeln 1
Engelskostüm 1
England 1
Enkel 1
Ensemble 1
Entfessel@@ 1
Enthusia@@ 1
Entlangfahren 1
Entsetzliches 1
Entspannung 1
Entt@@ 1
Entwässerungs@@ 1
Epo@@ 1
Erd- 1
Erdbau@@ 1
Erdbe@@ 1
Erdbeer 1
Erdgrube 1
Erdhügeln 1
Erdkonstruktion 1
Erdloch 1
Erdnu@@ 1
Erdnüsse 1
Erdra@@ 1
Erdwall 1
Erfindung 1
Ergom@@ 1
Erkli@@ 1
Erkunden 1
Erlei@@ 1
Ernt@@ 1
Ero@@ 1
Erreichen 1
Ersatz@@ 1
Erschöpf@@ 1
Erstaunen 1
Erwachsenengrö@@ 1
Erzeugnissen 1
Erzieh@@ 1
Eröffn@@ 1
Eröffnung 1
Esel@@ 1
Ess- 1
Essbares 1
Essbereich 1
Essenkäufer 1
Essens 1
Essens- 1
Essensausgabe 1
Essensbox 1
Essensbude 1
Essensbuffet 1
Essensstands 1
Essensstation 1
Essenstheke 1
Essensverkaufsstand 1
Essensverkäufers 1
Essenteig 1
Esswerkzeug 1
Esszimmer@@ 1
Et@@ 1
Eta@@ 1
Etage 1
Etat 1
Ethnien 1
Ethno 1
Eti@@ 1
Eule 1
Eulen 1
Evergreen 1
Exerzier@@ 1
Exodus 1
Exotisch 1
Experten 1
Exuma 1
F 1
FC 1
FROG 1
Fabrikstube 1
Fabrikumgebung 1
Face@@ 1
Fachwerk 1
Facial 1
Fackelstab 1
Fahrers 1
Fahrga@@ 1
Fahrgeld 1
Fahrkar@@ 1
Fahrradbekleidung 1
Fahrradfaher 1
Fahrradfahrern 1
Fahrradfahrers 1
Fahrradin 1
Fahrradkette 1
Fahrradkorb 1
Fahrradkurier 1
Fahrradkutsche 1
Fahrradladen 1
Fahrradoberteil 1
Fahrradpedal 1
Fahrradpolizist 1
Fahrradrampe 1
Fahrradrennens 1
Fahrradrennnen 1
Fahrradriksch@@ 1
Fahrradschläuchen 1
Fahrradsprung 1
Fahrradsprün@@ 1
Fahrradstur@@ 1
Fahrradtrain@@ 1
Fahrradverlei@@ 1
Fahrradweg 1
Fahrschein@@ 1
Fahrsteig 1
Fahrstuhl 1
Fahrzeug@@ 1
Falcons 1
Fallen 1
Falls 1
Fallschirmausrüstung 1
Fallschirmspring 1
Fallschirmspringerin 1
Fallschirmsprung 1
Falschpark@@ 1
Falt@@ 1
Falten 1
Familienfests 1
Familienfotos 1
Familiengruppen 1
Familienschnappschuss 1
Familienwohnung 1
Famous 1
Fangnetzen 1
Fangruppe 1
Fanmenge 1
Fantasie@@ 1
Fantasy 1
Farbenfrohe 1
Farbige 1
Farbkleck@@ 1
Farbspek@@ 1
Farbsprühdose 1
Farbton 1
Fargo 1
Farmhauses 1
Farms 1
Farnblätter 1
Faschingsm@@ 1
Fashioned 1
Fassschaukel 1
Fassung 1
Fast@@ 1
Fauna 1
Faxen 1
Fechtanzug 1
Fechtausrüstung 1
Fechten 1
Fechtkurs 1
Fechtsport 1
Fechtunterricht 1
FedEx 1
Federball 1
Federboa 1
Federhüte 1
Federkopfschmuck 1
Federkostümen 1
Federstirn@@ 1
Fedora 1
Feenkostüm 1
Feierabend 1
Feiergeste 1
Feierlichkeit 1
Feierlichkeiten 1
Feinschme@@ 1
Feldbetten 1
Feldlazar@@ 1
Feldspielern 1
Feldwanderweg 1
Feldwegra@@ 1
Feldwegs 1
Felsblöcken 1
Felsene 1
Felsenkante 1
Felsenklettern 1
Felsenküste 1
Felshü@@ 1
Felskante 1
Felsklettern 1
Felswänden 1
Fenstergitter 1
Fensterscheibe 1
Fensterscheiben 1
Fenstersims 1
Fenstertür 1
Fensterwand 1
Feri@@ 1
Fernbedi@@ 1
Fernglä@@ 1
Ferngläser 1
Fernrohre 1
Fernsehbildschirm 1
Fernsehgerät 1
Fernsehkamera 1
Fernsehkameras 1
Fernsehshow 1
Fertigung 1
Fes 1
Feste 1
Festes 1
Festival@@ 1
Festum@@ 1
Festung 1
Festwagen 1
Fete 1
Fetzen 1
Feuergrube 1
Feuerjonglier@@ 1
Feuerplatz 1
Feuerschale 1
Feuerseilen 1
Feuerstäben 1
Feuertanz 1
Feuertricks 1
Feuertän@@ 1
Feuerwache 1
Feuerwehran@@ 1
Feuerwehranzug 1
Feuerwehranzügen 1
Feuerwehrautos 1
Feuerwehrfahrzeuge 1
Feuerwehrfahrzeugs 1
Feuerwehrhemd 1
Feuerwehrkleidung 1
Feuerwehrleiter 1
Feuerwehrmantel 1
Feuerwerksk@@ 1
Feuerzeug 1
Fidel 1
Field 1
Filiale 1
Filmen 1
Filmfigur 1
Filmposter 1
Filmwerbung 1
Filzstift 1
Finale 1
Find@@ 1
Fingerkuppen 1
Fingerverband 1
Finish 1
Finley 1
Fired 1
Firefox 1
Fischabteil@@ 1
Fischabteilung 1
Fischaugen 1
Fischerboote 1
Fischerbooten 1
Fischereiausrüstung 1
Fischerkanu 1
Fischermützen 1
Fischernetzen 1
Fischess@@ 1
Fischfang 1
Fischglas 1
Fischmarktes 1
Fisher 1
Fishmonger 1
Fitness 1
Fitnesscenter 1
Fitnessgerät 1
Fitnessgeräte 1
Fitnesskurses 1
Fives 1
Flamen 1
Flamingos 1
Flanell 1
Flanellhose 1
Flannel 1
Flannel@@ 1
Fledermaus 1
Fleece 1
Fleece@@ 1
Fleischgericht 1
Fleischsorten 1
Fleischstücke 1
Fleischverarbeit@@ 1
Fleischwarengeschäft 1
Fliegen@@ 1
Flieger 1
Fliegerin 1
Fließband 1
Flight 1
Flinke 1
Flipper 1
Flohmarktwaren 1
Florida 1
Flossen 1
Flotte 1
Floßes 1
Floßfahren 1
Flugbeg@@ 1
Flugblättern 1
Flugfeld 1
Flughafensitz 1
Fluglinie 1
Flugposition 1
Flugschau 1
Flugzeugen 1
Flugübersicht 1
Flussbett 1
Flussbetts 1
Flusskanal 1
Flusslauf 1
Flussmarkts 1
Flut@@ 1
Flöten 1
Flöteninstrument 1
Flötist 1
Flöße 1
Flüchtlinge 1
Flüssigkeiten 1
Flüssigwaschmittel 1
Fokus 1
Fol@@ 1
Fond@@ 1
Foods 1
Footballdress 1
Footballfeier 1
Footballkleidung 1
Footballplatz 1
Footballspielern 1
Footballticket 1
Footballtrainer 1
Footballtraining 1
Footballtrikot 1
Forderungen 1
Forever 1
Formosa 1
Formul@@ 1
Forsch@@ 1
Forstwirt@@ 1
Fot@@ 1
Fotoappar@@ 1
Fotoaufnahme 1
Fotoausrüstung 1
Fotoausstellung 1
Fotoautomaten 1
Fotobild@@ 1
Fotogeschäft 1
Fotografi@@ 1
Fotografie 1
Fotohandy 1
Fotojournalist 1
Fotoladen 1
Fotolampe 1
Fotostudio 1
Frag 1
Frank 1
Fransen 1
Frau@@ 1
Frauen- 1
Frauenansammlung 1
Frauenbade@@ 1
Frauenbasketball@@ 1
Frauenunterwäsche 1
Freerunner 1
Freestyle 1
Freiheit 1
Freiheit@@ 1
Freilicht@@ 1
Freiluft 1
Freiluftgrill 1
Freiluftmarktes 1
Freiluftpodest 1
Freistil 1
Freit@@ 1
Freiwil@@ 1
Freizeit 1
Freizeitaktivität 1
Freizeitbekleidung 1
Freizeitfahrzeug 1
Freizeithosen 1
Freizeitweg 1
Fremde 1
Fressen 1
Frett@@ 1
Freuen 1
Friedensdecke 1
Friedensschild 1
Friedensschilder 1
Friedhofsarbeiter 1
Frisch 1
Frische@@ 1
Friseurin 1
Friseurumhang 1
Frisuren 1
Fritte 1
Frog 1
From 1
Front@@ 1
Frosch 1
Frostlandschaft 1
Früchte@@ 1
Früchten 1
Frühling 1
Frühlings@@ 1
Fu 1
Fu0ballspieler 1
Fuge 1
Fuhrwerk 1
Fulton 1
Fum@@ 1
Fun@@ 1
Fundstück 1
Funk@@ 1
Fussel@@ 1
Futter 1
Fußabdrücken 1
Fußball- 1
Fußballerin 1
Fußballfelds 1
Fußballhemd 1
Fußballhut 1
Fußballschals 1
Fußballschieds@@ 1
Fußballschuhe 1
Fußballspielerin 1
Fußballspielerinnen 1
Fußballspielt 1
Fußballspielzeug 1
Fußballtorhüter 1
Fußballtrainer 1
Fußballuniform 1
Fußballübungen 1
Fußbank 1
Fußbällen 1
Fußbö@@ 1
Fußes 1
Fußgelen@@ 1
Fußgängerampel 1
Fußgängerweg 1
Fußgängerzone 1
Fußgängerüberwegen 1
Fußkick 1
Fußrasten 1
Fußtritte 1
Fähn@@ 1
Fährten@@ 1
Fän@@ 1
Fäusten 1
Föhn@@ 1
Fühler 1
Füllfeder@@ 1
GAP 1
GIGOLO 1
GN@@ 1
GONTAGA 1
GRAHAM 1
Gall@@ 1
Gallopieren 1
GameCube 1
Gand@@ 1
Gange 1
Gans 1
Gao 1
Garagen 1
Garden 1
Gardens 1
Garnierung 1
Garnknäuel 1
Gartenarbeiten 1
Gartenbauhelfer 1
Gartenbereich 1
Gartenernte 1
Gartengeräte 1
Gartenmöbeln 1
Gartensesseln 1
Gartent@@ 1
Gartenterrasse 1
Gasmasken 1
Gassigehen 1
Gastronomie@@ 1
Gaststätte 1
Gateway 1
Gators 1
Gau@@ 1
Gay 1
Gebet 1
Gebin@@ 1
Gebirges 1
Gebirgsbach 1
Gebirgsp@@ 1
Geburtstagshut 1
Geburtstagskar@@ 1
Geburtstagsker@@ 1
Geburtstagsparty 1
Geburtstagstorte 1
Gebä@@ 1
Gebäudeeinfahrt 1
Gebäudem@@ 1
Gebäudet@@ 1
Geden@@ 1
Gedul@@ 1
Gefahren@@ 1
Gefallenen 1
Gefri@@ 1
Gefän@@ 1
Gegensatz 1
Gegenspielerin 1
Gegenstands 1
Gegenverkehr 1
Gegenwart 1
Gegnerteams 1
Gehhilfe 1
Gehsteig- 1
Gehstocks 1
Gehstöcken 1
Gehweg@@ 1
Gehwege 1
Gehwegen 1
Gehäuse 1
Gehöfts 1
Gehör@@ 1
Geier 1
Geishas 1
Gelados 1
Gelassen@@ 1
Gelber 1
Gelbes 1
Geldscheine 1
Gele@@ 1
Gelender@@ 1
Geländemotorradtrick 1
Geländemotorrädern 1
Geländeparcours 1
Geländers 1
Gemeinschaftsraum 1
Gemüsebündel 1
Gemüsekarren 1
Gemüseladens 1
Gemüsem@@ 1
Gemüsepflanzen 1
Gemüsesorten 1
Gemüseverkäufer 1
Generationen 1
Generator 1
Genpac 1
Gentleman 1
Geography 1
Gepächför@@ 1
Gepäckbereich 1
Gepäckstück 1
Gepäckwagen 1
Gerade 1
Geranien 1
Gerichte 1
Gerichten 1
Gerichtsgebäude 1
Gerü@@ 1
Gesagten 1
Gesang 1
Gesch@@ 1
Geschenke 1
Geschenkeladens 1
Geschenks 1
Geschichten 1
Geschichten@@ 1
Geschirren 1
Geschirrspü@@ 1
Geschäftliches 1
Geschäftsan@@ 1
Geschäftsanzügen 1
Geschäftsfrau 1
Geschäftsgrund@@ 1
Geschäftsklub 1
Geschäftskostüm 1
Geschäftsleute 1
Geschäftspar@@ 1
Geschäftsprä@@ 1
Geschäftsräumen 1
Geschäftsstelle 1
Geschäftsumgebung 1
Geschäftsvitrine 1
Gesell@@ 1
Gesichtsausdrücke 1
Gespon@@ 1
Gestell 1
Gestrei@@ 1
Gesä@@ 1
Getränkeladen 1
Getränkestand 1
Getränks 1
Getue 1
Gewand@@ 1
Gewehr@@ 1
Geweih 1
Gewerk@@ 1
Gewin@@ 1
Gewächsh@@ 1
Gewänden 1
Gewässern 1
Gewässser 1
Geysi@@ 1
Gezeigt 1
Ghet@@ 1
Ghostbusters 1
Gi 1
Giants 1
Gicht 1
Gidday 1
Gie@@ 1
Gingham 1
Giorgio 1
Girarre 1
Gischt 1
Gitarre- 1
Gitarrenhals 1
Gitarrespielern 1
Gladiato@@ 1
GlamWiki 1
Glas- 1
Glasab@@ 1
Glasaufzüge 1
Glasball 1
Glasdach 1
Glasfenster 1
Glasfläche 1
Glaskasten 1
Glaslampe 1
Glasofen 1
Glasrahmen 1
Glasregal 1
Glasreiniger 1
Glass 1
Glasschaufenster 1
Glasschiebet@@ 1
Glasschild 1
Glastheke 1
Glastisch 1
Glastüren 1
Glasvitrine 1
Glasvorrichtung 1
Glaswaren 1
Gleich 1
Gleiche 1
Gleichungen 1
Gleise 1
Glied 1
Globus 1
Glocken 1
Gläu@@ 1
Goal 1
Gokartbahn 1
Gokarts 1
Goldgräber 1
Goldhalsket@@ 1
Goldkreuz 1
Goldmedaillen@@ 1
Goldrahmen 1
Goldteller 1
Goldtö@@ 1
Goldvase 1
Golfanlage 1
Golfballs 1
Golfer 1
Golfern 1
Golfspiel 1
Golfwagen 1
Golfziel 1
Gomez 1
Gond@@ 1
Good 1
Gor@@ 1
Gott 1
Gotte@@ 1
Gou@@ 1
Grab 1
Grabstein 1
Grabung 1
Grabungs@@ 1
Grace 1
Gradu@@ 1
Graffitti 1
Grafik 1
Grafik@@ 1
Grafitt@@ 1
Grandmas 1
Grasballen 1
Grasgebiet 1
Grashü@@ 1
Grashüt@@ 1
Grasland 1
Grasplatz 1
Grasrock 1
Graue 1
Greenpeace 1
Grei@@ 1
Gren@@ 1
Griffe 1
Griffen 1
Griffin 1
Grillfest 1
Grillgitter 1
Grillgut 1
Grillo@@ 1
Grillparty 1
Grillzange 1
Grimmi@@ 1
Grin@@ 1
Grizzles 1
Grouch 1
Groucho 1
Großaufnahme 1
Großbild@@ 1
Großbildschirm 1
Großbrit@@ 1
Großer@@ 1
Großfläch@@ 1
Großm@@ 1
Großmeister 1
Großstadtstraße 1
Großteil 1
Grund 1
Grundschule 1
Grundschulkindern 1
Gruocho 1
Grupe 1
Gruppena@@ 1
Gruppenarbeit 1
Gruppenkurs 1
Gruppenprojekt 1
Grä@@ 1
Grünanlage 1
Grünanlagen 1
Gründen 1
Grünen 1
Grünpflanzen 1
Guck 1
Gucklöchern 1
Gug@@ 1
Gummiboot 1
Gummieimer 1
Gummiente 1
Gummienten 1
Gummihandschuhen 1
Gummihuhn 1
Gummistiefel 1
Gurke 1
Gurken 1
Gurt@@ 1
Gwan 1
Gymnastikanzug 1
Gymnastikfigur 1
Gymnastikkurs 1
Gymnastikkür 1
Gymnastikprogramm 1
Gymnastikringen 1
Gymnastikstange 1
Gyro 1
Gänsemarsch 1
Gänsen 1
Gästepaar 1
Gönner 1
HO 1
HSBC 1
Haarband 1
Haardutt 1
Haarfestiger 1
Haarmaskottchen 1
Haarn@@ 1
Haarpflege@@ 1
Haarschneidemaschine 1
Haarschnitten 1
Haarspitzen 1
Haarstylistin 1
Haarteilen 1
Haarzöpfen 1
Habitat 1
Hackbeil 1
Hackbrett 1
Hacky 1
Hafengebiets 1
Hafenszene 1
Haft@@ 1
Hai 1
Hair 1
Haiti 1
Hake 1
Halbglatze 1
Halbnackter 1
Halbprofessioneller 1
Halbschatten 1
Hallenbad 1
Hallenboden 1
Hallenhockey 1
Hallenmarkt 1
Hallenradfahrer 1
Hallenrennen 1
Hallenschwimmbad 1
Hallenskatepark 1
Halstü@@ 1
Halte 1
Halterung 1
Hamp@@ 1
Handabdrücken 1
Handballspieler 1
Handbuch 1
Handbücher 1
Handdusche 1
Handfeuer@@ 1
Handfläche 1
Handgelen@@ 1
Handgepä@@ 1
Handkarren 1
Handlauf 1
Handlung 1
Handmischer 1
Handpuppe 1
Handrasen@@ 1
Handrücken 1
Handschaufel 1
Handschaukel 1
Handschlags 1
Handsäge 1
Handverlet@@ 1
Handwagen 1
Handwerk 1
Handzeichen 1
Hang@@ 1
Hantel 1
Hantel@@ 1
Happy 1
Harke 1
Harley 1
Harn@@ 1
Harrod 1
Hart 1
Harthol@@ 1
Hartholz@@ 1
Hauben 1
Hauch 1
Haupthalle 1
Hausbau 1
Hausdach 1
Hauseingang 1
Hauseingangs 1
Haushalt@@ 1
Hausküche 1
Hausparzelle 1
Hausreparaturen 1
Hausschuh 1
Haustier 1
Hawaiishorts 1
Hawkeyes 1
Heals 1
Health 1
Heat 1
Hebekorb 1
Heber 1
Hebrä@@ 1
Hechtsprung 1
Heer 1
Hefter 1
Heftgerät 1
Heide 1
Heim 1
Heimat@@ 1
Heimfahrt 1
Heiratsurkun@@ 1
Heißgetränk 1
Hendrix 1
Heng@@ 1
Henk@@ 1
Heranwachsen@@ 1
Herbst- 1
Herbstblätter 1
Herbstblättern 1
Herbstbäume 1
Herbstlandschaft 1
Herdplatte 1
Herds 1
Here 1
Herrchen 1
Herrenclub 1
Herrensalons 1
Herrschaften 1
Herzklappe 1
Herzmuster 1
Herzt@@ 1
Herztattoo 1
Herztattoos 1
Heubündel 1
Heuhaufen 1
Heuwagen@@ 1
Highschool@@ 1
Highschools 1
Hijab 1
Hijabs 1
Hilf@@ 1
Hilfiger 1
Hill 1
Hills 1
Hindernisparkour 1
Hindi 1
Hinduist 1
Hingabe 1
Hintergund 1
Hinterkop@@ 1
Hinterraum 1
Hinterrädern 1
Hintrgrund 1
Hinuntergehen 1
Hinweissäule 1
Hippies 1
Hirsche 1
Hirschstatue 1
Hispanische 1
Hmong 1
Hobel 1
Hochbahn 1
Hochdruck@@ 1
Hochgebir@@ 1
Hochhaus 1
Hochheben 1
Hochhäusern 1
Hochklettern 1
Hochleistungsmi@@ 1
Hochschu@@ 1
Hochschüler 1
Hochseil 1
Hochseilen 1
Hochspringer 1
Hochsprung 1
Hochsprung@@ 1
Hochstühlen 1
Hochtritt 1
Hochwasser 1
Hochzeitsgäste 1
Hochzeitskleider 1
Hochzeitskleids 1
Hockende 1
Hockeyanzug 1
Hockeybahn 1
Hockeypuck 1
Hockeyspielerinnen 1
Hockeyspiels 1
Hockeystöcke 1
Hockeyteams 1
Hockt 1
Hodo 1
Hoffe@@ 1
Hoffloh@@ 1
Hofs 1
Hohem 1
Hohl@@ 1
Holly@@ 1
Holmen 1
Holmgren 1
Holzarena 1
Holzarm 1
Holzbau 1
Holzbearbeitung 1
Holzblock 1
Holzboots 1
Holzbretter 1
Holzbänken 1
Holzbären 1
Holzbühne 1
Holzbündel 1
Holzeimers 1
Holzfiguren 1
Holzfäl@@ 1
Holzfässern 1
Holzgestell 1
Holzhammer 1
Holzhandwerk 1
Holzhä@@ 1
Holzhö@@ 1
Holzkarren 1
Holzko@@ 1
Holzkonstruktionen 1
Holzkorb 1
Holzlöff@@ 1
Holzmaske 1
Holzmast 1
Holzobjekt 1
Holzofen 1
Holzpfählen 1
Holzplatten 1
Holzplattformen 1
Holzpodest 1
Holzpuzzle 1
Holzschu@@ 1
Holzschwer@@ 1
Holzschüssel 1
Holzskulptur 1
Holzspat@@ 1
Holzspeer 1
Holzstange 1
Holzstapel 1
Holzstock 1
Holzstä@@ 1
Holzstöcke 1
Holztabl@@ 1
Holzteile 1
Holztor 1
Holztür@@ 1
Holzvorrichtung 1
Holzweg 1
Holzwen@@ 1
Holzwerkstatt 1
Holzwerkzeug 1
Holzza@@ 1
Holzzerklein@@ 1
Holzzimmer 1
Holzzug 1
Hommage 1
Hon@@ 1
Hoodies 1
Hook 1
Hoopreifen 1
Horn@@ 1
Horns 1
Horse 1
Hort@@ 1
Hosenrock 1
Hosenträger 1
Hour 1
House 1
Houstan 1
Houston 1
Hubbühne 1
Huckabee 1
Hug 1
Hugs 1
Hum@@ 1
Humanity 1
Hummer 1
Hund- 1
Hundeausstellung 1
Hundebesitz@@ 1
Hundecape 1
Hundeführer 1
Hundegeschirr 1
Hundejacke 1
Hundekopf 1
Hundekostüm 1
Hundekot@@ 1
Hundekör@@ 1
Hundenapf 1
Hunderampe 1
Hundertfüß@@ 1
Hunderudel 1
Hundeschlitt@@ 1
Hunger 1
Hunt 1
Huts 1
Hyatt 1
Hydraulik@@ 1
Hähne 1
Hängeg@@ 1
Hängen 1
Hängender 1
Hängeohren 1
Hängepflanze 1
Hängesessel 1
Härt@@ 1
Höhlen@@ 1
Hörer 1
Hülle 1
Hüpfanlage 1
Hüpfspielzeug 1
Hüpfzelt 1
Hürden 1
Hütene 1
Hüttensteine 1
ICE 1
IG 1
IKE@@ 1
IN@@ 1
IPad 1
IS@@ 1
Ice 1
Ident@@ 1
Identisch 1
Idiot 1
Ihnen 1
Ihre 1
Ihrer 1
Imbis@@ 1
Imbisses 1
Imbissfensters 1
Imit@@ 1
Immigration 1
Imp@@ 1
Incredible 1
Indios 1
Indischer 1
Industrie 1
Industriegebäudes 1
Industrieofen 1
Industriereinig@@ 1
Infektionen 1
Information 1
Information@@ 1
Inlinern 1
Inlineskate@@ 1
Inlineskaten 1
Inmitten 1
Innenbasketball@@ 1
Innenbecken 1
Innenhofs 1
Innenpfer@@ 1
Innenrampe 1
Innenstadt@@ 1
Innere 1
Inning 1
Insel 1
Insel@@ 1
Inspe@@ 1
Inten@@ 1
Interesse 1
Interesses 1
Iran 1
Irgendeine 1
Irgendwo 1
Irish 1
Iro 1
Israel 1
Isuzu 1
It 1
Izabella 1
Izo@@ 1
JAL 1
JP 1
Jacht 1
Jachthafen 1
Jackie 1
Jacks 1
Jackson 1
Jacksons 1
Jaguar 1
Jahrgangs 1
Jahrhundert 1
Jahrmarktattraktion 1
Jahrmarktspiel 1
Jahrmarktspiele 1
Jahrmarktspielen 1
Jahrmarktstand 1
Jahrmarktständen 1
Jalou@@ 1
Japanerin 1
Jasm@@ 1
Jeansbluse 1
Jeanskleid 1
Jeanslatzhose 1
Jeansoverals 1
Jeansschürze 1
Jeansstoff 1
Jeder 1
Jeeps 1
Jem@@ 1
Jesu@@ 1
Jesus 1
Jetliner 1
Jetskis 1
Jimi 1
Job@@ 1
Jobs 1
Jodhpur@@ 1
Joggerin 1
Joggern 1
Jogginghosen 1
Joggingkleidung 1
Jojo 1
Joker 1
Jongleure 1
Judä@@ 1
Jug@@ 1
Jugendfußballspiel 1
Jukebox 1
Jul@@ 1
Jumbotron 1
Jun@@ 1
Jung 1
Jungbullen 1
Jungens 1
Junggeblie@@ 1
Jungstierkampf 1
Jungvermäh@@ 1
Justice 1
Justin 1
Juwelen 1
Jü@@ 1
K 1
KISS 1
KIn@@ 1
Kabeldraht 1
Kabinen@@ 1
Kabrio 1
Kaffeeimbiss 1
Kaffeemaschine 1
Kaffeetassen 1
Kahns 1
Kaimauer 1
Kajak- 1
Kaleido@@ 1
Kalender 1
Kalkstein 1
Kalligraph@@ 1
Kamelbaby 1
Kamelreiter 1
Kamelrennen 1
Kamelrücken 1
Kamels 1
Kamelstatue 1
Kameraausrüstung 1
Kamerabereichs 1
Kamerabli@@ 1
Kameraden 1
Kameraleute 1
Kameramänner 1
Kamerastativ 1
Kameratasche 1
Kamerateam 1
Kaminsims 1
Kampagne 1
Kampfanzug 1
Kampfausrüstung 1
Kampfhaltung 1
Kampfhund 1
Kampfkünstler 1
Kampfsportanzug 1
Kampfsportanzügen 1
Kampfsportart 1
Kampfsportbewegungen 1
Kampfsporthalt@@ 1
Kampfsporthaltung 1
Kampfsportkurs 1
Kampfsportlerinnen 1
Kampfsportring 1
Kampfsportschü@@ 1
Kampfsportstellung 1
Kampfsportstunde 1
Kampfsporttechnik 1
Kampfsportturniers 1
Kampfsportwettbewerb 1
Kampfsportwettkampf 1
Kampfstöcken 1
Kampftechnik 1
Kanalschachts 1
Kaninchenkäfig 1
Kanister 1
Kanonen 1
Kanthöl@@ 1
Kanugeschäften 1
Kanzel 1
Kanälen 1
Kapit@@ 1
Kappe@@ 1
Kapuzen 1
Kapuzenjacken 1
Kapuzenkleidung 1
Kapuzenoberteil 1
Kapuzenpullis 1
Karabiner 1
Karatebewegungen 1
Karatekurs 1
Karatepose 1
Karateposition 1
Karateschritte 1
Karatet@@ 1
Karateuniformen 1
Karatewettkampf 1
Karawan@@ 1
Karkasse 1
Karlova 1
Karnevals 1
Karobluse 1
Karomuster 1
Karre 1
Kart 1
Kartengeberin 1
Kartengebers 1
Kartenhaus 1
Kartenspielen 1
Kartentisch 1
Kartenverkäufer 1
Kartoffelchips 1
Kartoffelsackmaske 1
Kartoffelsäcken 1
Karton@@ 1
Kass@@ 1
Kassen 1
Kastani@@ 1
Kastanien@@ 1
Kasten 1
Kastens 1
Kastenwagens 1
Katakom@@ 1
Katamaran 1
Kater 1
Katzenkostüm 1
Katzenstreu 1
Kauf 1
Kaufen 1
Kaufhauses 1
Kaufhausge@@ 1
Kaufmann 1
Kaug@@ 1
Kaukasier 1
Kauring 1
Kayaks 1
Kazoo 1
Kehr@@ 1
Kehren 1
Kei@@ 1
Kek@@ 1
Kellnertabl@@ 1
Kenji 1
Kennington 1
Kenntnisse 1
Kennzeichen 1
Kerlen 1
Kernen 1
Kernkissen 1
Kerry 1
Kerzen@@ 1
Kessel 1
Ketchup 1
Kett@@ 1
Kettenleine 1
Kettenschaukel 1
Kicher@@ 1
Kick 1
Kickboxer 1
Kicker 1
Kickflip 1
Kickoff 1
Kiesauffahrt 1
Kilburn 1
Killer 1
Kills 1
Kilomet@@ 1
Kilts 1
Kinde 1
Kinderfahrrad 1
Kinderfrau 1
Kindergarten 1
Kinderkletterwand 1
Kindermädchen 1
Kinderpool 1
Kinderrad 1
Kinderrechte 1
Kinderschar 1
Kinderspiel 1
Kinderspielzeug 1
Kinderstuhl 1
Kindertages@@ 1
Kindheit 1
Kinofo@@ 1
Kipper 1
Kirchenausgang 1
Kirchenbesucher 1
Kirchenchor@@ 1
Kirchenversammlung 1
Kirmes 1
Kirsche 1
Kiteboarder 1
Kitesurfboard 1
Kitesurfen 1
Kitesurfing 1
Klang 1
Klappe 1
Klapproller 1
Klarheit 1
Klassen 1
Klassenraums 1
Klassentre@@ 1
Klassenzimmers 1
Klassiker 1
Klat@@ 1
Klaue 1
Klavier@@ 1
Klebstoff 1
Kleeblättern 1
Kleidergeschäft 1
Kleidergeschäfts 1
Kleiderladen 1
Kleiderordnung 1
Kleiderständer 1
Kleides 1
Kleidungs- 1
Kleidungsgeschäft 1
Kleidungsm@@ 1
Kleidungsstücken 1
Kleinbauer 1
Kleinbuses 1
Kleingedruck@@ 1
Kleinholz 1
Kleinkin@@ 1
Kleinkind@@ 1
Kleinkindern 1
Kleinmotorflugzeug 1
Kleintranspor@@ 1
Kleinvorstellung 1
Kleinwagen 1
Kleis 1
Kletterern 1
Klettergerü@@ 1
Kletternetz 1
Kliffs 1
Klimaanlage 1
Klimmzug 1
Klinge 1
Klippenrand 1
Klo 1
Klot@@ 1
Klub@@ 1
Kluft 1
Klötzen 1
Kna@@ 1
Knapp 1
Knaut@@ 1
Kneipen 1
Knieschützer 1
Knochenform 1
Knoten 1
Knäuel 1
Knöchel@@ 1
Knüpfen 1
Kob@@ 1
Kocher 1
Kochfeld 1
Kochhut 1
Kochjacken 1
Kochkurs 1
Kochmützen 1
Kochs 1
Kochutensilien 1
Kockpit@@ 1
Koffee 1
Kohlen 1
Kok 1
Kokosnuss 1
Kokosnüssen 1
Kokus@@ 1
Koli@@ 1
Kollision 1
Kombi 1
Kombination 1
Komfort 1
Komm@@ 1
Komment@@ 1
Komo@@ 1
Komorowski 1
Kompanie 1
Kompass 1
Kondom 1
Kondome 1
Kondomen 1
Konferenzraums 1
Konferenzzentrum 1
Konfet@@ 1
Konfron@@ 1
Konföder@@ 1
Kongotrommeln 1
Konifere 1
Konjunk@@ 1
Konkurrenten 1
Konsol@@ 1
Konstruktion@@ 1
Konstruktionen 1
Konsum@@ 1
Kontakt 1
Kontra@@ 1
Kontrol@@ 1
Kontrollpunk@@ 1
Konversation 1
Konzerns 1
Konzerte 1
Konzerts 1
Konzessionen 1
Kopfdeckel 1
Kopfes 1
Kopfhaut 1
Kopfkissen 1
Kopfla@@ 1
Kopfmaske 1
Kopfsal@@ 1
Kopfsteinen 1
Kopfsteinpflaster 1
Kopfstützen 1
Kopftücher 1
Kopfüber 1
Kopien 1
Kopier@@ 1
Kopilo@@ 1
Kore@@ 1
Kork 1
Korken@@ 1
Kornä@@ 1
Korsett 1
Kostümparty 1
Kostüms 1
Krabbelkind 1
Krabben 1
Krachmacher 1
Krankenhausbettchen 1
Krankenhauses 1
Krankenhauszimmer 1
Krankenzimmer 1
Krans 1
Kreation 1
Krebsp@@ 1
Kredit@@ 1
Kreise 1
Kreises 1
Kreißsaal 1
Kreolen 1
Kreuz@@ 1
Kreze 1
Kricketbekleidung 1
Kricketspiel 1
Krist@@ 1
Kristall@@ 1
Krocket 1
Kru@@ 1
Krugs 1
Krä@@ 1
Kräh@@ 1
Krüge 1
Krümelmonster 1
Kuchen@@ 1
Kuchens 1
Kugel@@ 1
Kuk 1
Kul@@ 1
Kundendien@@ 1
Kung 1
Kunst- 1
Kunstapparat 1
Kunstatelli@@ 1
Kunstblut 1
Kunstgegen@@ 1
Kunstinstallation 1
Kunstklasse 1
Kunstproje@@ 1
Kunstrad 1
Kunstreiter 1
Kunstspringer 1
Kunstsprung 1
Kunststoffbällen 1
Kunststoffgegenstand 1
Kunststoffhandschuhen 1
Kunststoffkrug 1
Kunststofflatz 1
Kunststoffsandalen 1
Kunststoffzelt 1
Kunststudent 1
Kunststücks 1
Kunstunterricht 1
Kunstwerken 1
Kunstwerks 1
Kunstzentrums 1
Kupplung 1
Kurbel 1
Kurier@@ 1
Kurses 1
Kurven 1
Kus@@ 1
Kussmund 1
Kut@@ 1
Kuthhoop 1
Kwon 1
Käfige 1
Käfigen 1
Kämpfers 1
Käng@@ 1
Käselai@@ 1
Käsereibe 1
Köchen 1
Köchin 1
Köder 1
König@@ 1
Könnens 1
Körnchen 1
Körner 1
Kübel 1
Kücheausstellung 1
Küchengeräte 1
Küchenpersonal 1
Küchenzeile 1
Kügelchen 1
Kühlan@@ 1
Kühlern 1
Kühlgerät 1
Kühlgeräten 1
Kühlschrank 1
Kühltasche 1
Künstlergruppe 1
Künstlerinnen 1
Künstlers 1
Kür 1
Kürbis@@ 1
Kürze 1
Küssen 1
Küstenlandschaft 1
Küstennähe 1
Küstenstadt 1
LEGO 1
LKWs 1
LUCKY 1
La 1
LaFayette 1
Labortechniker 1
Laborversuche 1
Lachs@@ 1
Lack@@ 1
Ladeanflug 1
Ladeneinrichtung 1
Ladenfront 1
Ladengang 1
Ladengeschäfts 1
Ladentheke 1
Ladentisch 1
Ladenzeile 1
Lage 1
Lagen 1
Lagenoberteil 1
Lageranhän@@ 1
Lagerbestän@@ 1
Lagerfeuers 1
Lagergebäude 1
Lagergruppen 1
Lagerleiter 1
Lagerplatz 1
Lagune 1
Lamas 1
Lampard 1
Landarbeiter 1
Lande 1
Landes 1
Landes@@ 1
Landmaschine 1
Landmaschinen 1
Lands 1
Landschafts@@ 1
Landsitz 1
Landwirte 1
Langarmoberteil 1
Langhaariger 1
Langhaarkatze 1
Langhantel 1
Langläufer 1
Langläufern 1
Langschwimmbecken 1
Lanzen 1
Lanzenstechen 1
Laptop@@ 1
Lasche 1
Laser@@ 1
Lassos 1
Lasst 1
Lasten 1
Latein- 1
Laternen@@ 1
Latex@@ 1
Latt@@ 1
Latte 1
Laubblasen 1
Laube 1
Laubgewä@@ 1
Laufbands 1
Laufbändern 1
Laufe 1
Laufens 1
Laufshorts 1
Laufstall 1
Laufstalls 1
Laufweg 1
Laufwettbewer@@ 1
Laura 1
Lava 1
Lava@@ 1
Lavigne 1
Leag@@ 1
Leak 1
Leap 1
Lebensmittel- 1
Lebensmittelangebot 1
Lebensmittelfarbe 1
Lebensmittelgeschäften 1
Lebensmittelhändler 1
Lebensmittelladung 1
Lebensmittelspenden 1
Lebensunter@@ 1
Lebesmitt@@ 1
Leckage 1
Leckerei 1
Leckereien 1
Leckerli 1
Leckerlis 1
Lederhosen 1
Lederkombi 1
Lederoutfit 1
Lederstuhl 1
Legg@@ 1
Legos 1
Lehm 1
Lehmpfad 1
Lehrers 1
Lehrkraft 1
Lehrling 1
Lei 1
Leichtathlet@@ 1
Leierkasten 1
Leistung 1
Leitathlet 1
Leitplan@@ 1
Lendenschur@@ 1
Lenken 1
Leopard 1
Leopardenoberteil 1
Leopardenprint 1
Leotards 1
Lern@@ 1
Leuchte 1
Leuchtjacke 1
Leuchtschild 1
Leuchtstab 1
Leuchtstäbe 1
Leuchtstäben 1
Leuchtwesten 1
Levi 1
Lewis 1
Lexmark 1
Lichter@@ 1
Liebe 1
Liebespa@@ 1
Lieblingsm@@ 1
Lieblingstennis@@ 1
Lieder 1
Liedtext 1
Lieferungen 1
Lieferwagens 1
Liegen 1
Liegestuhl 1
Lifekonzert 1
Lifestyle 1
Ligaspieler 1
Ligh@@ 1
Ligisten 1
Lik@@ 1
Lilafarbenem 1
Limbo@@ 1
Limobecher 1
Limonade 1
Limonade- 1
Lincoln 1
Line 1
Linien@@ 1
Linken 1
Linksk@@ 1
Linsen 1
Lippe 1
Lippenpiercing 1
Lippenschutz 1
Lit@@ 1
Little 1
Livem@@ 1
Liverpool 1
Living 1
Lobbylauf 1
Lochs 1
Logger 1
Logos 1
Lokal@@ 1
Lollipop 1
Long@@ 1
Longboard 1
Longhorns 1
Looping 1
Loslassen 1
Lotsenboots 1
Lotter@@ 1
Lou 1
Louis 1
Lounge 1
Lousiana 1
Luft- 1
Luftballonfigur 1
Luftballonhut 1
Luftballoni@@ 1
Luftballontier 1
Luftmat@@ 1
Luftra@@ 1
Luftschlange 1
Lufttrick 1
Luke 1
Lum@@ 1
Lun@@ 1
Lunch 1
Lung@@ 1
Lustiges 1
Lyppens 1
Lämmer 1
Ländern 1
Löchern 1
Löschen 1
Lösung 1
Lötwerkzeug 1
Löwin 1
Lü@@ 1
Lücke 1
MAKE 1
ME@@ 1
MIR 1
MP3 1
MUSI@@ 1
MacBoo@@ 1
MacBook 1
Machine 1
Machu 1
Madagascar 1
Madison 1
Madrid 1
Mae 1
Magpie 1
Mai 1
Main 1
Maisfeld 1
Maispflü@@ 1
Majorette 1
Malbuch 1
Malbuchs 1
Malbücher 1
Malen 1
Malerin 1
Mall 1
Malspieler 1
Management 1
Manager@@ 1
Managerin 1
Manche 1
Mand 1
Manege 1
Mang 1
Mango 1
Manik@@ 1
Mannloch 1
Mannschafts@@ 1
Mannschaftskamer@@ 1
Mannschaftswett@@ 1
Mantels 1
Manöv@@ 1
Mappen 1
Marathonrennens 1
Marchmal@@ 1
Mardi 1
Margarit@@ 1
Marien@@ 1
Marine 1
Marineh@@ 1
Marionette 1
Maritime 1
Mark 1
Mark@@ 1
Market 1
Markise 1
Marktbesucher 1
Marktplatzes 1
Marktveranstaltung 1
Marktwaren 1
Marlboro 1
Marley 1
Marlins 1
Marmorarbeitsplatte 1
Marmorgang 1
Marmorskulptur 1
Marmorstatue 1
Marmorsäule 1
Marmorwand 1
Marquette 1
Marsch@@ 1
Marshmal@@ 1
Mart@@ 1
Martial 1
Martin@@ 1
Martins 1
Marug@@ 1
Marvel 1
Maskenbild@@ 1
Mass@@ 1
Masten 1
Materialien 1
Mathe 1
Matrose 1
Matrosen@@ 1
Maultieren 1
Maurer 1
Mautbrücke 1
Mayores 1
Mazda 1
Maßband 1
Maße 1
McCain 1
Medien 1
Mediengerät 1
Medienvertreter 1
Medikamen@@ 1
Medizin 1
Medizin@@ 1
Medizini@@ 1
Meeresaquari@@ 1
Meeresbucht 1
Meeresfrüchtestand 1
Meereshinter@@ 1
Meereslandschaft 1
Meeress@@ 1
Meeresschil@@ 1
Meeresstrand@@ 1
Meerestiere 1
Meeresw@@ 1
Meers 1
Mehr 1
Mehre 1
Mehrer 1
Mein@@ 1
Melanie 1
Mellon 1
Melone 1
Memorabil@@ 1
Memorial 1
Men 1
Menorah 1
Menschengruppen 1
Menschenmengen 1
Menschenreihen 1
Menschenschar 1
Menschentrau@@ 1
Menschliches 1
Mercury 1
Messbecher 1
Messen 1
Messern 1
Messezelt 1
Messi 1
Messingring 1
Messlatte 1
Metallarbeiten 1
Metallbearbeitung 1
Metallbecken 1
Metallbehälter 1
Metallbrücke 1
Metallbänken 1
Metalldete@@ 1
Metalleimer 1
Metallfelge 1
Metallgit@@ 1
Metallgitter 1
Metallgon@@ 1
Metallhühnern 1
Metallkan@@ 1
Metallkanister 1
Metallkasten 1
Metallkelle 1
Metallkette 1
Metallklapp@@ 1
Metallkon@@ 1
Metallkorb 1
Metallkäfige 1
Metallmöbeln 1
Metallob@@ 1
Metallohr@@ 1
Metallpfanne 1
Metallpfannen 1
Metallrohre 1
Metallschro@@ 1
Metallseil 1
Metallstab 1
Metallstan@@ 1
Metallstangen 1
Metallteilen 1
Metallton@@ 1
Metalltopf 1
Metalltribüne 1
Metallträger 1
Metallwagen 1
Metallwand 1
Metallzange 1
Metallzuber 1
Metho@@ 1
Mexico 1
Mexikaner 1
Mia 1
Micky 1
Mie@@ 1
Miete 1
Mignon 1
Mikrofon@@ 1
Mikrophone 1
Mikrophonständer 1
Mikroskops 1
Milch 1
Milchkisten 1
Milchkästen 1
Milchschaum 1
Milchshake 1
Milchstroh@@ 1
Militär 1
Militärarzt 1
Militärball 1
Militärbeam@@ 1
Militäreinheit 1
Militärfahrzeuge 1
Militärfarbe 1
Militärflug@@ 1
Militärhund 1
Militärische 1
Militärkenn@@ 1
Militärkostümen 1
Militärlastwagen 1
Militärparade 1
Militärsachen 1
Miller 1
Mimin 1
Mindestens 1
Mine 1
Miniaturen 1
Minigolfloch 1
Minikleidern 1
Minneapolis 1
Minny 1
Minstrel 1
Mistgabel 1
Mitarbeitern 1
Mitnehmen 1
Mitschüler 1
Mitspielern 1
Mittagsp@@ 1
Mittagsschlaf 1
Mittagszeit 1
Mitteilungen 1
Mittelfeld 1
Mittelfinger 1
Mittelpunk 1
Mittelständer 1
Mittleren 1
Mittte 1
Mixed 1
Mob 1
Mobile 1
Mobilgerät 1
Mobiltelef@@ 1
Mode 1
Model 1
Model@@ 1
Modellauto 1
Modelle 1
Modellschaufenster@@ 1
Modellvul@@ 1
Modern 1
Modifier 1
Mof@@ 1
Mofafans 1
Mohawk 1
Mohegan 1
Mom@@ 1
Monate 1
Mond 1
Mongolian 1
Monk 1
Mooring 1
Mop 1
Mopeds 1
Mopp@@ 1
Mopps 1
Mops 1
Mord 1
Mord@@ 1
Morgan 1
Morning 1
Morse 1
Moskiton@@ 1
Mosl@@ 1
Moti@@ 1
Motoarra@@ 1
Motocrossrad 1
Motocrossrennen 1
Motoradfahrer 1
Motorboots 1
Motorradbekleidung 1
Motorradkäfig 1
Motorradpolizist 1
Motorradunfall 1
Motorrollers 1
Motorschlau@@ 1
Motte 1
Mound 1
Mountainboarding 1
Move 1
Moves 1
Mr. 1
Mud 1
Muffin 1
Multimedia 1
Multipurpose 1
Mun@@ 1
Mundschutz 1
Muschel@@ 1
Musical@@ 1
Musikanten 1
Musikband 1
Musikbühne 1
Musikergruppe 1
Musikerinnen 1
Musikertrio 1
Musikgeschäft 1
Musikkonzert 1
Musikpavil@@ 1
Musikplayer 1
Musikset 1
Musikspiel 1
Musikstand 1
Musikveranstaltung 1
Musizieren 1
Muskete 1
Muslime 1
Muslimin 1
Mustangs 1
Mut 1
Mutual 1
Mystery 1
Mächen 1
Mädchenfahrrad 1
Mädchenfußballspiel 1
Mädchenkleid 1
Mädchenteam 1
Mäher 1
Mähne 1
Mähnen@@ 1
Mähtraktor 1
Männerband 1
Männerchor 1
Männeressen 1
Männermannschaft 1
Männerteams 1
Männlicher 1
Mäntel 1
Möbelfabrik 1
Möbeln 1
Mönch@@ 1
Mör@@ 1
Müde 1
Müdigkeit 1
Mülla@@ 1
Müllcontainers 1
Müllfahrzeugs 1
Müllhalde 1
Müllhauf@@ 1
Mülllaster 1
Müllmann 1
Müllmänner 1
Müllplatz 1
Müllsäcken 1
Mülltüten 1
Müllwagen 1
Münzkarussell 1
Münztelef@@ 1
Münzteleskop 1
Müttern 1
N.Y. 1
NASC@@ 1
NERF 1
NERV@@ 1
NEVER 1
NFL 1
NG 1
NOISE 1
NYPD 1
Nach 1
Nachdem 1
Nachdenken 1
Nachfüllstation 1
Nachmittags@@ 1
Nachschlagewerken 1
Nachtansicht 1
Nachthi@@ 1
Nachtisch 1
Nachtleben@@ 1
Nachts 1
Nachtschwär@@ 1
Nadelbäume 1
Nadeln 1
Nadelstreifenjacke 1
Nagelfeile 1
Nagelstudio 1
Nahkampf 1
Nahrungsmitt@@ 1
Nahverkehr@@ 1
Name 1
Namens@@ 1
Nancy 1
Nap@@ 1
Nass@@ 1
Nasse 1
Nathalie 1
Nationen 1
Native 1
Naturfreunde 1
Naturgebiet 1
Naturprodukte 1
Naturwanderweg 1
Navy@@ 1
Nebenstraße 1
Negro 1
Neonbeleuchtung 1
Neonjacken 1
Neonkleidung 1
Neonlicht 1
Neonreflektierende 1
Nescaf@@ 1
Nesquik 1
Netzes 1
Neugier 1
Neuroscience 1
Nevada 1
News 1
Nie@@ 1
Nik@@ 1
Nikon 1
Nin@@ 1
Nippes 1
Noble 1
Nor@@ 1
North 1
Not 1
Notausgan@@ 1
Notenheften 1
Notenpapier 1
Notenpult 1
Notenpulten 1
Notfall 1
Notizblock 1
Notizbücher 1
Notizheft 1
Nottingham 1
November 1
Nr. 1
Nuckel 1
Nut@@ 1
Nylon@@ 1
Nächt@@ 1
Näher 1
Näherin 1
Nüsse 1
Nüssen 1
Nüstern 1
O 1
OBLIGATOIRE 1
OK 1
OU 1
OUT 1
Obdach@@ 1
Oberarm 1
Oberdeck 1
Oberen 1
Oberfkörper 1
Oberlichtern 1
Oberschen@@ 1
Oberstu@@ 1
Objektglas 1
Obstladen 1
Obstmarkt 1
Obstschale 1
Obstverkäufer 1
Obstwagen 1
Ocean 1
Oceanside 1
Ochsen@@ 1
Odeon 1
Ofens 1
Offenbar 1
Offense 1
Offensi@@ 1
Offiziellen 1
Offizieller 1
Offizier 1
Oh 1
Ohrläppchen 1
Ohrpiercings 1
Ohrringe 1
Ohrs 1
Ohrtupfer 1
Oku@@ 1
Old 1
Olympia 1
Olympiade 1
Olympioniken 1
Op@@ 1
Opening 1
Operationsteam 1
Orangefarbener 1
Orangutan 1
Orcawale 1
Oregon 1
Oreos 1
Orgelspieler 1
Orient 1
Ornam@@ 1
Orphans 1
Orte 1
Oscar 1
Ostasiati@@ 1
Ourense 1
Out 1
Outback 1
Ovalen 1
Ozzy 1
PADDINGTON 1
PENSKE 1
PNC 1
PORT 1
Pacific 1
Packen 1
Packers 1
Paddel 1
Paddle 1
Paddler 1
Paddlern 1
Paddy 1
Paint 1
Paket@@ 1
Paketen 1
Palast@@ 1
Palmenzwei@@ 1
Panama 1
Panasonic 1
Panda 1
Panel 1
Panora@@ 1
Panthers 1
Pantomimen 1
Pants 1
Panzer 1
Panzers 1
Papa@@ 1
Papas 1
Paper 1
Papie 1
Papierabzeichen 1
Papierausschnitten 1
Papierbäumen 1
Papierbögen 1
Papieren 1
Papierhandtuch 1
Papierkorb 1
Papierkra@@ 1
Papierkro@@ 1
Papierlater@@ 1
Papierstapel 1
Papierstücke 1
Papiertasche 1
Papiertellern 1
Papiertüten 1
Pappbecher 1
Pappbehälter 1
Pappe 1
Pappmaché 1
Papptellern 1
Paprika 1
Papst 1
Paralympics 1
Paraolympion@@ 1
Parasegler 1
Paraskifahrer 1
Parfums 1
Parkbereich 1
Parkbesucher 1
Parkbänken 1
Parkgebiet 1
Parking 1
Parkschildern 1
Parktisch 1
Paro@@ 1
Parpklat@@ 1
Partnerlook 1
Partnern 1
Passagierin 1
Passagierzug 1
Passieren 1
Pastell@@ 1
Pastor 1
Pat 1
Patrick 1
Patricks 1
Patriot 1
Patriotis@@ 1
Patron 1
Patties 1
Pau@@ 1
Pech 1
Pee 1
Peek 1
Peeps 1
Pelikane 1
Pelosi 1
Pelzen 1
Pelzhut 1
Pelzkragen 1
Pelzmänteln 1
Pelzmütze 1
Pendelverkehr 1
Penske 1
People 1
Pep 1
Peperoni 1
Pepper 1
Perform@@ 1
Perla 1
Perlenkette 1
Permanentmarker 1
Peronen 1
Personengruppen 1
Personenteam 1
Persön@@ 1
Perücken@@ 1
Peter 1
Peterson 1
Petri@@ 1
Petronas 1
Peugeot 1
Pfa@@ 1
Pfadfindergruppe 1
Pfadfinderhandbuch 1
Pfadfinderjunge 1
Pfadfinderuniform 1
Pfadfinderuniformen 1
Pfauen@@ 1
Pfeifer 1
Pfeile 1
Pferdeanhänger 1
Pferdegespann 1
Pferdeh@@ 1
Pferdekopf 1
Pferdekostüm 1
Pferdekutsche 1
Pferdel@@ 1
Pferderennbahn 1
Pferdes@@ 1
Pferdeshow 1
Pferdesportler 1
Pfirsich 1
Pflanzkü@@ 1
Pflanzt@@ 1
Pflaster@@ 1
Pflegerinnen 1
Pflug 1
Pfostens 1
Pfotenmuster 1
Pfählen 1
Pfüt@@ 1
Phoenix 1
Phone 1
Physi@@ 1
Picchu 1
Pickeln 1
Pickels 1
Pickoffs 1
Pickups 1
Pil@@ 1
Pingu@@ 1
Pinkfarbenes 1
Pioneer 1
Pionier@@ 1
Pipe 1
Pipette 1
Piratenkostüm 1
Piratenkostümen 1
Piratenoutfits 1
Piratenschiff 1
Piratenschiffs 1
Pistolen 1
Pitcherbewegung 1
Pitchers 1
Pizzabäcker 1
Pizzaregal 1
Plakaten 1
Plakatkunstwerke 1
Plakatwerbung 1
Plakette 1
Plan 1
Planenzelt 1
Planierraupen 1
Planken 1
Plankenweg 1
Plantschen 1
Plastikball 1
Plastikbechern 1
Plastikblättern 1
Plastikboot 1
Plastikclown 1
Plastikgabel 1
Plastikhammer 1
Plastikhandschuhen 1
Plastikhockern 1
Plastiklatz 1
Plastiknase 1
Plastikschaukel 1
Plastikschlitten 1
Plastikschmuck 1
Plastiktasche 1
Plastiktiger 1
Plastiktisch 1
Platzwart 1
Play 1
Playboy 1
Player 1
Ple@@ 1
Plunder 1
Plüschhaie 1
Plüschmütze 1
Plüschsessel 1
Plüschspielzeugen 1
Podien 1
Poker 1
Poker@@ 1
Polaris 1
Pole 1
Police 1
Polizeiautos 1
Polizeibeamten 1
Polizeiboot 1
Polizeifahrzeuge 1
Polizeigewalt 1
Polizeihubschrauber 1
Polizeihund 1
Polizeikräfte 1
Polizeikräften 1
Polizeimotorrad 1
Polizeipräsidium 1
Polizeitransporter 1
Polizeiuniformen 1
Polizeiwagen 1
Poller 1
Polofeld 1
Polohemden 1
Poloshirts 1
Polostock 1
Polster 1
Pom@@ 1
Pontiac 1
Ponton 1
Poolstoß 1
Pooltisch 1
Poolwasser 1
Pop 1
Popcorn@@ 1
Popup 1
Portemonnaie 1
Portion 1
Portland 1
Porträtfoto 1
Postbote 1
Posten 1
Postern 1
Postmann 1
Postsendungen 1
Postwagen 1
Pot 1
Potato 1
PowerPo@@ 1
Powwow 1
Pra@@ 1
Prayer 1
Preis 1
Prince 1
Princess 1
Prit@@ 1
Prius 1
Privat@@ 1
Probieren 1
Problem@@ 1
Produktion@@ 1
Produktstand 1
Profibasketball@@ 1
Profiboxer 1
Profifuß@@ 1
Profihelmen 1
Profil 1
Profilansicht 1
Profirennen 1
Profirennstrecke 1
Profispiel 1
Profispieler 1
Profisportler 1
Profitennisspieler 1
Programme 1
Programmen 1
Projektion@@ 1
Projektors 1
Projekts 1
Propan@@ 1
Propell@@ 1
Propeller 1
Protestaktion 1
Protestant 1
Protestanten 1
Protestierende 1
Protestierender 1
Protestveranstaltung 1
Präparat 1
Prärie 1
Präzision 1
Prüfer 1
Pss@@ 1
Psyduck 1
Pudeln 1
Puder 1
Pueblo 1
Pullundern 1
Pulsw@@ 1
Pulvern 1
Pulverschne@@ 1
Pum@@ 1
Punkt@@ 1
Punsch 1
Puschel 1
Pusteblumen 1
Put@@ 1
Puten 1
Putz 1
Putz@@ 1
Pyjamas 1
Pä@@ 1
Pärchens 1
Pöller 1
Q 1
Quadbikes 1
Quasten 1
Quattro 1
Quelle 1
Queue 1
Quinn 1
Quiznos 1
R 1
ROCKS 1
RONA 1
RVS 1
Rab@@ 1
Race 1
Rachen 1
Raclette 1
Radargeräte 1
Radau 1
Radeo 1
Radfahr 1
Radfahrergruppe 1
Radfahrers 1
Radiof@@ 1
Radkleidung 1
Radkunststück 1
Radmannschaft 1
Radrennbahn 1
Rads 1
Radschlag 1
Radsport@@ 1
Radwanderung 1
Raftboot 1
Raften 1
Rafting@@ 1
Randsteinn 1
Range 1
Rangeln 1
Ranger 1
Ranzen 1
Raod@@ 1
Rapobank 1
Rasensportplatz 1
Rasenspren@@ 1
Rasierapparat 1
Rasieren 1
Rasierschaum 1
Rasiertechnik 1
Rass@@ 1
Rassen 1
Rastaman 1
Raster 1
Raster@@ 1
Rat 1
Ratte 1
Ratten 1
Raubvogel 1
Raumaus@@ 1
Raumes 1
Rautenmuster 1
Rav@@ 1
Rave 1
Rawlings 1
Razzi@@ 1
Realty 1
Rebe 1
Rebound 1
Recei@@ 1
Recht 1
Rechten 1
Recycling 1
Rednerin 1
Regal@@ 1
Regale 1
Regenbogens 1
Regency 1
Regenhut 1
Regenjacken 1
Regenschauer 1
Regenschutz@@ 1
Regenumhang 1
Regenwasser 1
Regenzeug 1
Regi@@ 1
Reglern 1
Rehe 1
Reifengummi 1
Reifenschaukeln 1
Reifenschlauch 1
Reifenstapel 1
Reih 1
Reinigen 1
Reiniger 1
Reise@@ 1
Reisele@@ 1
Reisende 1
Reisender 1
Reisetasche 1
Reissa@@ 1
Reitausrüstung 1
Reitbekleidung 1
Reiten 1
Reiterdress 1
Reiterin 1
Reitoutfit 1
Reklametafeln 1
Rekor@@ 1
Relig@@ 1
Reling 1
Rennhunden 1
Rennkat@@ 1
Rennpferd 1
Rennradfahrer 1
Rennradkleidung 1
Rennspiel 1
Rennspor@@ 1
Rennsport@@ 1
Rennstart 1
Rennteam 1
Rennwagen@@ 1
Rennwagens 1
Rennwägen 1
Rent@@ 1
Renti@@ 1
Reparaturfahrzeug 1
Reparieren 1
Reporterin 1
Respek@@ 1
Ressour@@ 1
Restaurantambi@@ 1
Restaurantprodukte 1
Restaurantrekla@@ 1
Retro 1
Rettung 1
Rettungsfahrzeug 1
Rettungskräfte 1
Rettungsring 1
Rettungssanit@@ 1
Return 1
Revers 1
Revol@@ 1
Revu@@ 1
Rhododendron 1
Rica 1
Richardson 1
Richter 1
Riemenschuhen 1
Riesenlineal 1
Riesenrad 1
Riesenradfahren 1
Riesenrutsche 1
Riesenwelle 1
Rik@@ 1
Rikschas 1
Rinde 1
Ringerinnen 1
Ringkämpfer 1
Ringkämpfers 1
Ringrichter 1
Ringwurfspiel 1
Rinne 1
Rinnstein 1
Rippchen 1
Risse 1
Rissen 1
Ritterkostüm 1
Ritual 1
Ritz 1
Robbins 1
Rock- 1
Rockabilly 1
Rockbar 1
Rockshow 1
Rockstar 1
Rockstars 1
Rockveteran 1
Rodeln 1
Rodeobullenreiter 1
Rodeoc@@ 1
Rodeohelfer 1
Rodeoshow 1
Rodeot@@ 1
Rodeozuschau@@ 1
Rohren 1
Roll 1
Rollbett 1
Rollenk@@ 1
Rollenstühlen 1
Rollerbladen 1
Rollerskaten 1
Rollerskater 1
Rollerskatern 1
Rollgepä@@ 1
Rollhockey 1
Rollhockeys 1
Rolling 1
Rollläden 1
Rollschuhderby 1
Rollschuhfahrer 1
Rollschuhwettrennen 1
Rollsteig 1
Ron 1
Rond@@ 1
Roo@@ 1
Roosevelt 1
Rosafarbenes 1
Rosat@@ 1
Rost 1
Rote 1
Roti@@ 1
Rotlicht@@ 1
Rottweiler 1
Rotwein 1
Rou@@ 1
Ruby 1
Rucksack@@ 1
Rucksacks 1
Ruderer 1
Rugbyball 1
Rugbyspielerin 1
Rugbyspielers 1
Rugbyteam 1
Ruh@@ 1
Ruhe 1
Ruine 1
Run 1
Runner 1
Running@@ 1
Rush 1
Russell 1
Russland 1
Ryan 1
Räu@@ 1
Räum@@ 1
Räumen 1
Röckchen 1
Röhrchen 1
Röhren 1
Röhrenrutsche 1
Rückansicht 1
Rückansichten 1
Rückenansicht 1
Rückweg 1
Rückwärtsrolle 1
Rückwärtssaltos 1
Rührschüssel 1
Rümpfe 1
S 1
SAG 1
SAMSU@@ 1
SAN 1
SLEEP 1
SOME 1
SVA 1
SWAT 1
SWATCH 1
SXSWO 1
Sackhüpfen@@ 1
Safari 1
Sahne 1
Sail 1
Saison 1
Saite 1
Saitenwürstchen 1
Salatbar 1
Sallie 1
Salyo 1
Samar@@ 1
Sammlung 1
Samsung 1
San 1
Sandbunker 1
Sandbur@@ 1
Sandfalle 1
Sandfang 1
Sandfläche 1
Sandgrube 1
Sandhügeln 1
Sandhügels 1
Sands 1
Sandschaufel 1
Sandskulpturen 1
Sandstruktur 1
Sandweg 1
Sanitärcontainer 1
Sanitätsartikeln 1
Santa 1
Santo 1
Sara 1
Sarg 1
Satin 1
Sattel@@ 1
Satteln 1
Sau@@ 1
Sauber@@ 1
Save 1
Saxofonist 1
Saxofonisten 1
Saxophonspieler 1
Schaber 1
Schablone 1
Schachspiel 1
Schachspielen 1
Schachtisch 1
Schack@@ 1
Schad@@ 1
Schaden 1
Schafbock 1
Schalen@@ 1
Schalt 1
Schalt@@ 1
Schaschlik@@ 1
Schatten@@ 1
Schaubild 1
Schaufensterpuppen 1
Schaufensterscheibe 1
Schaufensterscheiben 1
Schaufensterspiegel 1
Schaukampf 1
Schaukelspielzeug 1
Schaukeltier 1
Schaukler 1
Schauspielerinnen 1
Schauspielern 1
Scheck 1
Schee@@ 1
Scheide 1
Scheinkampf 1
Scheinwerfern 1
Schell@@ 1
Scherzfoto 1
Schiebermütze 1
Schiebespiel 1
Schiedsrichtern 1
Schieferweg 1
Schießbrille 1
Schießbude 1
Schießspiel 1
Schießübungen 1
Schiffe 1
Schiffermütze 1
Schiffsarbeiter 1
Schiffsdeck 1
Schiffskapitä@@ 1
Schildkröten 1
Schildträgerinnen 1
Schilf 1
Schimmel 1
Schindel@@ 1
Schipper 1
Schiri 1
Schirmmütze 1
Schlaf 1
Schlafen 1
Schlafende 1
Schlafposition 1
Schlafzimmern 1
Schlagballspiel 1
Schlaginstrument 1
Schlagloch 1
Schlagman 1
Schlagring 1
Schlags 1
Schlagzeugen 1
Schlagzeugers 1
Schlammhügel 1
Schlauchboote 1
Schlauchleitung 1
Schleier 1
Schleif@@ 1
Schleifarbeit@@ 1
Schlenker 1
Schleppta@@ 1
Schlossers 1
Schlussverkauf 1
Schlägen 1
Schlägers 1
Schläuche 1
Schmel@@ 1
Schmer@@ 1
Schmetterlingen 1
Schmetterlings@@ 1
Schmettern 1
Schmie@@ 1
Schminkpin@@ 1
Schminktisch 1
Schmollmund 1
Schmortopf 1
Schnapsglas 1
Schnarrtrommel 1
Schnauzbart 1
Schnauzen 1
Schnecke 1
Schneeburg 1
Schneefahrrad 1
Schneefall 1
Schneefeld 1
Schneegest@@ 1
Schneehang 1
Schneehose 1
Schneehosen 1
Schneehöhle 1
Schneekegel 1
Schneekleidung 1
Schneekuppe 1
Schneemanns 1
Schneemänner 1
Schneeschi@@ 1
Schneeschuh@@ 1
Schneeschuhe 1
Schneest@@ 1
Schneetunnel 1
Schneeverwehung 1
Schneewall 1
Schneewanderung 1
Schneewe@@ 1
Schneewittchen 1
Schneewolke 1
Schnitt 1
Schnorchelausrüstung 1
Schnorchler 1
Schnurrbärtiger 1
Schnurspielzeug 1
Schnute 1
Schnäpse 1
Schnüre 1
Schnürsen@@ 1
Schokoladenfabrik 1
Schokoladenpudding 1
Schokoladenschichtkuchen 1
Schoner 1
Schonern 1
Schorn@@ 1
Schoss 1
Schotterfeld 1
Schotterpiste 1
Schotterstroße 1
Schottische 1
Schranke 1
Schrankschloss 1
Schraubstock 1
Schreibarbeit 1
Schreiber 1
Schreibmaschine 1
Schreibmaschinen 1
Schreien 1
Schreiende 1
Schrein 1
Schrein@@ 1
Schriftzüge 1
Schriftzügen 1
Schrit@@ 1
Schritte 1
Schrott 1
Schrubber 1
Schrä@@ 1
Schublade 1
Schubladen 1
Schuhauslagen 1
Schuheink@@ 1
Schuhkarton 1
Schuhpokal 1
Schuhput@@ 1
Schuhs 1
Schuhsohlen 1
Schulausflug 1
Schulbasar 1
Schulgebäudes 1
Schulhof 1
Schuljahr 1
Schuljunge 1
Schulkind 1
Schulkleidung 1
Schultages 1
Schultasche 1
Schultisch 1
Schulturn@@ 1
Schulungsmi@@ 1
Schuluniformen 1
Schutz 1
Schutzanzügen 1
Schutzausstattung 1
Schutzgeländer 1
Schutzgitter 1
Schutzhaufen 1
Schutzkabine 1
Schutzmasken 1
Schutzpolstern 1
Schwal@@ 1
Schwan@@ 1
Schwarzweiß@@ 1
Schweden 1
Schweinen 1
Schweißanzug 1
Schweißarbeit 1
Schweißbrenner 1
Schweißhelm 1
Schweißmaschine 1
Schwere 1
Schwerk@@ 1
Schwerter 1
Schwimmbahnen 1
Schwimmbecken@@ 1
Schwimmbrettern 1
Schwimmerinnen 1
Schwimmers 1
Schwimmhil@@ 1
Schwimmkappe 1
Schwimmlehr@@ 1
Schwimmmer@@ 1
Schwimmnu@@ 1
Schwimmringen 1
Schwimmshirt 1
Schwimmsteg 1
Schwimmtrain@@ 1
Schwimmtreffen 1
Schwimmturnier 1
Schwimmunterricht 1
Schwimmzeug 1
Schwimmzugs 1
Schwin@@ 1
Schwinn 1
Schwitzhütte 1
Schwulen@@ 1
Schwä@@ 1
Schwän@@ 1
Schädelkno@@ 1
Schädeln 1
Schäden 1
Schäfchen@@ 1
Schäferhunden 1
Schöne 1
Schülers 1
Schüsse 1
Schütze 1
Scooter 1
Scouts 1
Screaming 1
SeaWorld 1
Sedan 1
See@@ 1
Seele@@ 1
Seep@@ 1
Seerob@@ 1
Seet@@ 1
Seeufer 1
Segelbooten 1
Segelflie@@ 1
Segelflieger 1
Segelrennen 1
Segelschiff 1
Segelschiffs 1
Segelwettbewerb 1
Seh@@ 1
Seiden@@ 1
Seifenblasaen 1
Seifenkiste 1
Seifenschaum 1
Seiko 1
Seilbrücke 1
Seilgarten 1
Seilhüpfen 1
Seilkonstruktion 1
Seilpark 1
Seilrolle 1
Seilvorrichtung 1
Seilzug 1
Seitenlinien 1
Seitenspiegel 1
Seitenstreifen 1
Seitenwagen 1
Sekre@@ 1
Sekt 1
Sekt@@ 1
Sekunden 1
Selena 1
Sell@@ 1
Senior 1
Senioren@@ 1
Serena 1
Servi@@ 1
Session 1
Sessions 1
Seuss 1
Shakespeare 1
Shell 1
Sheltie 1
Shine 1
Shipping 1
Shish 1
ShoeGasm 1
Shoppingtag 1
Short@@ 1
Shr@@ 1
Shrimps 1
Shrit 1
Siberian 1
Sicherheit 1
Sicherheitsbe@@ 1
Sicherheitsbändern 1
Sicherheitsgeländer 1
Sicherheitsgeschirr 1
Sicherheitsgur@@ 1
Sicherheitshel@@ 1
Sicherheitsjacken 1
Sicherheitsmontur 1
Sicherheitspers@@ 1
Sicherheitsschutz 1
Sicherheitszaun 1
Sicherungsfahrzeug 1
Sicherungss@@ 1
Siebvorrichtung 1
Siedler 1
Sieges@@ 1
Sieht 1
Silk 1
Silo 1
Sinfonie 1
Singer 1
Sinn 1
Sir@@ 1
Sitzbereich 1
Sitzecke 1
Sitzes 1
Sitzfläche 1
Sitzgelegen@@ 1
Sitzgruppen 1
Sitzgurt 1
Sitzmögli@@ 1
Sitzplät@@ 1
Sitzpublikum 1
Sitzt 1
Sixpack 1
Skalen@@ 1
Skatebaord@@ 1
Skateboarden 1
Skateboarders 1
Skateboardhelm 1
Skateboarding 1
Skateboardober@@ 1
Skateboardtechnik 1
Skateboardtricks 1
Skaterboy 1
Skaterinnen 1
Skel@@ 1
Ski- 1
Skiausflug 1
Skibekleidung 1
Skifahren 1
Skifahrern 1
Skihose 1
Skihütte 1
Skiing 1
Skikurses 1
Skilangläufer 1
Skilehrer 1
Skilifts 1
Skim@@ 1
Skirennfahrer 1
Skispringer 1
Skisprung@@ 1
Skistiefel 1
Skistock 1
Skivorrichtung 1
Skizz@@ 1
Sky 1
Skydiver 1
Skysurfen 1
Skysurfing 1
Slalom 1
Slalom@@ 1
Sli@@ 1
Slin@@ 1
Slowly 1
Slum 1
Slumbewohner 1
Small@@ 1
Smart 1
Smartphones 1
Smoked 1
Smoothies 1
Snooker 1
Snoopy 1
Snow 1
Snowboarden 1
Snowboardfahren 1
Snowboardfahrens 1
Snowboarding 1
Snowboardtrick 1
So 1
Soaker 1
Sodaflasche 1
Softballfeld 1
Softballhandschuh 1
Softballwurf 1
Softdrinks 1
Sohle 1
Solaranlagen 1
Soldatin 1
Soleil 1
Solomusi@@ 1
Sombreros 1
Sommerabend 1
Sommerlich 1
Sommeroberteil 1
Sommersprossen 1
Sommerveranstaltung 1
Sommerwetter 1
Sonderangebot 1
Sonnenanbe@@ 1
Sonnenblumen 1
Sonnenfinster@@ 1
Sonnenhüter 1
Sonnenmaske 1
Sonnensegel 1
Sonnenstra@@ 1
Sonnenstudio 1
Sonnenunterganges 1
Sonoma 1
Sooner 1
Sorv@@ 1
Sound@@ 1
Sourdough 1
South@@ 1
Sox 1
Soy 1
Spa 1
Spaghett@@ 1
Spaghetti 1
Spalt 1
Spani@@ 1
Spanier 1
Spannung 1
Spareribs 1
Spargel 1
Sparkassen@@ 1
Sparringturnier 1
Sparrow 1
Spartans 1
Spazieren 1
Spazierfahrt 1
Spaziergänger 1
Spaßrutsche 1
Speck 1
Speditionshof 1
Speer@@ 1
Speise 1
Speisebereich 1
Speisekarten 1
Speisende 1
Speisenden 1
Speisesaal 1
Spenden 1
Sphin@@ 1
Spider 1
Spiegelbilder 1
Spiegeln 1
Spiegelobjekt 1
Spiegelträger 1
Spiegelung 1
Spiegelwand 1
Spielautos 1
Spielbereich 1
Spieledemo 1
Spieleisen@@ 1
Spielende 1
Spielerbank 1
Spielestand 1
Spielfel@@ 1
Spielfelds 1
Spielflugzeug 1
Spielgerüst 1
Spielgeschehen 1
Spielhaltung 1
Spielhäuschen 1
Spielka@@ 1
Spielmaschine 1
Spielmobile 1
Spielpark 1
Spielplatzeinrichtung 1
Spielplatzes 1
Spielplatzgeräten 1
Spielplatzgeräts 1
Spielplatzschiff 1
Spielplatztunnel 1
Spielsalon 1
Spielschloss 1
Spielstart 1
Spielsteu@@ 1
Spielteppich 1
Spieltisch 1
Spielunterlage 1
Spielwarengeschäft 1
Spielzeugbanane 1
Spielzeugbau@@ 1
Spielzeugbooten 1
Spielzeugdinosau@@ 1
Spielzeugente 1
Spielzeuggeschäft 1
Spielzeuggiraffe 1
Spielzeugkatze 1
Spielzeugkipper 1
Spielzeugküche 1
Spielzeuglastern 1
Spielzeugpistolen 1
Spielzeugschaufel 1
Spielzeugseil 1
Spielzeugtier 1
Spielzeugvogel 1
Spielzeugwagen 1
Spielzeugwelpen 1
Spielzimmer 1
Spieß 1
Spinnen 1
Spinnrädern 1
Spir@@ 1
Spirituosen@@ 1
Spitzen 1
Spitzhack@@ 1
Spitzhut 1
Sportanzug 1
Sportart 1
Sportausrüstung 1
Sportbar 1
Sportbikini 1
Sportbogen@@ 1
Sportclub 1
Sportgetränk 1
Sporthandschuh 1
Sporthemd 1
Sportkin@@ 1
Sportkurs 1
Sportler@@ 1
Sportlern 1
Sportmannschaft 1
Sportmannschaften 1
Sportmotiv 1
Sportmotorrad 1
Sportoutfit 1
Sportposter 1
Sportpullover 1
Sportrad 1
Sportruder@@ 1
Sports 1
Sportsachen 1
Sportschuhe 1
Sportschuhen 1
Sportstadion 1
Sportstreifen 1
Sporttasche 1
Sporttau@@ 1
Sportteams 1
Sportteil 1
Sporttrikot 1
Sportunterhose 1
Sportwägen 1
Sportzentrum 1
Sprenger 1
Spring 1
Springbrett 1
Springburg 1
Springer 1
Springsteen 1
Sprinkler 1
Sprinkler@@ 1
Spriteflasche 1
Spritzbeutel 1
Spritzern 1
Spritzkissens 1
Sprungkunststück 1
Sprungschanze 1
Sprungtrick 1
Sprungturm 1
Sprungwettbewerb 1
Sprühdose 1
Sprühfarben 1
Sprühkünstlerin 1
Sprühwasser 1
Sprün@@ 1
Spyder 1
Spärlich 1
Späti@@ 1
Squash 1
Sra@@ 1
St 1
Staatsan@@ 1
Stabhochspringer 1
Stabhochspringerin 1
Stabhochsprung@@ 1
Stabilisi@@ 1
Stabs 1
Stachel 1
Stacheln 1
Stadionsitzen 1
Stadium 1
Stadtbahn 1
Stadtbewohner 1
Stadtgasse 1
Stadtgegend 1
Stadtkreuzung 1
Stadtkulisse 1
Stadtkurs 1
Stadtmitte 1
Stadtrund@@ 1
Stadtstraßen 1
Stadtstreich@@ 1
Stadtszenerie 1
Stadtverkehr 1
Stadtzentrum 1
Staffel 1
Staffelstab 1
Staffordshire 1
Stahlbehälter 1
Stahlfässer 1
Stahlgerüst 1
Stahlgitterabsperrung 1
Stahlhelm 1
Stahlstab 1
Stahlstange 1
Stahlträgern 1
Stahlwerbung 1
Stall 1
Stall@@ 1
Stammesangehöriger 1
Stammesgruppe 1
Stan@@ 1
Standball 1
Standbohr@@ 1
Standes 1
Standmikro@@ 1
Stands 1
Standstreifen 1
Stanford 1
Stap@@ 1
Staples 1
Stars 1
Startblock 1
Startblöcken 1
Startboxen 1
Startklappen 1
Startnummer 1
Startnummern 1
Startposition 1
Startpunkt 1
Stati@@ 1
Stau 1
Staubsaugen 1
Staße 1
Steak 1
Steakhouse 1
Steck 1
Stehender 1
Steigenlassen 1
Steinausstellung 1
Steinbaus 1
Steinbild@@ 1
Steinblöcken 1
Steinbogen 1
Steinbrunnen 1
Steinbrüstung 1
Steinbögen 1
Steinfiguren 1
Steinflie@@ 1
Steinfläche 1
Steingebilde 1
Steingehweg 1
Steinhäuser 1
Steinhäusern 1
Steinlö@@ 1
Steinmole 1
Steinofen 1
Steinplatten 1
Steinsims 1
Steinskulptur 1
Steinsockel 1
Steinteich 1
Steinterrasse 1
Steintreppen 1
Steinweges 1
Steinwür@@ 1
Steinzufahrt 1
Stellen 1
Stellung 1
Steph 1
Sterne 1
Steuerung 1
Stevie 1
Stewart 1
Stichwor@@ 1
Stiel@@ 1
Stieren 1
Still 1
Still@@ 1
Stimmband 1
Sting 1
Stinkti@@ 1
Stirnfran@@ 1
Stirnseite 1
Stitch 1
Stof@@ 1
Stoffquad@@ 1
Stoffschwein 1
Stofftasche 1
Stofftaschen 1
Stofftier@@ 1
Stonehurst 1
Stopp 1
Store 1
Strafverfol@@ 1
Strahl 1
Strandbad 1
Strandbereich 1
Strandhauses 1
Strandkorb 1
Strandparty 1
Strandschirm 1
Strandszenerie 1
Strandtag 1
Strandtasche 1
Strandufer 1
Strandwache 1
Strapse 1
Straßenampel 1
Straßenange@@ 1
Straßenanzug 1
Straßenaufführung 1
Straßenbahnen 1
Straßenbahnen@@ 1
Straßenbank 1
Straßenbau@@ 1
Straßenfestival 1
Straßenhandwerker 1
Straßenhändlerinnen 1
Straßenkundgebung 1
Straßenkunst 1
Straßenkü@@ 1
Straßenkünst@@ 1
Straßenlampen 1
Straßenläufer 1
Straßenplatten 1
Straßenreinig@@ 1
Straßenrennens 1
Straßenreparaturen 1
Straßenrestaurant 1
Straßenrädern 1
Straßenschildern 1
Straßenseiten 1
Straßenshow 1
Straßenumzug 1
Straßenverkauf@@ 1
Straßenverkaufsstand 1
Straßenverkehr 1
Straßenwerbung 1
Straßenzeichen 1
Streich 1
Streichholz@@ 1
Streichhölzern 1
Streichinstrument 1
Streichinstrumenten 1
Streichquart@@ 1
Streien 1
Streife 1
Streifenhörnchen 1
Streuseln 1
Strichen 1
Strichzeichnung 1
Strickleiter 1
Strikeout 1
String 1
Stripe 1
Stripes 1
Strohdach 1
Strohfläche 1
Strohhalmen 1
Strohhüte 1
Strohhüten 1
Strohhütte 1
Stromkrei@@ 1
Stromkreisen 1
Stromschnelle 1
Strumpfhalter 1
Struwwel@@ 1
Strö@@ 1
Strü@@ 1
Stuckgebäudes 1
Studentin 1
Studentinnen 1
Studierende 1
Studio@@ 1
Stuhle 1
Stuhls 1
Stulpen 1
Stump 1
Stumpf 1
Stylisten 1
Stylus 1
Stäben 1
Städter 1
Städtischer 1
Stämmen 1
Ständern 1
Stütz@@ 1
Stütze 1
Stützen 1
Subaru 1
Subjekts 1
Subs 1
Sucher 1
Sugarland 1
Sumor@@ 1
Sun 1
Super 1
Supermann 1
Supermarkt@@ 1
Suppent@@ 1
Surfboarder 1
Surfbretter 1
Surfens 1
Surferhemd 1
Surferin 1
Surfern 1
Surfoberteil 1
Swan 1
Symbole 1
Symmetri@@ 1
Synchronschwimmen 1
Synchronschwimmern 1
Synchrontanz 1
Synthesizer 1
System 1
Säften 1
Sängern 1
Säuglingen 1
Säuglings@@ 1
TEAM 1
THEFACESHOP 1
TV 1
Tab 1
Tabelle 1
Tack@@ 1
Tae 1
Taek@@ 1
Tafel@@ 1
Tages@@ 1
Tagesmesse 1
Tai@@ 1
Taillen@@ 1
Talgegend 1
Tambor 1
Tambur@@ 1
Tanga 1
Tangot@@ 1
Tankla@@ 1
Tannehill 1
Tannenzapfen 1
Tanzaufführung 1
Tanzbewegung 1
Tanzbewegungen 1
Tanzchoreo@@ 1
Tanzdarbietung 1
Tanzfigur 1
Tanzgruppe 1
Tanzhaltung 1
Tanznummer 1
Tanzoutfits 1
Tanzpaar 1
Tanzpositi@@ 1
Tanzposition 1
Tanzprogramm 1
Tanzschritt 1
Tanzschritte 1
Tap@@ 1
Target 1
Tartuffe 1
Taschenlampen 1
Taster 1
Tauchen 1
Taucheranzüge 1
Taucherausrüstung 1
Tauchgerät 1
Tauschbörse 1
Tausende 1
Taxi@@ 1
Taxik@@ 1
Tea 1
Teaching 1
Teamchef 1
Teamgei@@ 1
Teamkamer@@ 1
Teamkollegin 1
Teammit@@ 1
Teamsportart 1
Teamtrikot 1
Tebow 1
Tech 1
Teekanne 1
Teeladen 1
Teenagers 1
Teer 1
Teerunde 1
Tehelka 1
Teiches 1
Teigrolle 1
Teilnehmergruppe 1
Teilnehmern 1
Telefone 1
Telefonieren 1
Telefonkabine 1
Telefonmast 1
Telefonzellem 1
Teleobjektiv 1
Teleskop@@ 1
Teleskops 1
Tellers 1
Tempels 1
Tempo 1
Ten 1
Tennisanlage 1
Tennisausstattung 1
Tennisbälle 1
Tenniscourt 1
Tenniskleid 1
Tennismatch 1
Tennisnetzes 1
Tennisplatzes 1
Tennisrock 1
Tennisschlag 1
Tennisschuhe 1
Tennisspielerinnen 1
Tennistraining 1
Teppich@@ 1
Terassen@@ 1
Terrible 1
Terrier@@ 1
Teu@@ 1
Teva 1
Textil@@ 1
Textnachrichten 1
Thai@@ 1
Thailand 1
Theaterschild 1
Theaterstil 1
Theaterstudenten 1
Theaterstücks 1
Theatre 1
Theken 1
Themen 1
Themenpark 1
Thor@@ 1
Thorn 1
Thriller 1
Ti 1
Ticket 1
Tickets 1
Tief@@ 1
Tierbaby 1
Tierballons 1
Tieren 1
Tieres 1
Tierfalle 1
Tierhandlung 1
Tierhäute 1
Tierkostüm 1
Tiermoti@@ 1
Tiermustern 1
Tierpfleger 1
Tigger 1
Tiki 1
Tinker@@ 1
Tintenfass 1
Tischdecken 1
Tischkante 1
Tischmitte 1
Tischs 1
Tischsets 1
Tischsäge 1
Tischtennisspieler 1
Tischtuch 1
Tissues 1
Tit@@ 1
To 1
Toast@@ 1
Toaster 1
Tocher 1
Toe 1
Toiletten@@ 1
Tommy 1
Tonausrüstung 1
Tongefä@@ 1
Tonkrügen 1
Tonne 1
Tonnen 1
Tonschale 1
Tonteller 1
Tontopf 1
Tonware 1
Tonziegeln 1
Tools 1
Topfhandschuh 1
Topfpflanze 1
Tops 1
Torbereich 1
Tore 1
Toren 1
Torhüters 1
Tori@@ 1
Tormann 1
Tornetzes 1
Tornister 1
Toronto 1
Torrahmens 1
Tors 1
Torstange 1
Totempfahl 1
Touch 1
Touch@@ 1
Touchdown 1
Touristinnen 1
Tournament 1
Toy 1
Toys 1
Trachten@@ 1
Trader 1
Tragbalken 1
Trainers 1
Trainingseinrichtung 1
Trainingsfort@@ 1
Trainingsgerät 1
Trainingsgeräten 1
Trainingsjacke 1
Trampen 1
Transform@@ 1
Transparen@@ 1
Transportautos 1
Transporthil@@ 1
Transvest@@ 1
Trapeznummer 1
Trauriges 1
Treffens 1
Trei@@ 1
Treiben 1
Trendige 1
Trenn@@ 1
Treppenaufgang 1
Treppeneingang 1
Treppenrampe 1
Tretboot 1
Tretroller 1
Treue 1
Trialrad 1
Tribal 1
Tribaltattoo 1
Trichters 1
Trinkbecher 1
Trinkbechern 1
Trinkeldglas 1
Trinkflasche 1
Trinkgläser 1
Trinkpause 1
Trio 1
Triomphe 1
Trockentuch 1
Trogs 1
Troll@@ 1
Trommlern 1
Trompeten 1
Tropen@@ 1
Trucks 1
Truppenführer 1
Truthahnbraten 1
Trägershirts 1
Trägertop 1
Trägt 1
Tränen 1
Trü@@ 1
Tub@@ 1
Tunnel@@ 1
Tup@@ 1
Turban@@ 1
Turf 1
Turms 1
Turmuhr 1
Turnanzug 1
Turnanzüge 1
Turnanzügen 1
Turnen 1
Turnerinnen 1
Turners 1
Turngeräten 1
Turnhallenboden 1
Turnhosen 1
Turnstange 1
Turnwettbewerb 1
Tä@@ 1
Tänzerpaar 1
Täter 1
Tö@@ 1
Töpf@@ 1
Türbereich 1
Türkei 1
Türschwelle 1
U.S. 1
UGG 1
UTEP 1
UW 1
Uferbereich 1
Uferkai 1
Uferlinie 1
Uferpromenade 1
Uferrand 1
Ufers@@ 1
Uferstraße 1
Uferwegs 1
Uferzone 1
Uhren 1
Ukel@@ 1
Umarm@@ 1
Umfried@@ 1
Umgang 1
Umgest@@ 1
Umhängetaschen 1
Umhängetuch 1
Umkleide@@ 1
Umkleideraum 1
Umriss 1
Umrisse 1
Umschalten 1
Umstehende 1
Umsteigestation 1
Umwelt@@ 1
Umzäun@@ 1
Unfallfahrzeug 1
Unglau@@ 1
Unifor@@ 1
Universität@@ 1
Unordnung 1
Unscharfe 1
Unschuld 1
Unsinn 1
Unteführung 1
Unterarme 1
Unterhalten 1
Unterhemdchen 1
Unterhemden 1
Unterhose 1
Unterkleidung 1
Unterlage 1
Unternehmen 1
Unterschiede 1
Unterschlu@@ 1
Unterstand 1
Unterstüt@@ 1
Unterwasser 1
Unterwasser@@ 1
Untiefe 1
Urdu 1
Ureinwohnern 1
Urne 1
Urwald 1
Uten@@ 1
VHS 1
Vamp@@ 1
Variante 1
Vat@@ 1
Vater@@ 1
Ven@@ 1
Verabre@@ 1
Verband 1
Verbeug@@ 1
Verbind@@ 1
Verbrechens 1
Vergrößerungs@@ 1
Verizon 1
Verkaufsgrill 1
Verkaufsstands 1
Verkaufsständen 1
Verkaufswagen 1
Verkaufszelt 1
Verkehrs 1
Verkehrsampeln 1
Verkehrshelfer 1
Verkehrsmitteln 1
Verkehrsp@@ 1
Verkehrsunfalls 1
Verkehrszug 1
Verkehrt 1
Verlieb@@ 1
Verlierer 1
Verpack@@ 1
Verpfle@@ 1
Verschiedenes 1
Verschlag 1
Verschwo@@ 1
Version 1
Versorgungsbetrie@@ 1
Verteidigers 1
Verteilen 1
Vertief@@ 1
Verwahr@@ 1
Verwenden 1
Verwund@@ 1
Vespa 1
Vesperbrot 1
Veter@@ 1
Victoria 1
Vide@@ 1
Videoausrüstung 1
Videomacher 1
Videop@@ 1
Videospielen 1
Viel 1
Viel@@ 1
Vieren 1
Vierergruppen 1
Vierrad 1
Vierradfahrzeug 1
Vietnamese 1
Vikings 1
Vinci 1
Violettem 1
Violinsoli@@ 1
Vira 1
Virou 1
Vis@@ 1
Vogelhäuschen 1
Vogelkäfig 1
Vogelstatue 1
Voice 1
Vokab@@ 1
Volksho@@ 1
Volley 1
Volleyballmannschaft 1
Volleyballnetz 1
Volleyballs 1
Volleyballspielerinnen 1
Volleyballspielers 1
Volleyballteam 1
Volunte@@ 1
Volvo 1
Vons 1
Vorbeil@@ 1
Vorbereitungen 1
Vorderbeinen 1
Vordere 1
Vordermanns 1
Vorderradstand 1
Vorgebir@@ 1
Vorgehen@@ 1
Vorherr@@ 1
Vorhängen 1
Vorlauf 1
Vorlesungssaal 1
Vormittag 1
Vorrichtungen 1
Vorschul@@ 1
Vorschulkinder 1
Vorsingen 1
Vorspei@@ 1
Vorspeisen 1
Vorspiel 1
Vorstadt 1
Vorstadtstraße 1
Vorsteh@@ 1
Vorstä@@ 1
Vorweg 1
Vorwärt@@ 1
Vorwärts 1
Vote 1
Vuitton 1
Vul@@ 1
Vätern 1
WALK 1
WAR 1
WARU@@ 1
WELCOME 1
Waagen 1
Wabe 1
Wachsmal@@ 1
Waffeln 1
Wakeboarded 1
Wakeboarder 1
Wakeboards 1
Wal 1
Waldboden 1
Waldland 1
Waldlichtung 1
Waldpfad 1
Waldrand 1
Walds 1
Waldspaziergang 1
Waldstück 1
Walgreens 1
Walmarts 1
Walt 1
Walter 1
Walzers 1
Wandbehang 1
Wandergruppe 1
Wanderhemd 1
Wanderkarte 1
Wanderpfad 1
Wanderschuhe 1
Wanderschuhen 1
Wanderstiefeln 1
Wanderstock 1
Wandmalereien 1
Wandschmuck 1
Wannen 1
Wans 1
Wappen 1
Warenautomaten 1
Warenhaus 1
Warm 1
Warmhalte@@ 1
Warnschild 1
Warnzeichen 1
Wartehalle 1
Warteschlange 1
Wartungs- 1
Wartungspersonals 1
Wartungste@@ 1
Was 1
Wasch 1
Waschanlage 1
Waschautomaten 1
Waschbrett@@ 1
Waschmittel 1
Waschpulver 1
Waschraum 1
Waschsei@@ 1
Wash 1
Wasserabenteu@@ 1
Wasserbad 1
Wasserballons 1
Wasserballschwimmer 1
Wasserballspiel 1
Wasserbeckens 1
Wasserbehälter 1
Wasserbü@@ 1
Wassereis 1
Wasserfahrrad 1
Wasserfall@@ 1
Wasserflut@@ 1
Wasserfällen 1
Wassergefährt 1
Wassergraben 1
Wasserhahn 1
Wasserkanister 1
Wasserkrug 1
Wasserkrügen 1
Wasserkü@@ 1
Wasserloch 1
Wassermaschine 1
Wassermotorrad 1
Wassernu@@ 1
Wasserorganis@@ 1
Wasserrutschen 1
Wasserschüssel 1
Wasserskiboot 1
Wassersprenkler 1
Wasserspritzen 1
Wasserstra@@ 1
Wasserstrom 1
Wassertropfen 1
Wasserturm 1
Wasservogel 1
Wasservolleyball 1
Wasserwegs 1
Watcher 1
Wathose 1
Wave@@ 1
Webereien 1
Wedding 1
Wee 1
Week 1
Weezer 1
Wege 1
Wegs 1
Wegweiser 1
Weiden 1
Weiher 1
Weihnachtsbau@@ 1
Weihnachtsbäumen 1
Weihnachtsessen 1
Weihnachtsfeier 1
Weihnachtsfrau 1
Weihnachtsgeschenken 1
Weihnachtsmannkostümen 1
Weihnachtsmannpuppe 1
Weihnachtsmannschlitten 1
Weihnachtspapier 1
Weihnachtsstrumpf 1
Weihrauch 1
Weinbar 1
Weinberg 1
Weine 1
Weinen 1
Weinflaschen 1
Weinge@@ 1
Weinland 1
Weintrinken 1
Weisungen 1
Weit 1
Weißen 1
Weißhaariger 1
Weißkopfadler 1
Weißschat@@ 1
Weißwandreifen 1
Weißwein 1
Welle- 1
Weltrekor@@ 1
Wend@@ 1
Wendung 1
Wendy 1
Wenige 1
Werbekleidung 1
Werbeplakat 1
Werbeschild 1
Werbespot 1
Werbezettel 1
Werbungs@@ 1
Werfen 1
Werfer@@ 1
Werft 1
Werk 1
Werke 1
Werkunterricht 1
Werkzeugmaschine 1
Wesen 1
Wet@@ 1
Wettkämpfer 1
Wettläufer 1
Wettläufern 1
Wettrennens 1
Wettschießen 1
Wettstreiter 1
Whack 1
Whatever 1
Wheels 1
Where 1
Whirl@@ 1
White@@ 1
Who 1
Whole 1
WiFi 1
Wie 1
Wie@@ 1
Wien 1
Wiggles 1
Wildhund 1
Wildpferd 1
Wildtier 1
Williams 1
Willkommen 1
Windbreaker 1
Windeln 1
Winderkleidung 1
Windhunden 1
Windrädern 1
Windschutz@@ 1
Windsurfen 1
Wine 1
Winkel 1
Winkelsicht 1
Winterausrüstung 1
Wintergarderobe 1
Wintergarten 1
Winterjahres@@ 1
Winterkopf@@ 1
Winterlandschaft 1
Wintermor@@ 1
Wintermütze 1
Wintermützen 1
Winterolymp@@ 1
Wintersport@@ 1
Winterwetter 1
Wippen 1
Wischlappen 1
Wisconsin 1
Wissenschaftlerin 1
Wissenschaftsmu@@ 1
Wissenschaftsstunde 1
Wit@@ 1
Wohnblock 1
Wohnhau@@ 1
Wohnhaus 1
Wohnhäuser 1
Wohnmobil@@ 1
Wohnungen 1
Wohnungsfenster 1
Wohnungsk@@ 1
Wohnwagen@@ 1
Wolf 1
Wolkenkrat@@ 1
Wolle 1
Wollknäuel 1
Wollmützen 1
Wollröcken 1
Woman 1
Wood 1
Worauf 1
Work 1
Work@@ 1
World 1
Wra@@ 1
Wun@@ 1
Wunderschöne 1
Wurfobjekt 1
Wurzelgemü@@ 1
Währenddessen 1
Währung 1
Wäschebehälter 1
Wäschekolle@@ 1
Wäschesack 1
Wäschet@@ 1
Wäschl@@ 1
Wörterbuch 1
Wüstenfeldern 1
Wüstenkleidung 1
Wüstenlandschaft 1
Wüstenrennmaus 1
Wüstensand 1
Wüstenstraße 1
Xylophonen 1
Yach@@ 1
Yak 1
Yards 1
Yo 1
Yoga@@ 1
Yongsan 1
Yor@@ 1
Yorkie 1
Yos 1
Youngster 1
Your 1
Zahlen@@ 1
Zahnlücken 1
Zahnproble@@ 1
Zahnrad 1
Zahnräder 1
Zahnuntersuchung 1
Zahnärzt@@ 1
Zales 1
Zap@@ 1
Zau@@ 1
Zaubererumhang 1
Zauberstäben 1
Zauberteppich 1
Zebraballon 1
Zebramuster 1
Zebrastreifen@@ 1
Zeche 1
Zehen 1
Zehen@@ 1
Zeichnen 1
Zeige@@ 1
Zeitlupen@@ 1
Zeitpunkt 1
Zeitraffer@@ 1
Zeitschri@@ 1
Zeitungsbehälter 1
Zeitungsgeschäft 1
Zeitungsjungen 1
Zeitungsstand 1
Zeitungsständer 1
Zeitungsverkäufer 1
Zellen 1
Zeltbereich 1
Zeltdach 1
Zeltes 1
Zeltlagers 1
Zeltplatzes 1
Zelts 1
Zeltstadt 1
Zem@@ 1
Zementgebäude 1
Zementmauer 1
Zementplattform 1
Zementtreppe 1
Zementweg 1
Zenturi@@ 1
Zerealien 1
Zerkleinerer 1
Zettel 1
Zeu@@ 1
Zeugnissen 1
Zewi 1
Ziegelboden 1
Ziegelfassade 1
Ziegelgebäudes 1
Ziegelpflaster 1
Ziegelpflaster@@ 1
Ziegelstein@@ 1
Ziegelsteine 1
Ziele 1
Zielscheiben 1
Zier@@ 1
Ziffer 1
Ziffern 1
Zigarren 1
Zimmers 1
Zir@@ 1
Zitronensaft 1
Zone 1
Zoom 1
Zor@@ 1
Zubereiten 1
Zucker 1
Zuckererbsen 1
Zuckerrohr 1
Zuckerrohr@@ 1
Zuckerstange 1
Zuflu@@ 1
Zugangs@@ 1
Zugfahrten 1
Zugfenster 1
Zugkarren 1
Zugseil 1
Zugvorrichtung 1
Zuhause 1
Zuhilfen@@ 1
Zuhörer 1
Zung@@ 1
Zungen 1
Zusammenhang 1
Zusammenprall 1
Zusammenstellung 1
Zusammenstoß 1
Zuschauergruppe 1
Zuschauermengen 1
Zuschauern@@ 1
Zuschauerrängen 1
Zuschauers 1
Zuschauertribüne 1
Zuschauerzahl 1
Zustimmung 1
Zuwendung 1
Zwan@@ 1
Zwei- 1
Zweigbündel 1
Zweijäh@@ 1
Zweiradfahrer 1
Zylinderhut 1
Zärt@@ 1
Züge 1
_ 1
aarige 1
aarr@@ 1
abblockt 1
abfliegende 1
abgebrochenen 1
abgedeckten 1
abgedunkeltem 1
abgegrenzt 1
abgehoben 1
abgeklebt 1
abgekämpfter 1
abgelegenen 1
abgenommen 1
abgepacktes 1
abgepfi@@ 1
abgerissenen 1
abgeroll@@ 1
abgeschirm@@ 1
abgeschirmten 1
abgeschlagenen 1
abgeschlossen 1
abgeschlossenen 1
abgeschossen 1
abgesehen 1
abgesperrt 1
abgesprüht 1
abgestellte 1
abgestellten 1
abgestimm@@ 1
abgestür@@ 1
abgesägten 1
abgetragenen 1
abgewandte 1
abgewinkelt 1
abgewischt 1
abgezäunten 1
abhalten 1
abkühlen 1
abmon@@ 1
abmü@@ 1
abnimmt 1
abschlägt 1
abschneidet 1
absichert 1
absicht@@ 1
absor@@ 1
absperrungen 1
abspringt 1
abspritzen 1
abstehenden 1
absticht 1
abstra@@ 1
abstürzt 1
abwarten 1
abwaschen 1
abwechsel@@ 1
abzeichnen 1
abzublocken 1
abzugeben 1
abzuhalten 1
abzuheben 1
abzuhören 1
abzujagen 1
abzuklatschen 1
abzum@@ 1
abzuschirmen 1
abzuschleppen 1
abzuschließen 1
abzuseilen 1
abzäh@@ 1
achen 1
achtsam 1
actionreichen 1
ad 1
adop@@ 1
adrett 1
adrette 1
aerodyna@@ 1
afarbenen 1
ag 1
age@@ 1
agist 1
aglich 1
agläsern 1
ahme 1
ailgeschäft 1
ails 1
aine 1
akostüm 1
akrobatischen 1
akrobatisches 1
akt 1
akug@@ 1
al 1
albernes 1
ale 1
aler 1
ales 1
alge@@ 1
alien 1
alität 1
alltä@@ 1
alltäglichen 1
allzu 1
also 1
altem 1
altere 1
altete 1
alteten 1
alteter 1
altmodisches 1
amaran 1
amen 1
amerikanischem 1
amerikanisches 1
ampe 1
amter 1
amütze 1
anbeißt 1
anbellen 1
anbieten 1
anbindet 1
anblickt 1
anbringt 1
ance 1
anders 1
andos 1
anen@@ 1
anerin 1
anfangen 1
anfeuern 1
anfeuert 1
anfängt 1
angeberisch 1
angeblich 1
angebotene 1
angebotenem 1
angebrachten 1
angeführt 1
angegangen 1
angegeben 1
angeguckt 1
angehaltenen 1
angehoben 1
angeht 1
angekün@@ 1
angele@@ 1
angelegten 1
angeleinte 1
angeleinten 1
angeleintes 1
angeleitet 1
angemalte 1
angemaltes 1
angeord@@ 1
angeordnet 1
angepasst 1
anger@@ 1
angesagten 1
angeschienen 1
angeschlo@@ 1
angeschoben 1
angesehen 1
angesichts 1
angestellter 1
angestrichenen 1
angetrie@@ 1
angewinkel@@ 1
angewinkelt 1
angezündet 1
angrei@@ 1
angreift 1
angrenzt 1
angstvoll 1
angwald 1
anhalten 1
anhänger 1
anischer 1
anknurrt 1
anlage 1
anliegenden 1
anliegender 1
anmalt 1
annes 1
anni@@ 1
anordnet 1
anschiebt 1
anschließt 1
anschneidet 1
ansetzen 1
anson@@ 1
anstalt 1
anstaunen 1
ansteigenden 1
anstreichen 1
anstößigen 1
ansässigen 1
anten 1
antike 1
antiqu@@ 1
antreten 1
antwor@@ 1
anwe@@ 1
anz 1
anzeigt 1
anzieht 1
anzubagg@@ 1
anzubinden 1
anzubringen 1
anzufangen 1
anzuhören 1
anzulocken 1
anzurichten 1
anzustarren 1
anzünden 1
applaudieren 1
applaudierende 1
apportiert 1
aquamarin@@ 1
ar 1
arabische 1
arabischem 1
arbeiterin 1
archäolo@@ 1
argent@@ 1
arke 1
arktischen 1
arktstand 1
arm 1
armband 1
armer 1
arom@@ 1
arrangieren 1
ars 1
art 1
artig 1
artige 1
artigem 1
artiger 1
asch@@ 1
asiatischem 1
asse 1
assen 1
astufen 1
ate 1
athletischer 1
atienten 1
ationale 1
ationalem 1
ationsfeld 1
atischer 1
atisier@@ 1
atomic 1
atoren 1
atorstatue 1
ats 1
att 1
atte 1
attel 1
atten 1
attraktion 1
attraktiven 1
attraktives 1
atür 1
au 1
auen 1
auf- 1
aufbauen 1
aufbereich 1
aufbewa@@ 1
aufblasbares 1
aufbäum@@ 1
aufen 1
auffü@@ 1
aufführung 1
aufgebau@@ 1
aufgebauten 1
aufgeblasen 1
aufgebrachten 1
aufgedruck@@ 1
aufgedruckt 1
aufgefahren 1
aufgefordert 1
aufgefächer@@ 1
aufgeführt 1
aufgehalten 1
aufgehängte 1
aufgehängten 1
aufgehängter 1
aufgeklapptem 1
aufgelegt 1
aufgemalten 1
aufgen@@ 1
aufgenom@@ 1
aufgeregten 1
aufgeregter 1
aufgereihte 1
aufgereihten 1
aufgereitetes 1
aufgerollten 1
aufgesammelt 1
aufgeschi@@ 1
aufgeschlagenem 1
aufgeschnitten 1
aufgesetzt 1
aufgestap@@ 1
aufgestellte 1
aufget@@ 1
aufgewirbelt 1
aufgewü@@ 1
aufgezeichnet 1
aufgezogen 1
aufgrund 1
aufgänger 1
aufhebt 1
aufhängen 1
auflegt 1
aufleuchten 1
aufmar@@ 1
aufmerksamen 1
aufnahme 1
aufpassen 1
aufpasst 1
aufragenden 1
aufragender 1
aufregenden 1
aufsat@@ 1
aufschaut 1
aufschneiden 1
aufschreibt 1
aufsetzen 1
aufstellen 1
auftit@@ 1
auftragen 1
auftritts 1
auftun 1
auftut 1
auftür@@ 1
aufwen@@ 1
aufwirbelnden 1
aufwän@@ 1
aufwärmen 1
aufwärmt 1
aufzeichnet 1
aufzubrechen 1
aufzufangen 1
aufzufüllen 1
aufzuschichten 1
aufzustellen 1
aufzut@@ 1
augen@@ 1
auktion 1
aul 1
ausbessert 1
ausbläst 1
ausdünn@@ 1
ause 1
ausfahrt@@ 1
ausfüllt 1
ausgebreitete 1
ausgedehnten 1
ausgefahrener 1
ausgefei@@ 1
ausgeführt 1
ausgehen 1
ausgehö@@ 1
ausgeklapptem 1
ausgelegten 1
ausgenommen 1
ausgerichtet 1
ausgerü@@ 1
ausgeschnitt@@ 1
ausgestal@@ 1
ausgestattet 1
ausgestellte 1
ausgestellten 1
ausgestelltes 1
ausgestie@@ 1
ausgetreckten 1
ausgewählt 1
ausgewählte 1
ausgezeich@@ 1
ausgräbt 1
ausladen@@ 1
auslei@@ 1
ausliegt 1
ausländisches 1
auspre@@ 1
ausrichten 1
ausruh@@ 1
ausruht 1
ausrutscht 1
ausschalten 1
ausschlag@@ 1
aussehe 1
aussehend 1
ausstaff@@ 1
aussteigt 1
ausstellung 1
australi@@ 1
austrei@@ 1
auswählen 1
auszuholen 1
auszum@@ 1
auszurichten 1
auszusehen 1
auszuspannen 1
auszusteigen 1
auszusuchen 1
auszut@@ 1
auszuta@@ 1
automati@@ 1
avrovulcan.com 1
b 1
back 1
backs 1
backt 1
bagg@@ 1
bahnanlage 1
balancierender 1
baldige 1
balgt 1
ballführenden 1
ballkleidung 1
ballspieler 1
ballt 1
bandagi@@ 1
bank 1
barbusiges 1
bare 1
baren 1
bares 1
barfüßigen 1
bartem 1
base 1
basier@@ 1
baspieler 1
basses 1
batterie@@ 1
bau 1
bauch 1
bauchfreien 1
baum 1
baumbestand@@ 1
baumelt 1
bauschigen 1
bauschiger 1
bchen 1
beantragen 1
beantwor@@ 1
beaufsichtigen 1
bebau@@ 1
bebaut 1
bechern 1
becken 1
beda@@ 1
bedan@@ 1
bedecken 1
bedeckung 1
bedro@@ 1
bedrucktes 1
bedrückt 1
beeilen 1
beend@@ 1
beess@@ 1
befestigtes 1
befeuert 1
befinde 1
befindenden 1
befingert 1
befragen 1
befrem@@ 1
befährt 1
befü@@ 1
begafft 1
bege@@ 1
begeben 1
begeräten 1
begibt 1
begierig 1
begießt 1
beginnenden 1
begleidet 1
begonnen 1
begraben 1
begrenzen 1
begrün@@ 1
begrüßen 1
begutachteten 1
behalten 1
behandeln 1
behandelten 1
behandschuhte 1
behangen 1
behauptet 1
behaut 1
behelfsm@@ 1
beherber@@ 1
behilflich 1
behinderten 1
behinderter 1
behutsam 1
behälter 1
behörde 1
beider 1
beidhän@@ 1
beigefarbene 1
beiger 1
beil 1
beinschonern 1
bejubeln 1
bejubelt 1
bekannten 1
bekannter 1
beklatscht 1
bekleidung 1
bekunden 1
beladene 1
belassenen 1
belaubten 1
belegt 1
belegte 1
belei@@ 1
beleuchten 1
bell 1
bellende 1
beln 1
belust@@ 1
bema@@ 1
bemalen 1
bemalter 1
bemaltes 1
bemer@@ 1
benach@@ 1
benchor 1
bend 1
benem 1
bener 1
benimmt 1
benotet 1
bensprung 1
benutz@@ 1
beochtet 1
bepackt 1
bepackten 1
bepflanzt 1
bequemen 1
bequemer 1
ber 1
bereichs 1
bereitgestellt 1
bereitsteht 1
bergaufwärts 1
bergiges 1
berichtet 1
beritt@@ 1
bern 1
beruhigen 1
beruhigendes 1
besagen 1
besatz@@ 1
beschatteten 1
bescheidenen 1
beschert 1
beschi@@ 1
beschla@@ 1
beschle@@ 1
beschließt 1
beschlägt 1
beschmieren 1
beschmiet 1
beschn@@ 1
beschossen 1
beschreiben 1
beschri@@ 1
beschriebenen 1
beschriften 1
beschädig@@ 1
beschäftigen 1
besessen 1
besetzt 1
besetzten 1
besitzende 1
besonderem 1
besonderes 1
besor@@ 1
besorgt 1
bespa@@ 1
bespren@@ 1
besprühen 1
bess@@ 1
besser 1
besser@@ 1
bessern 1
bestand@@ 1
bestaunt 1
bestehendes 1
besteigt 1
besti@@ 1
bestimmt 1
bestreiten 1
bestreut 1
bestü@@ 1
bet 1
betend 1
beti@@ 1
betrachet 1
betriebs 1
betriebsame 1
betrunkener 1
betteln 1
beunruhigen 1
beutel 1
bevölkerter 1
bewachsen 1
bewachsen@@ 1
bewacht 1
bewaldetes 1
bewegenden 1
bewegten 1
beweist 1
bewerb 1
bewerben 1
bewerfen 1
bewirbt 1
bewohn@@ 1
bewuchs 1
bewältigen 1
bezieh@@ 1
bezügen 1
beängstigt 1
beäu@@ 1
bf@@ 1
bhund 1
biegen 1
biert 1
bigen 1
bing 1
bitten 1
bittend 1
bitter 1
black 1
blase 1
blasse 1
blasser 1
blau- 1
blaufen 1
blaugraue 1
blaugrün 1
blaugrünes 1
bleicher 1
blen 1
blich 1
blichen 1
blicke 1
blicket 1
blinde 1
blinzelnde 1
blinzelt 1
block 1
blondhaarigen 1
blumigen 1
blätter 1
blöcke 1
blöd@@ 1
blümchen 1
blüten 1
blüten@@ 1
boardern 1
boardspieler 1
bock 1
body 1
bogen- 1
bogenförmigen 1
bon 1
boo 1
book 1
boot 1
boots 1
bordeauxroten 1
botschaft 1
box 1
boxer 1
boy 1
boys 1
bracht 1
braungeb@@ 1
braunhäut@@ 1
braunweiße 1
braust 1
braut 1
break 1
brenner 1
brettern 1
bri 1
bring 1
britischem 1
brocken 1
bronzefarbener 1
brot 1
bräunlich 1
bräunliche 1
bräunlichem 1
bräunliches 1
brü@@ 1
brünettem 1
bspie@@ 1
bstei@@ 1
bter 1
btes 1
buddelt 1
buddhistische 1
bude 1
buffet 1
bundenem 1
bung 1
burger 1
burgunderroter 1
buschigem 1
buschigen 1
buschiger 1
bällen 1
bänder 1
bändigen 1
bäudes 1
bäume 1
börse 1
bösem 1
bösen 1
bücken 1
bündeln 1
bürsten 1
café 1
cake 1
cam 1
campt 1
can 1
car 1
cats 1
celloarti@@ 1
cen 1
change 1
chaoti@@ 1
chaotischen 1
chboot 1
chbox 1
checkt 1
chelte 1
chemische 1
chendarsteller 1
chenden 1
chender 1
chenfleisch 1
chenschle@@ 1
chenverkäufer 1
cherin 1
cherstäbchen 1
chester 1
chhauses 1
children 1
chinesichen 1
chinesicher 1
chinesisch 1
chinesisches 1
chirur@@ 1
chkeiten 1
chlich 1
chlichem 1
chmaschine 1
chmä@@ 1
chniker 1
choreograph@@ 1
chschule 1
chse 1
chtbetriebs 1
chter 1
chterung 1
chtet 1
chteten 1
chtetes 1
chtigen 1
chtiger 1
chtreifen@@ 1
chts 1
chtsker@@ 1
chtung 1
ck 1
cke 1
ckeln 1
ckenden 1
ckenmuster 1
ckens 1
cker 1
ckern 1
ckerrestaurant 1
ckey 1
ckeyspieler 1
ckfeld 1
ckhemd 1
ckige 1
ckigen 1
cksförmig 1
ckt 1
ckter 1
cktes 1
ckvoller 1
clear 1
clown@@ 1
club 1
cola 1
come 1
concepts 1
coole 1
coolest 1
country 1
craftzine 1
cremefarbener 1
cremefarbenes 1
cremefarbigen 1
cte 1
custody 1
dach 1
dad 1
dad@@ 1
dafri@@ 1
dagegen@@ 1
daher 1
dahin 1
damerik@@ 1
damp@@ 1
dancing 1
danzug 1
darbietung 1
dasein 1
dasitzen 1
dasitzt 1
dastehen 1
dat 1
datinnen 1
davon@@ 1
davor@@ 1
day 1
dazuzu@@ 1
ddelt 1
ddern 1
dead 1
deaths 1
debati@@ 1
deckung 1
deem 1
defe@@ 1
defensive 1
deinen 1
dekolleté 1
dekorative 1
dekoratives 1
dekorieren 1
dekorierte 1
deln 1
delnde 1
delt 1
deme 1
demjen@@ 1
demonstrieren 1
demontierten 1
denden 1
dene 1
denes 1
denhund 1
denke 1
denkmal 1
denn 1
dent 1
deofen 1
deraufführung 1
derband 1
derjenige 1
derung 1
derwagen 1
derweil 1
derzeit 1
design 1
designen 1
designt 1
dessel@@ 1
deswe@@ 1
det 1
detail@@ 1
detem 1
deutlichen 1
dhunde 1
diab@@ 1
diatri@@ 1
dicht@@ 1
dichte 1
dick@@ 1
dickes 1
diejenige 1
dieselben 1
digitale 1
digkeit 1
digkeiten 1
digt 1
dirigieren 1
disch 1
discher 1
dist 1
disziplin@@ 1
diverse 1
dkrö@@ 1
do 1
doch 1
dock 1
dose 1
dostasi@@ 1
dowar@@ 1
down 1
draht 1
drahtzaun 1
dramati@@ 1
dran 1
drand 1
drapieren 1
drapiert 1
drauf@@ 1
dreckiges 1
drehte 1
drei@@ 1
dreier 1
dreirä@@ 1
dribbeln 1
drigen 1
drin 1
dringend 1
dritt 1
drohend 1
drolli@@ 1
druckt 1
drum@@ 1
drän@@ 1
drü@@ 1
drücken 1
ds 1
dsel@@ 1
dstrecke 1
dsurfing 1
dten 1
ducken 1
duellieren 1
dung 1
dunkelblau 1
dunkelblaue 1
dunkelblauem 1
dunkelblauer 1
dunkelbraune 1
dunkelbraunem 1
dunkelgrauen 1
dunkelgrünes 1
dunkelköpfige 1
dunkelrot 1
dunkelroten 1
durchblättert 1
durchbricht 1
durchdrehen 1
durcheinander 1
durchforstet 1
durchgeht 1
durchgesä@@ 1
durchkre@@ 1
durchlesen 1
durchlässig@@ 1
durchnä@@ 1
durchschneiden 1
durchschneidet 1
durchsehen 1
durchsichtiges 1
durchstreifen 1
durchstreift 1
durchsägen 1
durcht@@ 1
durchtrain@@ 1
durchzut@@ 1
dutz@@ 1
dör@@ 1
dün@@ 1
dünnem 1
dünneren 1
dür@@ 1
düst 1
düster 1
düsteren 1
eReader 1
eXXXotica 1
each 1
eam 1
eben 1
ebon@@ 1
echter 1
ecke 1
eckige 1
eden 1
edenem 1
edin 1
edra@@ 1
eft@@ 1
egal 1
egg 1
egirl 1
egt 1
ehender 1
ehmem 1
ehmen 1
ehnis 1
ehr 1
ehren 1
ehrfurcht@@ 1
ehäu@@ 1
ei 1
eidechsen@@ 1
eiden 1
eien 1
eienr 1
eier 1
eiförmiges 1
eigent@@ 1
eignis 1
eil 1
eilig 1
eilnehmer 1
eils 1
einbe@@ 1
einbeiniger 1
eindeckt 1
eindrin@@ 1
einene 1
einfall@@ 1
einfarbigen 1
einfarbiger 1
einfreie 1
eingebettet 1
eingedeckt 1
eingedä@@ 1
eingefangen 1
eingefas@@ 1
eingeflochten 1
eingefroren 1
eingefroren@@ 1
eingehend 1
eingehü@@ 1
eingekauft 1
eingekleidet 1
eingeklem@@ 1
eingel@@ 1
eingelassen 1
eingenommen 1
eingepackten 1
einger@@ 1
eingeri@@ 1
eingerichteten 1
eingestürzten 1
eingezäun@@ 1
einheimische 1
einheimischen 1
einheimisches 1
einheiten 1
einhän@@ 1
einhängt 1
eink@@ 1
einladen@@ 1
einlaufenden 1
einlässt 1
einläuft 1
einmal 1
einmal@@ 1
einnehmen 1
einnen 1
einnimmt 1
einsam 1
einsammelt 1
einspu@@ 1
einsteckt 1
einsteigt 1
eintei@@ 1
eintre@@ 1
einzelnes 1
einzigartig 1
einzigartiges 1
einzige 1
einzubeziehen 1
einzuholen 1
einzumischen 1
einzusetzen 1
einzut@@ 1
einän@@ 1
eiprojekt 1
eisige 1
eisk@@ 1
eist 1
eit 1
eite 1
ekle@@ 1
ekostüm 1
ela@@ 1
elalbum 1
elegan@@ 1
elegant 1
elekt@@ 1
elektrisches 1
elen 1
elf 1
elhu@@ 1
elkä@@ 1
ell 1
elladen 1
elle 1
ellen 1
elmann 1
elnd 1
els 1
eltaschen 1
elter 1
eltisch 1
eltreppe 1
elverkaufsstand 1
elwel@@ 1
elzimmer 1
emd 1
emente 1
emoti@@ 1
emsig 1
enblock 1
enbrand 1
endach 1
endes 1
endgü@@ 1
endlich 1
energisch 1
engagiert 1
enge@@ 1
engeschäft 1
engli@@ 1
engruppe 1
enhemd 1
enier 1
enkamm 1
enkostüm 1
enkreuzung 1
enkränze 1
enla@@ 1
ennetz 1
ennägel 1
enough 1
enpaste 1
enpiercing 1
enreiten 1
enrennens 1
entan 1
entasche 1
entdecken 1
entele@@ 1
entem 1
enten 1
entgegenbringt 1
entgegengesetzten 1
entgegengesetzter 1
entgegenkommendem 1
entgegenlaufen 1
entgegensetzte 1
entgegensieht 1
enthalten 1
enthaltes 1
enthügel 1
enthülst 1
entieren 1
entiert 1
entkommen 1
entkopp@@ 1
entlangblickt 1
entlangg@@ 1
entlanggefahren 1
entlanggeschoben 1
entlangrollt 1
entlangrudern 1
entlangschwebt 1
entlangzulaufen 1
entlant 1
entlastet 1
entlauf@@ 1
entlegenen 1
entnehmen 1
entreißen 1
entrollen 1
entschlo@@ 1
entspannter 1
entstehen 1
enttäu@@ 1
entwenden 1
entwickelt 1
entzi@@ 1
entzückt 1
entzündet 1
entücher 1
enung 1
envertreter 1
enzu@@ 1
enähnlichen 1
eratur 1
erb@@ 1
erbehälter 1
erbsen 1
erdbeer@@ 1
erdige 1
erei 1
erei@@ 1
erende 1
ererin 1
erfahrt 1
erflugzeug 1
erfor@@ 1
erfreut 1
erfunden 1
erfüllen 1
ergerät 1
erha@@ 1
erheben 1
erhiel@@ 1
erhit@@ 1
erhobener 1
erholen 1
erie 1
ering 1
erinnert 1
erischen 1
erken@@ 1
erkitteln 1
erkröte 1
erkundigt 1
erlau@@ 1
erlebt 1
erlernen 1
erlernt 1
erleuchtende 1
erleuchtetes 1
erlicher 1
erlu@@ 1
ermotiv 1
ermögli@@ 1
ermöglichen 1
erne 1
ernsten 1
erntet 1
erntusche 1
erober@@ 1
erotisch 1
erringen 1
erschaffen 1
erschafft 1
erschießen 1
erschöpf@@ 1
erseite 1
ersitz 1
erskel@@ 1
erskulptur 1
erspäht 1
erst 1
erstattet 1
erstaunt 1
erstellen 1
ersuche 1
erte 1
erteilt 1
ertes 1
erungs@@ 1
erwart@@ 1
erwarten 1
erwi@@ 1
erzeugen 1
erziel@@ 1
erzielt 1
erzählen 1
erör@@ 1
essbare 1
essende 1
essender 1
estu@@ 1
et 1
etag 1
etappe 1
eteam 1
etem 1
etern 1
etest 1
etet 1
ethnische 1
ethnisches 1
etliche 1
ette 1
etts 1
etz 1
etze 1
etzt 1
evtl@@ 1
ewi@@ 1
examinierte 1
exotischen 1
explodiert 1
extravagant 1
extrem 1
fachkraft 1
fachkräfte 1
fad 1
faffe 1
fahnen 1
fahrender 1
fahrrad@@ 1
fahrtbus 1
fahrzeuge 1
fahrzeugs 1
fall 1
fallendes 1
fallenen 1
fallenlassen 1
falschem 1
falschen 1
falten 1
famili@@ 1
fantasti@@ 1
farbefro@@ 1
farbenem 1
farbener 1
farbenfre@@ 1
farbenfrohem 1
farbenfrohes 1
farbig 1
farbiges 1
farena 1
farm 1
fassade 1
faszinierend 1
faszinierten 1
feder 1
fehlenden 1
fehlerfrei 1
feierliche 1
feiern@@ 1
feine 1
feinem 1
feinen 1
feiner 1
feines 1
fel 1
felder 1
felds 1
fell@@ 1
feln 1
felsigem 1
felskostüm 1
fenfahrt 1
fens 1
fenster@@ 1
ferd 1
fernsehen 1
fernsieht 1
fernöstlichen 1
fertiges 1
fertigstellt 1
fertigzubauen 1
fes 1
festgebundenen 1
festgefahren@@ 1
festhalten 1
festival 1
festliche 1
festlichem 1
festlicher 1
festungs@@ 1
festzunehmen 1
fetzen 1
feuchtem 1
feuchter 1
feuer@@ 1
ff 1
ffel 1
ffenden 1
ffern 1
ffrisur 1
fftopf 1
figen 1
figes 1
figur 1
finster@@ 1
fisch 1
fische 1
five 1
fix@@ 1
flach 1
flaggen 1
flasche 1
flechten 1
fleckigen 1
fleißiger 1
flexi@@ 1
flexible 1
flichen 1
flieger 1
fliehen 1
fliest 1
flippigen 1
flippt 1
flit@@ 1
flocken 1
flok 1
floral 1
flose 1
flott 1
flugbereit 1
fluores@@ 1
fluss 1
folge 1
folgendes 1
fon 1
food 1
fordert 1
formal 1
formale 1
formaler 1
formation 1
formell 1
formen 1
formieren 1
fortgeht 1
fortzusetzen 1
frag@@ 1
fragt 1
franzö@@ 1
freche 1
freigele@@ 1
freilie@@ 1
freiwil@@ 1
freiwillig 1
freizü@@ 1
fremdartiger 1
fremde 1
fremdes 1
fremdlän@@ 1
fressen 1
freundlichen 1
freundlicher 1
freundschaftliche 1
fried@@ 1
frierende 1
friert 1
frischer 1
frischgebackenen 1
frisur 1
frohe 1
frä@@ 1
früchten 1
früh 1
früher 1
frühere 1
frühling@@ 1
fskulptur 1
fsmittel 1
ften@@ 1
fter 1
fters 1
ftet 1
ftung 1
fuchsi@@ 1
funksprecher 1
furcht@@ 1
furchter@@ 1
fussel@@ 1
futter 1
fußballspiel 1
fußballähnliches 1
fußboden 1
fventi@@ 1
fzangen 1
fächer 1
fällen 1
fälscht 1
fängern 1
fär@@ 1
förmig 1
fühle 1
fühlen 1
führte 1
gabe 1
gafft 1
galop@@ 1
gangenen 1
ganges 1
gangs 1
gar 1
garn 1
garten 1
gbaren 1
gealter@@ 1
gearbeitet 1
gebacken 1
gebackenen 1
gebad@@ 1
gebautes 1
gebend 1
gebeugtem 1
gebiet 1
gebissen 1
geblasen 1
geblasen@@ 1
geblei@@ 1
geblendet 1
geblumten 1
geblüm@@ 1
geblümte 1
gebogene 1
gebogenen 1
gebogenes 1
gebohrt 1
gebra@@ 1
gebrau@@ 1
gebrochen@@ 1
gebrochenen 1
gebrä@@ 1
gebundenen 1
gebäu@@ 1
gebäude 1
gebäudes 1
gebückte 1
gebückten 1
gebürtige 1
gedeck@@ 1
gedehnten 1
gedenk@@ 1
gedenken 1
gedre@@ 1
geduckt 1
geduscht 1
geehrt 1
geeign@@ 1
gefahr@@ 1
gefall@@ 1
gefaltete 1
gefault 1
gefeder@@ 1
gefegt 1
gefeiert 1
gefertig@@ 1
gefletschten 1
geflochtenem 1
geflogen 1
geformt 1
gefrorenes 1
gefunden 1
gefährlich 1
gefährlichen 1
gefälschten 1
gefärbt 1
gefärbtes 1
gefü@@ 1
geführt 1
gegart 1
gegenüberliegende 1
gegenüberstehenden 1
gegraben 1
gegri@@ 1
gegrillt 1
gehaltener 1
gehaltenes 1
gehangen 1
gehef@@ 1
geheft@@ 1
gehene 1
gehobenen 1
gehängt 1
gehäufte 1
gehüllten 1
geka@@ 1
geklebt 1
geko@@ 1
gekommen 1
gekon@@ 1
gekre@@ 1
gekro@@ 1
gekämpft 1
gelager@@ 1
geland@@ 1
gelaufen 1
gelbbraune 1
gelbbraunes 1
gelbgrünen 1
gelbro@@ 1
gelbweißen 1
gelegen@@ 1
gelehrt 1
geleit@@ 1
gelenkige 1
gelenkt 1
gelenkten 1
gelernt 1
geliebten 1
geloben 1
gelotst 1
gelten 1
gelter 1
gelöst 1
gem 1
gemachte 1
gemaschine 1
gematerial 1
gemischten 1
gemustertes 1
gemähten 1
gemäldes 1
gemütlichen 1
genaue 1
genbett 1
genden 1
gender 1
gene 1
genorganis@@ 1
genossen 1
genstapel 1
gentanz 1
gepackt 1
gepaddelt 1
geparkter 1
gepflasterter 1
gepflegt 1
gepflegter 1
gepier@@ 1
geprüften 1
gepunk@@ 1
gepunktete 1
gepunkteter 1
gepunktetes 1
geputzt 1
gequetscht 1
geraden 1
gerader 1
gerannt 1
geraten 1
gerbetre@@ 1
gere@@ 1
gereckten 1
gereg@@ 1
gerei@@ 1
gereinigt 1
gerer 1
gerichte 1
gerichtete 1
gerissenen 1
gerne 1
gerollt 1
gert 1
gerunzel@@ 1
geräte 1
geräumigen 1
gesackt 1
gesam@@ 1
gesammelt 1
geschabtes 1
geschaffen 1
geschafft 1
geschehen 1
geschichteten 1
geschickt 1
geschlachteten 1
geschlagene 1
geschlagenen 1
geschlagener 1
geschlossenes 1
geschnallt 1
geschockt 1
gescholten 1
geschossenen 1
geschriebenen 1
geschrien 1
geschulter 1
geschw@@ 1
geschä@@ 1
geschäft@@ 1
geschäftig 1
geschäftiges 1
geschülern 1
geschützten 1
gesessen 1
gesetzten 1
gespann 1
gesperrt 1
gespiegelten 1
gespit@@ 1
gespons@@ 1
gesponsort 1
gespreizt 1
gespült 1
gestaltet 1
gestaltete 1
gestapelte 1
gestapeltem 1
gestapelten 1
gestapelter 1
gestartet 1
gestiegen 1
gestikulieren 1
gestillt 1
gestimmten 1
gestopp@@ 1
gestrauch@@ 1
gestreckt 1
gestreift 1
gestri@@ 1
gestro@@ 1
gestrüpp@@ 1
gestüt@@ 1
gesu@@ 1
gesun@@ 1
gesägten 1
getauft 1
gete@@ 1
getrampelt 1
getreide 1
getrennt 1
getrennten 1
getrock@@ 1
getränk 1
getränke 1
getränkter 1
getröstet 1
getupf@@ 1
gewartet 1
gewebter 1
gewehr 1
gewesen 1
gewickel@@ 1
gewinner 1
gewissen 1
geworben 1
geworden 1
gewordenen 1
geworfene 1
gewun@@ 1
gewöhnlich 1
gewölbten 1
gezap@@ 1
gezogenem 1
gezäh@@ 1
geöffnete 1
geöffneter 1
geöffnetes 1
ggen 1
ghnut 1
gie 1
gierig 1
gigen 1
ginnen 1
gischen 1
gischer 1
gitarrist 1
glases 1
glasklaren 1
glattem 1
glatzköpfigen 1
glau@@ 1
gleichausehende 1
gleichmäßig 1
gleichrangiger 1
gleit@@ 1
glern 1
glich 1
gliches 1
glieder 1
glä@@ 1
gläsern 1
glücklichem 1
gnerdusche 1
gnis 1
goer 1
goldblondem 1
goldenem 1
goldenes 1
goldfarben 1
goldgelben 1
goldgelber 1
goldgerah@@ 1
goldumrandeten 1
goldverzierten 1
got 1
goti@@ 1
grabt 1
grafi@@ 1
grafie 1
grasbedecktes 1
grasbewachsenem 1
grasgrünen 1
grasigem 1
gratu@@ 1
graublauen 1
graubraunen 1
graubärtiger 1
grauhaarigen 1
grauköpfigen 1
graviert 1
greich 1
greiche 1
greifer 1
grell 1
grell@@ 1
greller 1
[...]
