a 31714
. 27625
A 17463
in 14848
the 9923
on 8022
is 7525
and 7378
man 7361
of 6871
with 6175
, 3963
woman 3816
are 3716
to 3128
Two 3116
at 2908
wearing 2622
people 2546
shirt 2323
white 2215
young 2074
black 1985
his 1969
an 1950
while 1932
blue 1871
red 1745
sitting 1740
girl 1667
dog 1651
boy 1627
men 1613
standing 1612
playing 1583
group 1491
street 1432
down 1402
walking 1376
@-@ 1340
front 1274
her 1263
holding 1236
water 1063
by 1047
The 1032
up 940
green 920
one 919
women 919
An 918
for 906
looking 890
outside 870
child 869
Three 855
as 847
little 843
large 825
through 813
yellow 777
brown 775
two 769
from 726
ball 724
hat 724
their 723
into 711
person 689
children 668
next 663
other 660
dressed 640
small 638
out 619
over 615
building 601
riding 583
running 580
People 576
near 569
jacket 565
another 562
around 562
some 535
field 532
sidewalk 532
orange 520
beach 518
crowd 507
stands 497
pink 493
sits 492
jumping 491
behind 489
table 480
snow 476
grass 468
hair 465
background 460
stand 447
bike 445
&apos;s 444
air 441
city 432
player 426
girls 424
Man 422
looks 417
top 414
wall 412
off 405
that 403
dogs 398
camera 395
dress 390
park 384
talking 382
something 380
older 373
along 370
walks 369
guitar 365
play 363
lady 362
soccer 361
together 361
working 359
blond 356
boys 352
food 352
gray 349
smiling 344
game 339
has 339
picture 337
plays 331
hand 327
Asian 326
car 325
holds 322
Four 314
road 313
him 312
bench 310
it 307
pants 307
glasses 306
stage 303
shorts 302
sit 301
carrying 300
walk 300
baby 290
couple 290
them 290
bicycle 287
face 287
side 287
tree 284
&quot; 280
Several 280
pool 277
old 276
taking 274
rock 273
each 272
long 272
race 271
doing 267
across 261
head 261
watching 261
jeans 259
area 258
dirt 258
male 256
middle 256
dark 251
jumps 249
boat 248
hands 247
back 244
ground 242
performing 240
room 240
day 239
who 237
eating 236
female 234
being 233
baseball 231
guy 231
coat 229
striped 227
using 227
suit 224
under 224
football 223
horse 223
watch 222
mouth 221
purple 221
sign 219
haired 216
store 216
he 214
sand 214
band 213
runs 212
look 208
tennis 207
Young 206
reading 206
sunglasses 206
clothing 203
microphone 202
players 202
t 202
three 202
There 200
covered 199
mountain 199
toy 198
its 196
ocean 195
watches 194
basketball 193
climbing 193
during 193
uniform 192
kids 191
past 191
helmet 188
restaurant 187
against 186
train 184
dancing 183
window 183
rides 181
team 181
elderly 180
shirts 179
work 179
chair 178
be 176
One 174
posing 174
trees 174
wooden 174
about 173
having 173
outdoor 172
they 170
waiting 169
or 168
swimming 168
getting 167
all 166
floor 166
construction 164
trying 164
workers 164
skateboard 163
very 162
bag 160
busy 160
colorful 160
ice 159
singing 159
fence 158
Woman 157
high 157
jump 157
This 156
cart 153
line 151
laying 149
truck 149
hill 148
Men 147
book 147
bright 146
hats 146
ride 146
cap 145
inside 145
kitchen 145
market 145
others 145
tan 145
cellphone 144
grassy 144
path 144
making 142
bus 141
clothes 141
brick 140
takes 139
umbrella 139
big 138
body 138
full 138
light 138
motorcycle 138
outfit 138
towards 138
track 138
night 137
enjoying 136
metal 135
swing 135
colored 134
river 134
open 132
paper 132
ready 131
tank 130
piece 129
Five 127
sweater 126
lake 125
she 125
shop 125
trick 125
above 124
painting 124
several 124
going 122
run 121
dance 120
hard 120
many 120
snowy 120
stone 120
shopping 119
stick 119
wave 119
music 118
onto 118
surrounded 118
uniforms 118
vest 118
like 117
worker 117
backpack 115
board 115
crowded 115
smiles 115
beside 114
outdoors 114
photo 114
adults 113
phone 113
pole 113
drinking 112
gear 112
house 111
kid 109
gathered 108
set 108
event 107
hanging 107
bridge 106
catch 106
subway 106
African 105
arms 105
away 105
family 105
flowers 105
preparing 104
costume 103
hockey 103
leaning 103
object 103
toddler 103
Many 102
bar 102
fishing 102
sleeping 102
steps 102
fire 101
guys 101
Children 100
after 100
fountain 100
lot 100
machine 100
plaid 100
rope 100
short 100
beautiful 99
American 98
take 98
stairs 97
adult 96
asian 96
graffiti 96
police 95
shoes 95
arm 94
selling 94
shirtless 94
does 93
forest 93
rocks 93
sunny 93
setting 92
four 91
pose 91
both 90
chairs 90
corner 90
putting 90
racing 90
glass 89
pushing 89
tall 89
throwing 89
between 88
drink 88
have 88
parade 88
slide 88
volleyball 88
2 87
Some 87
ladies 87
laughing 87
public 87
computer 86
equipment 86
instruments 86
someone 86
couch 85
wood 85
aged 84
flag 84
pictures 84
plastic 84
ramp 84
sun 84
concrete 83
fish 83
party 83
playground 83
poses 83
sweatshirt 83
trail 83
which 83
woods 83
beard 82
statue 82
view 82
dock 81
midair 81
winter 81
yard 81
bikes 79
cowboy 79
number 79
skirt 79
distance 78
attire 77
get 77
just 77
reads 77
seated 77
toward 77
left 76
works 76
beer 75
cooking 75
cutting 75
sky 75
vests 75
what 75
bags 74
buildings 74
cross 74
filled 74
lined 74
pulling 74
Little 73
cream 73
rider 73
where 73
appears 72
bed 72
cliff 72
crossing 71
edge 71
instrument 71
mountains 71
showing 71
tent 71
court 70
Women 69
jersey 69
nearby 69
performs 69
right 69
scarf 69
Frisbee 68
apron 68
carries 68
driving 68
few 68
horses 68
make 68
perform 68
school 68
station 68
art 67
bowling 67
friends 67
grill 67
leaves 67
shore 67
show 67
boots 66
cars 66
cigarette 66
cup 66
fruit 66
parked 66
structure 66
goggles 65
net 65
painted 65
smile 65
snowboarder 65
vendor 65
Person 64
bottle 64
door 64
dresses 64
drums 64
flower 64
flying 64
martial 64
skateboarder 64
smoking 64
talks 64
vehicle 64
bathing 63
coffee 63
concert 63
eyes 63
hit 63
home 63
lying 63
rocky 63
shot 63
time 63
Group 62
arts 62
flags 62
jackets 62
kicking 62
mother 62
newspaper 62
paint 62
prepares 62
rain 62
safety 62
swinging 62
waves 62
younger 62
box 61
bucket 61
conversation 61
costumes 61
gather 61
gentleman 61
gloves 61
practicing 61
spectators 61
Boy 60
bearded 60
bunch 60
cleaning 60
competition 60
different 60
ladder 60
listening 60
no 60
parking 60
roof 60
this 60
uses 60
blanket 59
items 59
scene 59
skateboarding 59
staring 59
there 59
audience 58
balloon 58
bicycles 58
bikini 58
desk 58
empty 58
giving 58
lawn 58
meal 58
pile 58
railing 58
surfer 58
various 58
Someone 57
drinks 57
go 57
leaps 57
onlookers 57
rodeo 57
Girl 56
bowl 56
cake 56
display 56
gathering 56
hold 56
hot 56
pointing 56
sliding 56
vegetables 56
Indian 55
basket 55
bull 55
class 55
facing 55
feet 55
gets 55
gold 55
streets 55
suits 55
wet 55
before 54
biker 54
can 54
cement 54
competing 54
flip 54
helmets 54
mask 54
platform 54
silver 54
speaking 54
sports 54
wedding 54
Six 53
classroom 53
coming 53
huge 53
lit 53
match 53
stop 53
teams 53
tie 53
bird 52
climbs 52
purse 52
sings 52
students 52
surfboard 52
surfing 52
traditional 52
tries 52
wait 52
alley 51
animal 51
bride 51
chasing 51
counter 51
fighting 51
kissing 51
military 51
rail 51
screen 51
ski 51
break 50
same 50
skating 50
stroller 50
3 49
country 49
females 49
kneeling 49
lap 49
pass 49
shoulder 49
skier 49
sunset 49
throw 49
waits 49
walkway 49
way 49
writing 49
attempting 48
runner 48
scooter 48
sort 48
talk 48
waving 48
marathon 47
outfits 47
place 47
seen 47
signs 47
tables 47
violin 47
bald 46
blowing 46
bubbles 46
business 46
close 46
course 46
five 46
hole 46
mirror 46
officer 46
overlooking 46
says 46
son 46
balloons 45
base 45
fixing 45
happy 45
leans 45
lights 45
urban 45
Construction 44
alone 44
artist 44
brightly 44
collar 44
faces 44
father 44
foreground 44
gym 44
helping 44
leather 44
leg 44
life 44
made 44
musicians 44
site 44
swim 44
umbrellas 44
asleep 43
clown 43
electric 43
end 43
enjoy 43
giant 43
headphones 43
legs 43
meat 43
plate 43
skate 43
sticks 43
among 42
diving 42
do 42
falling 42
golf 42
makes 42
mud 42
office 42
passing 42
sandals 42
stadium 42
swings 42
washing 42
wears 42
well 42
; 41
canoe 41
doorway 41
goal 41
heads 41
multicolored 41
musical 41
officers 41
roller 41
skiing 41
toys 41
accordion 40
barefoot 40
church 40
dirty 40
drawing 40
laptop 40
leash 40
photographer 40
picking 40
reaching 40
teenage 40
throws 40
video 40
In 39
below 39
digging 39
foot 39
hiking 39
males 39
performance 39
shallow 39
traffic 39
atop 38
cat 38
catches 38
catching 38
gives 38
hugging 38
microscope 38
new 38
passes 38
relaxing 38
row 38
shovel 38
tunnel 38
upside 38
van 38
wheel 38
Chinese 37
Christmas 37
balls 37
beige 37
brunette 37
climb 37
cut 37
dancers 37
deep 37
drum 37
fun 37
kick 37
leaping 37
prepare 37
shows 37
sleeps 37
stunt 37
sweeping 37
tattoo 37
cafe 36
chef 36
coats 36
conversing 36
daughter 36
desert 36
flies 36
garden 36
hoodie 36
hose 36
move 36
photograph 36
pond 36
resting 36
sculpture 36
singer 36
teeth 36
trunks 36
&apos; 35
bat 35
cold 35
friend 35
held 35
jogging 35
karate 35
pier 35
plants 35
points 35
sled 35
splashing 35
telescope 35
tire 35
town 35
underneath 35
wrestling 35
Black 34
Kids 34
block 34
cane 34
curly 34
eat 34
how 34
including 34
moving 34
project 34
shoulders 34
themselves 34
waters 34
without 34
Old 33
Small 33
Workers 33
bicyclist 33
carnival 33
circle 33
cloth 33
crosswalk 33
crying 33
cyclist 33
dinner 33
gun 33
hiker 33
hula 33
individuals 33
makeup 33
matching 33
mural 33
opposing 33
paved 33
produce 33
pulled 33
racket 33
shoe 33
straw 33
taken 33
trampoline 33
tricks 33
wooded 33
attempts 32
closed 32
dances 32
fight 32
formal 32
infant 32
knee 32
lab 32
lone 32
mat 32
members 32
nose 32
performer 32
picnic 32
rolling 32
sewing 32
stuffed 32
surface 32
trash 32
These 31
balcony 31
blouse 31
booth 31
center 31
cow 31
goes 31
help 31
himself 31
lays 31
neck 31
opening 31
pushes 31
ring 31
round 31
slope 31
softball 31
square 31
third 31
wear 31
athlete 30
bent 30
boxes 30
button 30
chases 30
deck 30
device 30
hoop 30
indoor 30
kind 30
log 30
lunch 30
pulls 30
puts 30
sandy 30
skis 30
speaks 30
staircase 30
turn 30
Guy 29
books 29
covering 29
drives 29
enjoys 29
fallen 29
festival 29
grocery 29
gymnast 29
not 29
overalls 29
robe 29
shaking 29
swims 29
wetsuit 29
Older 28
bicyclists 28
birds 28
cloudy 28
customers 28
dancer 28
driver 28
fingers 28
garb 28
gate 28
gentlemen 28
hammer 28
heavy 28
hikers 28
jean 28
kicks 28
laundry 28
marching 28
nice 28
pitcher 28
porch 28
pot 28
pouring 28
puddle 28
rest 28
robes 28
see 28
shaving 28
sheet 28
steep 28
stream 28
teenagers 28
tracks 28
type 28
waterfall 28
Here 27
airplane 27
arena 27
attached 27
backyard 27
blocks 27
checking 27
colors 27
evening 27
eye 27
fair 27
foreign 27
golden 27
hangs 27
kayak 27
khaki 27
ledge 27
lies 27
lift 27
local 27
lots 27
opposite 27
oriental 27
paddling 27
palm 27
piano 27
podium 27
poles 27
protective 27
put 27
reaches 27
sale 27
shooting 27
shoveling 27
teenager 27
wrapped 27
balancing 26
camouflage 26
clean 26
clear 26
cones 26
curb 26
denim 26
fenced 26
inflatable 26
laugh 26
low 26
luggage 26
mound 26
part 26
pavement 26
polo 26
poster 26
raft 26
saxophone 26
seat 26
skirts 26
tongue 26
wheelchair 26
windows 26
Child 25
New 25
bottom 25
buying 25
courtyard 25
eats 25
fabric 25
flight 25
floating 25
frame 25
fresh 25
goalie 25
image 25
juggling 25
keyboard 25
kiss 25
laughs 25
married 25
motorcycles 25
professional 25
sea 25
sell 25
ship 25
skinned 25
string 25
swimsuit 25
tractor 25
walls 25
wine 25
Dog 24
Santa 24
acoustic 24
american 24
appear 24
backwards 24
bandanna 24
boats 24
bread 24
bucking 24
carriage 24
cheering 24
either 24
fall 24
floral 24
garbage 24
goods 24
guard 24
happily 24
hurdle 24
jerseys 24
marketplace 24
mid 24
moves 24
musician 24
nap 24
pajamas 24
plant 24
railroad 24
riders 24
scaffolding 24
shade 24
shown 24
six 24
socks 24
soldier 24
soldiers 24
spray 24
stool 24
surf 24
suspended 24
tools 24
tops 24
touching 24
4 23
I 23
Male 23
Seven 23
White 23
advertisement 23
airport 23
animals 23
backpacks 23
bubble 23
caught 23
chain 23
club 23
dining 23
direction 23
dry 23
escalator 23
fans 23
groom 23
hay 23
hooded 23
kneels 23
landscape 23
living 23
magazine 23
paints 23
pair 23
plaza 23
post 23
raised 23
rugby 23
serving 23
sheep 23
sleeved 23
step 23
stove 23
style 23
towel 23
underwater 23
welding 23
! 22
German 22
amusement 22
athletic 22
bending 22
brushing 22
checkered 22
climber 22
decorated 22
examining 22
gravel 22
grilling 22
money 22
neon 22
obstacle 22
operating 22
participating 22
pipe 22
plane 22
polka 22
referee 22
runners 22
seems 22
shaped 22
sing 22
student 22
thrown 22
try 22
tube 22
use 22
( 21
5 21
Japanese 21
York 21
attempt 21
benches 21
candy 21
chest 21
compete 21
cone 21
crouches 21
cyclists 21
ear 21
ed 21
feeding 21
fly 21
frisbee 21
haircut 21
hallway 21
harness 21
heels 21
hitting 21
hood 21
individual 21
jungle 21
map 21
model 21
muddy 21
opponent 21
orchestra 21
pedestrians 21
photographs 21
practice 21
presentation 21
print 21
ropes 21
sets 21
sharing 21
sport 21
sticking 21
studio 21
teacher 21
things 21
tub 21
vehicles 21
wagon 21
wide 21
) 20
Brown 20
action 20
also 20
barbecue 20
bathroom 20
but 20
carpet 20
cleans 20
drummer 20
ears 20
fast 20
figure 20
fruits 20
garage 20
guitars 20
headscarf 20
jumpsuit 20
machinery 20
motocross 20
mustache 20
native 20
only 20
passengers 20
patio 20
peace 20
pit 20
policeman 20
pull 20
racer 20
racetrack 20
rests 20
rowing 20
sink 20
sized 20
skateboards 20
snowboard 20
snowboarding 20
speech 20
sporting 20
start 20
summer 20
tool 20
wire 20
you 20
ATV 19
At 19
Blond 19
baskets 19
bath 19
beam 19
beverage 19
bikers 19
boardwalk 19
brush 19
bushes 19
ceiling 19
coach 19
color 19
discussion 19
dune 19
entrance 19
good 19
half 19
hall 19
herself 19
hillside 19
horseback 19
intersection 19
lane 19
lay 19
leaving 19
mom 19
museum 19
narrow 19
observe 19
petting 19
possibly 19
puck 19
read 19
rough 19
routine 19
sandwich 19
sells 19
shoot 19
slides 19
stopped 19
tag 19
trumpet 19
Lady 18
Large 18
T 18
african 18
ahead 18
amp 18
blow 18
bottles 18
bow 18
buckets 18
cardboard 18
celebrating 18
chase 18
clay 18
container 18
dishes 18
fancy 18
fencing 18
folding 18
heart 18
helps 18
hoops 18
hospital 18
indoors 18
land 18
mall 18
maroon 18
microphones 18
mixing 18
mostly 18
motorcyclist 18
navy 18
neighborhood 18
ornate 18
outstretched 18
position 18
protest 18
puppy 18
rubber 18
seats 18
skates 18
sleeve 18
smoke 18
song 18
squatting 18
stones 18
sword 18
tattooed 18
tile 18
Street 17
apartment 17
backs 17
balance 17
bars 17
belt 17
blows 17
bowls 17
boxing 17
broom 17
buy 17
calf 17
cheerleaders 17
choir 17
coloring 17
cricket 17
crouching 17
doctor 17
dreadlocks 17
es 17
farm 17
finger 17
finish 17
firetruck 17
first 17
flipping 17
flops 17
funny 17
great 17
grinding 17
guitarist 17
handstand 17
hugs 17
inspecting 17
item 17
leading 17
lines 17
medical 17
member 17
moment 17
pick 17
pieces 17
reflective 17
rink 17
rural 17
scenery 17
scuba 17
sleeveless 17
smokes 17
spinning 17
spraying 17
stack 17
stares 17
storefront 17
stretching 17
stripes 17
stroll 17
swimmer 17
tattoos 17
turning 17
uniformed 17
wife 17
youth 17
&amp; 16
BMX 16
Girls 16
Middle 16
On 16
approaching 16
balances 16
balding 16
banner 16
barrel 16
batter 16
bear 16
birthday 16
broken 16
candles 16
card 16
carving 16
chalk 16
computers 16
conference 16
crane 16
cuts 16
derby 16
dimly 16
discussing 16
dish 16
doors 16
fix 16
float 16
fluffy 16
following 16
furniture 16
gas 16
got 16
gymnasium 16
houses 16
ing 16
intently 16
jockey 16
kite 16
library 16
lifting 16
listens 16
live 16
moped 16
motorbike 16
naked 16
name 16
nets 16
nighttime 16
objects 16
partially 16
pen 16
pigeons 16
pitch 16
rainy 16
raises 16
reach 16
snack 16
sofa 16
speed 16
stairway 16
surrounding 16
tied 16
vegetable 16
viewing 16
warm 16
wheels 16
&apos;t 15
Crowd 15
While 15
advertising 15
amongst 15
barber 15
bass 15
beneath 15
branch 15
called 15
carry 15
castle 15
catcher 15
clad 15
college 15
control 15
crew 15
crosses 15
dead 15
directions 15
duck 15
electronic 15
elephant 15
engaged 15
fan 15
fireman 15
flowered 15
follows 15
forward 15
free 15
groups 15
headband 15
hits 15
horn 15
jewelry 15
lamp 15
liquid 15
lounging 15
material 15
mobile 15
more 15
necklace 15
observing 15
odd 15
papers 15
participate 15
patient 15
photos 15
pine 15
plates 15
present 15
push 15
rainbow 15
raising 15
relax 15
repair 15
ribbon 15
s 15
security 15
shades 15
shaved 15
shovels 15
smaller 15
space 15
spread 15
starting 15
taxi 15
teammate 15
television 15
theater 15
thin 15
trailer 15
training 15
turns 15
unicycle 15
village 15
wrestle 15
y 15
Cheerleaders 14
London 14
Soccer 14
Students 14
admiring 14
airborne 14
aisle 14
angel 14
apple 14
ballerina 14
bare 14
biking 14
billboard 14
binoculars 14
calm 14
camel 14
cameras 14
cape 14
caps 14
casual 14
chefs 14
closeup 14
cobblestone 14
cook 14
cool 14
corn 14
crafts 14
donkey 14
downtown 14
ers 14
ethnic 14
excited 14
factory 14
fake 14
fisherman 14
gift 14
glove 14
guns 14
hang 14
interacting 14
job 14
keep 14
leads 14
loading 14
machines 14
modern 14
nature 14
newborn 14
pan 14
passenger 14
peering 14
photographed 14
pillow 14
pottery 14
protesting 14
races 14
receiving 14
redheaded 14
repairs 14
shakes 14
share 14
shining 14
shops 14
silly 14
slightly 14
splashes 14
sprinkler 14
steel 14
stomach 14
straight 14
tee 14
tents 14
terrain 14
tourists 14
trunk 14
upon 14
wading 14
war 14
weaving 14
whilst 14
Caucasian 13
City 13
Multiple 13
attention 13
barrier 13
bin 13
bleachers 13
browsing 13
burgundy 13
carts 13
ceremony 13
chainsaw 13
check 13
checks 13
cheer 13
coaster 13
come 13
consisting 13
converse 13
cups 13
customer 13
debris 13
dough 13
drill 13
dusk 13
eggs 13
engine 13
entering 13
examines 13
firefighters 13
flips 13
flute 13
form 13
gestures 13
groceries 13
headed 13
hug 13
knit 13
landing 13
laptops 13
lounge 13
meeting 13
messy 13
motor 13
observes 13
official 13
order 13
oven 13
overhead 13
paddle 13
paddles 13
pizza 13
praying 13
pretty 13
sack 13
sailing 13
similar 13
sneakers 13
spoon 13
spotted 13
star 13
studying 13
swimmers 13
teaching 13
telephone 13
thumbs 13
tires 13
tower 13
tropical 13
was 13
waterfront 13
waterway 13
wheelbarrow 13
wings 13
1 12
Boys 12
It 12
Police 12
Red 12
alleyway 12
applying 12
attending 12
bagpipes 12
bamboo 12
bank 12
beanie 12
been 12
beverages 12
bite 12
biting 12
blankets 12
boulder 12
bricks 12
bystanders 12
chicken 12
clapping 12
comes 12
complete 12
countryside 12
doll 12
drive 12
dust 12
emergency 12
exercise 12
exhibit 12
filling 12
firemen 12
forehead 12
games 12
give 12
gymnastics 12
handing 12
heading 12
hotel 12
if 12
inspects 12
iron 12
juice 12
kayaks 12
knees 12
knife 12
lacrosse 12
leaf 12
lecture 12
lifted 12
listen 12
loom 12
merchandise 12
monument 12
most 12
movie 12
newspapers 12
overweight 12
pack 12
paperwork 12
patterned 12
performers 12
pigtails 12
pillows 12
places 12
rickshaw 12
saw 12
science 12
scooters 12
seem 12
semi 12
shadows 12
shirted 12
skaters 12
snowsuit 12
stare 12
still 12
stops 12
story 12
suitcase 12
sweeps 12
tackle 12
tape 12
target 12
teal 12
tossing 12
touches 12
tourist 12
tray 12
umpire 12
vendors 12
visiting 12
wares 12
wheelie 12
wild 12
wires 12
world 12
wrap 12
wrestler 12
yoga 12
2012 11
Female 11
Runners 11
act 11
adjusting 11
arcade 11
athletes 11
auditorium 11
backdrop 11
ballet 11
banjo 11
boards 11
camping 11
cans 11
carefully 11
case 11
celebration 11
cello 11
chatting 11
cheek 11
chess 11
christmas 11
closely 11
covers 11
cowboys 11
craft 11
creek 11
crossed 11
descent 11
diver 11
dives 11
dot 11
drawn 11
dusty 11
eight 11
falls 11
far 11
farmer 11
fashion 11
firefighter 11
floats 11
focused 11
folded 11
formation 11
gathers 11
highway 11
homeless 11
hut 11
involved 11
jet 11
khakis 11
larger 11
laundromat 11
learning 11
lifts 11
lighted 11
location 11
logs 11
ly 11
magazines 11
medium 11
meet 11
mop 11
motorcyclists 11
motorized 11
mower 11
mug 11
multiple 11
newly 11
opens 11
parachute 11
patch 11
picks 11
placed 11
placing 11
planting 11
playfully 11
ponytail 11
poor 11
practices 11
printed 11
puppies 11
range 11
rapids 11
record 11
repairing 11
rice 11
rod 11
rollerblading 11
rollerskating 11
salon 11
screaming 11
second 11
serves 11
shoreline 11
sides 11
skiers 11
snowshoes 11
so 11
soda 11
speak 11
strange 11
sunlight 11
supplies 11
surgery 11
suspenders 11
swimsuits 11
tackling 11
tea 11
tights 11
tiny 11
touch 11
traveling 11
tricycle 11
trip 11
trolley 11
tug 11
turquoise 11
underwear 11
visible 11
watched 11
weather 11
yarn 11
# 10
Asia 10
Band 10
Bearded 10
China 10
Closeup 10
Elderly 10
John 10
Olympics 10
Pedestrians 10
Spectators 10
activity 10
amidst 10
apart 10
approaches 10
artwork 10
autumn 10
belts 10
blazer 10
blood 10
bouquet 10
branches 10
brother 10
burning 10
cage 10
canvas 10
cards 10
casually 10
celebrate 10
chalkboard 10
cheese 10
chopping 10
cloud 10
collared 10
contraption 10
cooks 10
cop 10
couples 10
creating 10
crouched 10
cute 10
dad 10
decorative 10
department 10
displaying 10
displays 10
done 10
driveway 10
earphones 10
eastern 10
embracing 10
experiment 10
facility 10
fashioned 10
finishing 10
frozen 10
fur 10
furry 10
gallery 10
gaze 10
gazes 10
goat 10
handrail 10
headdress 10
here 10
hiding 10
hike 10
hotdog 10
incline 10
injured 10
involving 10
juggles 10
kayaking 10
laden 10
lead 10
leap 10
leggings 10
lens 10
leotard 10
lighting 10
link 10
lobby 10
march 10
monitor 10
numbers 10
o 10
oranges 10
pads 10
passersby 10
pin 10
pins 10
played 10
point 10
portrait 10
pots 10
process 10
products 10
quickly 10
racers 10
rafting 10
rally 10
roadside 10
rooftop 10
rows 10
scaffold 10
scarves 10
serve 10
shape 10
shepherd 10
sideways 10
silhouette 10
single 10
skater 10
sprayed 10
stepping 10
stilts 10
thumb 10
toddlers 10
transportation 10
trashcan 10
tribal 10
trucks 10
turned 10
upward 10
valley 10
venue 10
walked 10
washes 10
we 10
whom 10
will 10
workout 10
workshop 10
Adults 9
America 9
Army 9
Baby 9
Blue 9
Canadian 9
Couple 9
DJ 9
Eastern 9
Eight 9
Elmo 9
Hockey 9
Lots 9
Mohawk 9
School 9
Smiling 9
TV 9
Texas 9
US 9
adjusts 9
afternoon 9
almost 9
aprons 9
army 9
bathtub 9
begins 9
belongings 9
bends 9
beret 9
bicycling 9
booths 9
bouncing 9
brass 9
breakdancing 9
brushes 9
built 9
butterfly 9
cab 9
caucasian 9
cellphones 9
checkers 9
cherry 9
chewing 9
chinese 9
chocolate 9
chopsticks 9
circular 9
cleaner 9
clouds 9
containing 9
cover 9
crates 9
decorations 9
design 9
designs 9
displayed 9
dive 9
dragging 9
ducks 9
dumpster 9
egg 9
featuring 9
fell 9
fishes 9
foliage 9
gazing 9
gesturing 9
grabbing 9
grabs 9
greyhound 9
guards 9
handed 9
handle 9
heavily 9
helicopter 9
highchair 9
hills 9
hind 9
horizon 9
icy 9
images 9
interesting 9
jogs 9
joy 9
jumped 9
jumper 9
kilt 9
load 9
located 9
menu 9
monkey 9
morning 9
motion 9
muzzle 9
my 9
news 9
operates 9
painter 9
pale 9
parasailing 9
parents 9
pathway 9
pattern 9
peeking 9
peer 9
pencil 9
pet 9
pilot 9
pinata 9
presenting 9
pumpkin 9
quarterback 9
raincoat 9
really 9
recording 9
reflection 9
rifle 9
rings 9
rollerblades 9
sad 9
sawing 9
scenic 9
score 9
scouts 9
section 9
service 9
shiny 9
sniffing 9
soap 9
sorting 9
sparring 9
stacked 9
stall 9
stoop 9
strapped 9
strolls 9
stump 9
surfs 9
tags 9
task 9
teens 9
tending 9
than 9
ticket 9
tight 9
tiled 9
torch 9
treat 9
trench 9
tripod 9
turban 9
types 9
unhappy 9
unique 9
wheeler 9
wig 9
wind 9
writes 9
11 8
6 8
Asians 8
Cafe 8
Dogs 8
Firefighters 8
Hawaiian 8
India 8
Mexican 8
Mother 8
Native 8
Olympic 8
Shepherd 8
Skateboarder 8
Spanish 8
They 8
Various 8
Yellow 8
abandoned 8
accident 8
amount 8
aqua 8
aquarium 8
arch 8
babies 8
banners 8
barefooted 8
bartender 8
beads 8
because 8
bedroom 8
bra 8
bundle 8
buried 8
campfire 8
canal 8
candle 8
canoes 8
care 8
carrier 8
cheerleading 8
classic 8
clowns 8
cluttered 8
columns 8
commercial 8
companion 8
company 8
conductor 8
crashing 8
crayons 8
cries 8
cycling 8
darkened 8
daytime 8
destination 8
digital 8
diner 8
directing 8
doesn 8
draped 8
draw 8
draws 8
easel 8
er 8
establishment 8
even 8
fields 8
figures 8
filming 8
flannel 8
followed 8
forested 8
fountains 8
ful 8
fully 8
gardening 8
gesture 8
gown 8
grab 8
had 8
hammering 8
hammock 8
hardwood 8
harmonica 8
homemade 8
hydrant 8
i 8
industrial 8
jeep 8
judges 8
kisses 8
labeled 8
laboratory 8
lanterns 8
league 8
les 8
lips 8
lively 8
loaded 8
looked 8
maintenance 8
marble 8
masks 8
mess 8
mic 8
midst 8
mix 8
mixer 8
mohawk 8
much 8
murky 8
nail 8
napping 8
navigates 8
notebook 8
notes 8
numerous 8
nurses 8
package 8
packed 8
pay 8
peers 8
plain 8
pocket 8
pony 8
potato 8
pours 8
product 8
projector 8
protect 8
punch 8
purses 8
religious 8
riot 8
rug 8
sailboat 8
say 8
scrubs 8
shadow 8
shaggy 8
shed 8
shoppers 8
signing 8
skies 8
skills 8
skinny 8
sledding 8
speaker 8
speeding 8
spins 8
splashed 8
spot 8
spotlight 8
sprays 8
squeezing 8
staff 8
stretches 8
stringed 8
strolling 8
stuck 8
surgical 8
synchronized 8
tackled 8
teammates 8
tired 8
too 8
toothbrush 8
tour 8
tournament 8
trains 8
transit 8
travel 8
underground 8
unusual 8
upset 8
us 8
vending 8
victory 8
vintage 8
waist 8
waiter 8
warehouse 8
washer 8
waterskiing 8
wheeled 8
win 8
yo 8
- 7
? 7
ATM 7
Baseball 7
British 7
Brunette 7
Coca 7
Cola 7
Customers 7
Dark 7
Europe 7
Guys 7
Jenga 7
Local 7
Members 7
Musicians 7
Numerous 7
Players 7
Square 7
Tourists 7
Vendors 7
Walmart 7
We 7
Worker 7
acrobatic 7
acting 7
activities 7
adorned 7
advertisements 7
ages 7
amid 7
arrow 7
artists 7
attractive 7
await 7
backseat 7
bananas 7
barely 7
barrels 7
battle 7
beating 7
beers 7
begin 7
bend 7
blurred 7
bongo 7
bounds 7
boxer 7
buffet 7
call 7
camels 7
cameraman 7
camp 7
cannon 7
casino 7
casting 7
cathedral 7
cave 7
character 7
characters 7
chased 7
cheerleader 7
chin 7
cigar 7
cigarettes 7
collie 7
colorfully 7
completing 7
complex 7
conducting 7
contest 7
cotton 7
crawls 7
create 7
crops 7
crosscountry 7
daily 7
defender 7
demonstration 7
designed 7
desks 7
dinosaur 7
disc 7
discuss 7
divers 7
dolls 7
dotted 7
downhill 7
dryer 7
drying 7
dyed 7
employee 7
employees 7
entertain 7
environment 7
examine 7
exercising 7
exiting 7
farmers 7
fat 7
feather 7
fedora 7
fellow 7
fetch 7
fill 7
find 7
flock 7
fog 7
foggy 7
framed 7
frying 7
fuzzy 7
greyhounds 7
grinds 7
guide 7
harbor 7
hotdogs 7
human 7
illuminated 7
indian 7
ingredients 7
laid 7
lands 7
le 7
led 7
legged 7
leopard 7
level 7
licking 7
lining 7
lion 7
logo 7
love 7
lush 7
marked 7
marker 7
mascot 7
maybe 7
meadow 7
measuring 7
mini 7
mitt 7
monitors 7
mountainous 7
mounted 7
mouths 7
mowing 7
muscular 7
muzzled 7
named 7
necklaces 7
nude 7
nun 7
oil 7
ordering 7
our 7
own 7
pans 7
parent 7
peaks 7
picket 7
pirate 7
pointed 7
poodle 7
power 7
prepared 7
pro 7
punching 7
puppet 7
purchase 7
pyramid 7
quiet 7
railings 7
reception 7
redhead 7
resort 7
roll 7
rollerskates 7
rolls 7
rustic 7
scientist 7
sculptures 7
seafood 7
seating 7
separate 7
seven 7
shawl 7
shower 7
sidelines 7
silhouetted 7
skydiving 7
skyline 7
slacks 7
snacks 7
snowboards 7
sold 7
somewhere 7
speeds 7
spring 7
squats 7
stance 7
starring 7
stores 7
striking 7
strings 7
stuff 7
sunbathing 7
supermarket 7
support 7
tablecloth 7
tail 7
tarp 7
ted 7
teen 7
temple 7
thick 7
though 7
ties 7
tiger 7
topless 7
tow 7
tracksuit 7
travels 7
treadmill 7
trophy 7
trotting 7
tutu 7
typing 7
upwards 7
vacuum 7
vacuuming 7
variety 7
vibrant 7
visor 7
warming 7
wash 7
watermelons 7
weight 7
were 7
when 7
wilderness 7
woodland 7
wrestlers 7
xylophone 7
8 6
As 6
Beautiful 6
Bikers 6
European 6
Family 6
Father 6
Football 6
Green 6
He 6
Jewish 6
Legos 6
McDonald 6
Miami 6
Military 6
Muslim 6
NY 6
Orange 6
Protesters 6
Seattle 6
She 6
Sooners 6
St 6
State 6
Subway 6
Times 6
Toddler 6
USA 6
aboard 6
accompanied 6
age 6
aiming 6
ally 6
ancient 6
angle 6
anvil 6
any 6
ard 6
arrangement 6
assembled 6
assisting 6
award 6
badge 6
badminton 6
barriers 6
beams 6
belly 6
bib 6
bikinis 6
bit 6
blocking 6
blower 6
boarding 6
bodysuit 6
boogie 6
bottoms 6
bows 6
bowtie 6
boxers 6
bridesmaids 6
briefcase 6
bronco 6
brooms 6
bulldozer 6
bush 6
butcher 6
cable 6
cardigan 6
cash 6
cats 6
ceremonial 6
checked 6
checkout 6
clap 6
climbers 6
clothed 6
clutching 6
coast 6
column 6
completely 6
confetti 6
congregate 6
connected 6
constructed 6
convenience 6
crafting 6
crash 6
crate 6
creates 6
crest 6
crown 6
damaged 6
deserted 6
dessert 6
devices 6
doctors 6
dots 6
double 6
dragon 6
dropping 6
dump 6
e 6
elaborate 6
elevated 6
evil 6
excitedly 6
expanse 6
expression 6
facial 6
favorite 6
feathered 6
features 6
finished 6
fireworks 6
fixes 6
flames 6
flat 6
floors 6
flowery 6
focus 6
follow 6
foods 6
fork 6
french 6
glacier 6
goatee 6
gowns 6
grand 6
grasping 6
grills 6
handbag 6
handheld 6
harvesting 6
hearts 6
hook 6
hour 6
hunched 6
husband 6
information 6
jockeys 6
jumpsuits 6
kicked 6
kiosk 6
knitting 6
lanes 6
late 6
length 6
licks 6
lime 6
lipstick 6
liquor 6
lower 6
may 6
medieval 6
merry 6
microscopes 6
miniature 6
missing 6
mittens 6
monk 6
mountaintop 6
mule 6
nails 6
nearly 6
newlywed 6
nightclub 6
noses 6
nurse 6
olive 6
operated 6
overlook 6
pad 6
parallel 6
patrons 6
pedal 6
personnel 6
pigeon 6
piles 6
pillar 6
ping 6
pipes 6
pitching 6
plank 6
policemen 6
political 6
pops 6
portable 6
posed 6
presents 6
probably 6
professor 6
progress 6
propped 6
pub 6
pushed 6
quad 6
rack 6
radio 6
rafts 6
rag 6
rails 6
raining 6
raise 6
raking 6
ravine 6
razor 6
relaxes 6
relay 6
return 6
ribbons 6
rimmed 6
riverbank 6
rolled 6
rugs 6
rush 6
rusty 6
sample 6
scaling 6
scattered 6
scissors 6
scooping 6
senior 6
series 6
shingles 6
shorter 6
shouting 6
skull 6
sleeves 6
slopes 6
snowball 6
soars 6
social 6
socializing 6
soup 6
spatula 6
special 6
spots 6
sprinklers 6
squad 6
stair 6
stars 6
stirring 6
stretched 6
strike 6
stripe 6
strollers 6
stunts 6
sundress 6
sunshine 6
swords 6
system 6
talent 6
teddy 6
test 6
texting 6
those 6
ting 6
tips 6
toe 6
tomatoes 6
tubes 6
turkey 6
tying 6
ultimate 6
unloading 6
watering 6
waterside 6
weapon 6
wheelchairs 6
wineglasses 6
within 6
words 6
woven 6
written 6
zone 6
10 5
7 5
9 5
Americans 5
Amish 5
Basketball 5
Bicyclist 5
Big 5
Claus 5
Concert 5
Cowboy 5
Dancers 5
Dirt 5
East 5
Food 5
Gray 5
Groups 5
Halloween 5
Happy 5
Japan 5
Kid 5
Marathon 5
McDonalds 5
Mouse 5
Obama 5
Parents 5
Rodeo 5
Rollerblades 5
Shirtless 5
SpongeBob 5
Surfer 5
Tennis 5
Tourist 5
University 5
Wall 5
ad 5
aid 5
angry 5
antique 5
apparatus 5
appearing 5
apples 5
applies 5
archway 5
armed 5
armor 5
arrive 5
artistic 5
ascending 5
asphalt 5
assistant 5
ate 5
ating 5
attendant 5
attentively 5
ax 5
axe 5
backhoe 5
backlit 5
backstroke 5
backward 5
baked 5
bakery 5
balanced 5
banana 5
barbecuing 5
barking 5
barren 5
baseman 5
batman 5
baton 5
beginning 5
besides 5
bites 5
blindfolded 5
blocked 5
bmx 5
bones 5
bookshelf 5
bounding 5
braided 5
breaks 5
breath 5
brindle 5
broad 5
bronze 5
bundled 5
bunny 5
bushy 5
businessman 5
c 5
campsite 5
canopy 5
canyon 5
cargo 5
caricature 5
carousel 5
carried 5
cartwheel 5
carve 5
carved 5
cast 5
cattle 5
chained 5
chains 5
champagne 5
chat 5
cheeks 5
chips 5
chunk 5
cinder 5
citizens 5
clarinet 5
clearing 5
clock 5
clothesline 5
cloths 5
cockpit 5
collecting 5
combat 5
comforting 5
community 5
competitive 5
competitors 5
completed 5
concentrates 5
conditions 5
confused 5
contents 5
convention 5
cookies 5
cooler 5
coolers 5
cowgirl 5
cows 5
cradles 5
crawling 5
crazy 5
crowds 5
crowns 5
curve 5
curved 5
daylight 5
decorating 5
deer 5
deli 5
descending 5
dig 5
digs 5
directs 5
donkeys 5
dribbles 5
drilling 5
drivers 5
dunking 5
eagerly 5
early 5
earrings 5
earth 5
elephants 5
embrace 5
emerges 5
ents 5
equestrian 5
escape 5
excitement 5
exhibition 5
exploring 5
expressions 5
eyeglasses 5
fairy 5
feathers 5
fills 5
film 5
fireplace 5
fit 5
flaming 5
floaties 5
flowing 5
foam 5
forming 5
fort 5
girlfriend 5
given 5
glider 5
gliding 5
gloved 5
goats 5
graffitied 5
greenery 5
gum 5
hairstyle 5
handles 5
handling 5
harp 5
headset 5
hear 5
heavyset 5
herding 5
historic 5
holes 5
hooping 5
huddle 5
huddled 5
husky 5
identical 5
includes 5
ine 5
inspect 5
installing 5
instructing 5
interact 5
interviewed 5
javelin 5
jog 5
keys 5
kimonos 5
lantern 5
lasso 5
last 5
lean 5
leaned 5
leashes 5
least 5
lie 5
lingerie 5
lost 5
lovely 5
lowered 5
m 5
magnifying 5
main 5
major 5
makeshift 5
mannequin 5
marches 5
masked 5
massive 5
mates 5
mats 5
mattress 5
mature 5
merchant 5
message 5
monopoly 5
mops 5
mothers 5
motorbikes 5
multicolor 5
mustard 5
oar 5
offering 5
opened 5
operation 5
opponents 5
pacifier 5
padded 5
parachutes 5
parachuting 5
parts 5
partying 5
passed 5
passerby 5
pauses 5
peacock 5
peak 5
pedestrian 5
perched 5
perhaps 5
petals 5
photographing 5
pinned 5
pinstriped 5
plush 5
poking 5
poodles 5
popcorn 5
positioned 5
posters 5
posts 5
pride 5
priest 5
punk 5
rake 5
reclines 5
recreational 5
register 5
remote 5
returns 5
robot 5
rounding 5
rowboat 5
rubble 5
rubs 5
ruins 5
sacks 5
sail 5
sailor 5
saris 5
saying 5
scales 5
scantily 5
seagulls 5
searching 5
season 5
seesaw 5
served 5
shack 5
shady 5
sharp 5
sheer 5
sheets 5
shelves 5
shines 5
shoeshine 5
singers 5
sister 5
skateboarders 5
sleep 5
slicing 5
smooth 5
snap 5
snaps 5
snowcapped 5
snowman 5
soft 5
sound 5
spike 5
splash 5
split 5
sponsored 5
stacks 5
starts 5
storefronts 5
strap 5
stretch 5
stride 5
struggles 5
struggling 5
stylish 5
suburban 5
suitcases 5
superman 5
surfers 5
swan 5
sweaters 5
sweatshirts 5
sweatsuit 5
symbol 5
terminal 5
text 5
theme 5
themed 5
tiara 5
toilet 5
tomato 5
tongs 5
torches 5
tossed 5
towels 5
trays 5
trimming 5
tugging 5
tumbling 5
tunic 5
tuxedo 5
ty 5
unfinished 5
unknown 5
upper 5
upright 5
ups 5
utility 5
varying 5
vegetation 5
vertical 5
vocalist 5
wakeboard 5
want 5
watercraft 5
watermelon 5
weapons 5
whistle 5
windbreaker 5
winding 5
wiping 5
workman 5
year 5
yelling 5
zebra 5
zip 5
About 4
Apple 4
Arabic 4
Bicyclists 4
Bike 4
Boston 4
Cars 4
College 4
Crowds 4
Cyclists 4
Day 4
Deere 4
Disney 4
During 4
Elementary 4
Emergency 4
Friends 4
Gentleman 4
Greyhound 4
High 4
Hispanic 4
Hotel 4
Ice 4
Island 4
KitchenAid 4
Looking 4
Market 4
Mickey 4
Nike 4
Oklahoma 4
Oriental 4
Parade 4
Park 4
Photographers 4
Race 4
Shoppers 4
Singer 4
Somebody 4
South 4
Speedo 4
St. 4
Starbucks 4
Station 4
Teenage 4
Vegas 4
Washington 4
Welcome 4
Wet 4
With 4
Yamaha 4
You 4
accepting 4
actively 4
actors 4
adorable 4
aircraft 4
alcohol 4
alike 4
am 4
ans 4
antly 4
apparel 4
ar 4
areas 4
arid 4
artificial 4
ary 4
asking 4
attraction 4
automobile 4
available 4
avoid 4
balconies 4
banging 4
basement 4
basketballs 4
bathrobe 4
beards 4
beat 4
begging 4
beyond 4
blade 4
blown 4
bookbag 4
bookstore 4
boss 4
boulders 4
bowler 4
bracelet 4
breaking 4
bridal 4
brimmed 4
bringing 4
brochure 4
brow 4
buggy 4
build 4
bungee 4
buoy 4
burgers 4
buses 4
cabin 4
cables 4
cafeteria 4
cal 4
calling 4
cally 4
came 4
camper 4
campers 4
carpeted 4
cartoon 4
casts 4
cause 4
caution 4
celebrates 4
cemetery 4
charcoal 4
chested 4
chews 4
chickens 4
chip 4
chiseling 4
chubby 4
circus 4
cityscape 4
civil 4
cleaned 4
closer 4
coconuts 4
collection 4
comfortable 4
communicating 4
competes 4
constructing 4
contemplating 4
controls 4
convertible 4
cooked 4
cookie 4
coveralls 4
crab 4
crayon 4
created 4
crib 4
cruise 4
crutches 4
ct 4
cubicle 4
cupcake 4
cupcakes 4
curious 4
currently 4
daughters 4
decide 4
defenders 4
defensive 4
delicious 4
demonstrating 4
descend 4
designer 4
despite 4
dilapidated 4
ding 4
directly 4
disk 4
dolly 4
dolphin 4
dominoes 4
drag 4
drainage 4
dramatically 4
dribbling 4
driven 4
drop 4
dropped 4
drops 4
dunes 4
dunk 4
earmuffs 4
east 4
eatery 4
elder 4
electronics 4
else 4
emerging 4
engage 4
entertainer 4
enthusiastically 4
era 4
except 4
exciting 4
exits 4
exposed 4
extended 4
extremely 4
farm@@ 4
fashionable 4
fetching 4
fighter 4
file 4
fine 4
firing 4
fish@@ 4
fives 4
flatbed 4
flea 4
floored 4
floppy 4
flour 4
fluorescent 4
fold 4
footbridge 4
forces 4
formed 4
foundation 4
fourth 4
frames 4
freshly 4
frustrated 4
galloping 4
gated 4
goers 4
graduation 4
greeting 4
grins 4
grown 4
guarding 4
guitarists 4
gymnastic 4
halter 4
hauling 4
hawk 4
headbands 4
headscarves 4
helmeted 4
helped 4
henna 4
hidden 4
hikes 4
hilly 4
hips 4
hispanic 4
holiday 4
hopscotch 4
horns 4
hung 4
iPod 4
impressive 4
incoming 4
inflated 4
inline 4
ins 4
instructor 4
intense 4
jar 4
jewelery 4
kayakers 4
keeping 4
kickboxing 4
kiddie 4
kilts 4
kites 4
kitten 4
know 4
known 4
l 4
ladders 4
landed 4
layers 4
leafless 4
lemon 4
lemons 4
let 4
letters 4
lid 4
likely 4
lip 4
litter 4
lonely 4
loop 4
loose 4
mailbox 4
markings 4
marsh 4
mascara 4
mate 4
mechanic 4
mechanical 4
megaphone 4
memorial 4
mermaid 4
mesh 4
messenger 4
metallic 4
metro 4
milk 4
mind 4
minivan 4
motorboat 4
mountainside 4
multi 4
muzzles 4
nicely 4
nine 4
noodles 4
note 4
ny 4
observers 4
occupied 4
occurring 4
octopus 4
once 4
orders 4
organizing 4
overcoat 4
overhang 4
oversized 4
overturned 4
owner 4
owners 4
oxen 4
packing 4
padding 4
pain 4
paintbrush 4
paintings 4
pancake 4
parasol 4
participates 4
partly 4
passionately 4
pastries 4
paws 4
peach 4
peeks 4
peeling 4
per 4
persons 4
photographers 4
photography 4
physi@@ 4
picker 4
pickup 4
pictured 4
pie 4
piercing 4
pig 4
piggyback 4
piled 4
pillars 4
pirates 4
pitchers 4
playpen 4
plowing 4
plucking 4
poised 4
pokes 4
polish 4
pong 4
port 4
possession 4
postal 4
potted 4
poverty 4
powder 4
powered 4
preparation 4
pressure 4
pretending 4
prints 4
prizes 4
professionals 4
projected 4
promoting 4
puffy 4
purchasing 4
puzzle 4
quaint 4
quick 4
rabbit 4
rabbits 4
ramps 4
re 4
readying 4
rear 4
receive 4
receives 4
reddish 4
ref 4
removing 4
retail 4
retrieving 4
returning 4
ridding 4
roadway 4
roadwork 4
rocking 4
rode 4
rollerskaters 4
roping 4
roses 4
rounds 4
runway 4
saddle 4
safe 4
sailboats 4
salad 4
sandal 4
sashes 4
sausages 4
scale 4
scared 4
scoop 4
scout 4
scrap 4
scratching 4
sculpting 4
sculptor 4
seagull 4
seashore 4
seaweed 4
seeds 4
selecting 4
seniors 4
shapes 4
shave 4
shes 4
shields 4
shit 4
shoots 4
siding 4
sight 4
sip 4
siting 4
skeleton 4
skimpy 4
slab 4
slam 4
slender 4
slices 4
slip 4
sloping 4
slot 4
smoothing 4
snake 4
sniffs 4
snorkel 4
snowboarders 4
snowing 4
soil 4
soldering 4
solitary 4
solo 4
someones 4
sons 4
sorts 4
spandex 4
spanish 4
spear 4
spectate 4
spiked 4
spikes 4
spin 4
sprinting 4
squares 4
stacking 4
stairwell 4
stalks 4
stationary 4
statues 4
stay 4
steaks 4
steam 4
steer 4
steers 4
stirs 4
stocking 4
stockings 4
stools 4
storage 4
storm 4
straps 4
strawberry 4
streetlight 4
strikes 4
strip 4
structures 4
studies 4
submerged 4
substance 4
sucking 4
sumo 4
sunbathers 4
sunhat 4
sunrise 4
surgeons 4
surround 4
surroundings 4
swampy 4
sweaty 4
swimwear 4
tackles 4
tagged 4
taller 4
tap 4
taste 4
tasting 4
tattered 4
taught 4
technique 4
technology 4
terrace 4
terrier 4
texts 4
these 4
think 4
thinking 4
thought 4
tightly 4
tightrope 4
tip 4
toast 4
topic 4
torn 4
tosses 4
trained 4
tram 4
triangle 4
tribe 4
trims 4
trombone 4
troops 4
tuning 4
turtle 4
twirling 4
typical 4
ukulele 4
unidentified 4
unpacking 4
unpaved 4
unseen 4
used 4
vacation 4
vast 4
via 4
videotaping 4
viewer 4
wades 4
waitress 4
walkers 4
waring 4
warning 4
washed 4
waterskier 4
ways 4
weathered 4
weave 4
weeds 4
weighing 4
weird 4
wetsuits 4
whispering 4
whole 4
wicker 4
wigs 4
winning 4
wipes 4
wool 4
word 4
workbench 4
wraps 4
write 4
york 4
your 4
youths 4
zoo 4
12 3
24 3
30 3
3rd 3
: 3
Africa 3
All 3
Angels 3
Athletes 3
Autumn 3
BMW 3
Batman 3
Berlin 3
Brazil 3
Bull 3
C 3
California 3
Coffee 3
Colorful 3
Company 3
Coney 3
DS 3
Dad 3
Dozens 3
Dressed 3
Easter 3
Elder 3
Ethnic 3
Excited 3
Few 3
Fire 3
Firetrucks 3
Fisherman 3
Fishermen 3
Ford 3
France 3
French 3
Gap 3
Good 3
Guitar 3
Gymnast 3
Hard 3
Hikers 3
Hollister 3
Homeless 3
Individuals 3
Italian 3
Jack 3
Joe 3
Korean 3
Lakers 3
Latin 3
Latino 3
Lead 3
Lone 3
Long 3
Looks 3
M 3
Mets 3
Mexico 3
Mom 3
Monopoly 3
Nine 3
Nintendo 3
No 3
Ocean 3
Overhead 3
Photo 3
Picture 3
Pitcher 3
Pizza 3
Player 3
Renaissance 3
Rugby 3
Run 3
SUV 3
Scottish 3
Sitting 3
Skier 3
Skiers 3
Snowboarder 3
Soldiers 3
Spain 3
Sports 3
SquarePants 3
Student 3
Team 3
Teen 3
Teenagers 3
Toyota 3
Twelve 3
Tye 3
Up@@ 3
View 3
Wii 3
Workmen 3
Younger 3
accompanies 3
adding 3
addresses 3
addressing 3
adjust 3
admires 3
advantage 3
aerial 3
agility 3
aim 3
al 3
aluminum 3
amazing 3
amused 3
answers 3
applied 3
approach 3
approximately 3
aquatic 3
arguing 3
arranged 3
arrival 3
ashore 3
assembly 3
assortment 3
astronaut 3
ated 3
ates 3
ator 3
attaches 3
attend 3
attired 3
audio 3
awaits 3
awe 3
awning 3
awnings 3
b 3
backhand 3
baggage 3
bagpipe 3
ballerinas 3
banquet 3
barbie 3
bark 3
barricades 3
bathed 3
batons 3
bats 3
battling 3
bay 3
bead 3
beagle 3
beans 3
bearer 3
bears 3
beater 3
beats 3
beautifully 3
bee 3
ber 3
best 3
better 3
blacktop 3
blonds 3
blossoming 3
blurry 3
boa 3
boating 3
bordered 3
bordering 3
born 3
bounce 3
bouncer 3
bounces 3
bouncy 3
bowed 3
braces 3
breakfast 3
briefs 3
briskly 3
bulls 3
bumper 3
butchering 3
butt 3
butter 3
cabinet 3
cages 3
cakes 3
camcorder 3
cameramen 3
campaign 3
canes 3
canister 3
canned 3
capes 3
captain 3
captured 3
captures 3
ceramic 3
cereal 3
ch 3
challenge 3
charging 3
chart 3
cheers 3
chew 3
chief 3
clams 3
claw 3
cleats 3
clerk 3
cobbled 3
coin 3
collected 3
collide 3
comb 3
congregated 3
congregating 3
consum@@ 3
contains 3
content 3
cord 3
cords 3
corn@@ 3
corral 3
corridor 3
countertop 3
county 3
coverings 3
cracks 3
craftsman 3
crashed 3
crashes 3
creative 3
crocodile 3
crotch 3
crouch 3
cry 3
crystal 3
cultural 3
curling 3
curtain 3
cushion 3
cutout 3
cycle 3
cycles 3
d 3
darkly 3
darkness 3
darts 3
dealer 3
decals 3
decker 3
ded 3
defends 3
demonstrates 3
dentist 3
depicting 3
der 3
descends 3
desolate 3
digger 3
directed 3
director 3
dishwasher 3
distorted 3
ditch 3
diverse 3
dojo 3
don 3
donuts 3
dorm 3
dozen 3
dreads 3
drenched 3
dried 3
dries 3
drunk 3
ds 3
ducking 3
duffel 3
dugout 3
dumps 3
dunks 3
dustpan 3
dwelling 3
earbuds 3
earring 3
ee 3
effort 3
elbow 3
electrical 3
electrician 3
elementary 3
elevator 3
em 3
enclosed 3
enclosure 3
ends 3
enforcement 3
engages 3
enter 3
enters 3
entertained 3
entertaining 3
entertainment 3
entertains 3
enthusiasm 3
enthusiast 3
equipped 3
et 3
every 3
everywhere 3
exca@@ 3
exit 3
expe@@ 3
expensive 3
explorer 3
explores 3
explosion 3
exposing 3
extends 3
extreme 3
f 3
facade 3
faced 3
families 3
featured 3
fed 3
feed 3
feeds 3
fences 3
ferry 3
festi@@ 3
festive 3
films 3
final 3
fingernail 3
fingertips 3
fist 3
fists 3
fitness 3
flashlight 3
fleece 3
fliers 3
flights 3
flood 3
flooded 3
flotation 3
focuses 3
footprints 3
force 3
forklift 3
formations 3
forrest 3
fortune 3
freeway 3
friendly 3
frog 3
frosting 3
garment 3
gay 3
geese 3
geisha 3
geometric 3
gifts 3
ging 3
golfer 3
gorgeous 3
government 3
graduate 3
granddaughter 3
grandmother 3
graphic 3
greet 3
grid 3
grimacing 3
gripping 3
grooms 3
grouped 3
growing 3
guest 3
gypsy 3
hairnet 3
halloween 3
hamburger 3
hamburgers 3
hammers 3
handful 3
handlebars 3
handmade 3
happening 3
hate 3
hatted 3
headgear 3
healthcare 3
heartbeat 3
hedge 3
heeled 3
highly 3
holidays 3
holing 3
honor 3
hoses 3
housing 3
huddling 3
hurdles 3
huts 3
id 3
ils 3
index 3
infants 3
informal 3
ingly 3
inner 3
interested 3
interior 3
interview 3
intimate 3
investig@@ 3
ironing 3
itself 3
ity 3
jack 3
jackhammer 3
jars 3
jazz 3
jogger 3
jug 3
junk 3
kart 3
kettle 3
key 3
keyboards 3
kicker 3
kinds 3
kissed 3
kit 3
kneel 3
knight 3
knits 3
knives 3
ladle 3
lakeside 3
landmark 3
landsc@@ 3
lassoing 3
latex 3
launch 3
launches 3
launching 3
layered 3
leafy 3
lei 3
leotards 3
lets 3
letter 3
liberty 3
limb 3
limo 3
ling 3
liter@@ 3
littered 3
lives 3
livestock 3
llama 3
lock 3
lollipop 3
long@@ 3
lottery 3
lounges 3
ls 3
mac 3
machete 3
mad 3
maneuver 3
maneuvering 3
maneuvers 3
manhole 3
mannequins 3
manual 3
marina 3
mark 3
marks 3
master 3
me 3
meals 3
measu@@ 3
media 3
meditating 3
ment 3
menus 3
mesmerized 3
metropolitan 3
might 3
miniskirt 3
mirrored 3
mixed 3
mixes 3
mock 3
monks 3
monster 3
moose 3
mopping 3
mosaic 3
mosque 3
mout@@ 3
moved 3
mustached 3
mustachioed 3
napkin 3
natural 3
navigating 3
needed 3
needs 3
nibbling 3
noodle 3
notebooks 3
notice 3
now 3
numbered 3
nursing 3
observed 3
od 3
offers 3
ollie 3
onlooker 3
opportunity 3
organ 3
organized 3
ornament 3
outcropping 3
outfielder 3
outstreached 3
overall 3
overlooks 3
overpass 3
overs@@ 3
pace 3
packages 3
page 3
pages 3
paintball 3
pairs 3
panda 3
panel 3
paneled 3
pant 3
parka 3
parlor 3
participants 3
partner 3
pastel 3
pastor 3
patches 3
patiently 3
patriotic 3
patrol 3
patron 3
pause 3
paving 3
paw 3
paying 3
peaceful 3
penguin 3
pets 3
pierced 3
piercings 3
pitched 3
pitches 3
playhouse 3
pleasant 3
plugging 3
pockets 3
pointy 3
poker 3
poli@@ 3
poncho 3
ponchos 3
ponders 3
ponytails 3
poorly 3
pop 3
popping 3
portraits 3
positions 3
potatoes 3
pouting 3
powerpoint 3
prayer 3
pregnant 3
press 3
presses 3
pressing 3
pretends 3
prevent 3
primitive 3
princess 3
procession 3
professionally 3
propane 3
protester 3
protesters 3
proud 3
proudly 3
provide 3
pruning 3
pulley 3
pump 3
pumpkins 3
pursued 3
quilt 3
r 3
racquet 3
ragged 3
rags 3
railway 3
rainstorm 3
rakes 3
rappelling 3
real 3
recently 3
recliner 3
records 3
rectangular 3
referees 3
refreshing 3
rehearsing 3
related 3
released 3
remove 3
removed 3
removes 3
renaissance 3
representing 3
res 3
responding 3
restaurants 3
retriever 3
reviewing 3
rig 3
ripped 3
rise 3
rises 3
ritual 3
robed 3
rods 3
rooster 3
route 3
rowers 3
ruler 3
salmon 3
samurai 3
sandpit 3
sands 3
sari 3
sat 3
satchel 3
sauna 3
save 3
saxophones 3
schoolgirl 3
scoops 3
scope 3
screams 3
screwdriver 3
se 3
season@@ 3
secre@@ 3
secured 3
seemingly 3
sees 3
selection 3
self 3
services 3
session 3
sexy 3
shaded 3
shading 3
shadowed 3
shake 3
sheepdog 3
shelf 3
shelter 3
shielding 3
shing 3
shots 3
shrimp 3
signal 3
similarly 3
sipping 3
sippy 3
sips 3
sizes 3
skill 3
skillfully 3
skin 3
sleds 3
sleigh 3
slowly 3
smirking 3
snoo@@ 3
snowbank 3
snows 3
sock 3
solar 3
solider 3
sombrero 3
somersault 3
soon 3
sparkler 3
sparklers 3
sparse 3
speakers 3
spectacular 3
spiking 3
spilled 3
spiral 3
spits 3
sponge 3
spreading 3
spreads 3
sprinkled 3
sprinkles 3
sprinkling 3
sprints 3
squat 3
squinting 3
stained 3
states 3
statute 3
staying 3
stethoscope 3
sticker 3
stony 3
straining 3
streaks 3
streams 3
streetlights 3
strewn 3
strobe 3
stroke 3
strumming 3
sts 3
study 3
such 3
suds 3
suite 3
suited 3
sunhats 3
supervis@@ 3
surfboards 3
sweating 3
sweep 3
sweet 3
takeout 3
talkie 3
tambourine 3
tanned 3
tasks 3
tasty 3
taxis 3
telling 3
tells 3
temporary 3
tend 3
tends 3
testing 3
tethered 3
texas 3
thing 3
thread 3
threw 3
tick@@ 3
tickets 3
tiles 3
tobacco 3
toilets 3
took 3
topped 3
toss 3
towed 3
towering 3
transport 3
transporting 3
trap 3
travel@@ 3
treats 3
tricycles 3
trio 3
trips 3
trots 3
trouble 3
trough 3
trumpets 3
ts 3
tuba 3
tulips 3
turbans 3
turtleneck 3
tutus 3
tuxedos 3
tv 3
twigs 3
twilight 3
twirl 3
twirls 3
uncompleted 3
underway 3
unicef 3
uniquely 3
unison 3
unusually 3
upcoming 3
uphill 3
utensils 3
vacant 3
vacuums 3
vaulting 3
veil 3
ver 3
videotapes 3
views 3
vigorously 3
villagers 3
violinist 3
violins 3
vivid 3
wade 3
waited 3
waking 3
walker 3
walkie 3
wallet 3
warmly 3
web 3
welds 3
wheat 3
wheeling 3
whose 3
wildflowers 3
winded 3
wing 3
woodworking 3
wrapping 3
wrist 3
wrong 3
yawning 3
years 3
yed 3
yet 3
youngsters 3
ze 3
zombie 3
zombies 3
% 2
,000 2
00 2
13 2
14 2
2.@@ 2
2008 2
38 2
50 2
63 2
80 2
A. 2
Adult 2
After 2
Airline 2
Airways 2
Alaska 2
Am 2
Angeles 2
Arab 2
Artist 2
Athlete 2
Atlanta 2
Attractive 2
Bald 2
Baltimore 2
Bank 2
Beach 2
Bill 2
Bird 2
Birthday 2
Blurry 2
Brick 2
Bridesmaids 2
Buddhist 2
Business 2
C.@@ 2
Calvin 2
Camp 2
Capris 2
Car 2
Care 2
Castro 2
Central 2
Challenge 2
Chefs 2
Circus 2
Coke 2
Commuters 2
Cooks 2
Cricket 2
Crocs 2
Crouching 2
Cyclone 2
D 2
Dame 2
Dane 2
Darth 2
David 2
Deli 2
Diners 2
Dober@@ 2
Doo 2
Earth 2
Eleven 2
Employees 2
Engine 2
Enrolling 2
Evening 2
Every@@ 2
Factory 2
Fans 2
Farmer 2
Farmers 2
Fast 2
Firemen 2
Flag 2
Foods 2
Forever 2
Free 2
From 2
Gardens 2
Giant 2
Glass 2
Golden 2
Grand 2
Great 2
Groucho 2
Harlem 2
Hea@@ 2
Heineken 2
Hero 2
Holding 2
Hopper 2
Horses 2
Houston 2
Indians 2
Iowa 2
Islamic 2
Italy 2
Jackson 2
James 2
Jesus 2
Jim 2
Jockeys 2
Joggers 2
Johns 2
Kawasaki 2
Kayaker 2
Keep 2
King 2
Kitty 2
Klein 2
LA 2
Las 2
Law 2
Le 2
LeBron 2
Life 2
Lifeguards 2
Live 2
Los 2
Louvre 2
Love 2
MMA 2
Maintenance 2
Marx 2
Medical 2
Michael 2
Michigan 2
Mike 2
Minnesota 2
Most 2
Motorcycle 2
Motorcyclist 2
Mr. 2
Mrs. 2
Music 2
Muzzled 2
Navy 2
Near 2
Needle 2
New@@ 2
Notre 2
Nurses 2
O 2
Oh 2
Ohio 2
Olympians 2
Onlookers 2
Orioles 2
Outdoors 2
Oxford 2
Pabst 2
Pain 2
Painters 2
Paris 2
Patrick 2
Penn 2
Performers 2
Pilot 2
Pipe 2
Pokemon 2
Popsicle 2
Power 2
Profile 2
Q 2
Racing 2
Rail@@ 2
Ribbon 2
Rican 2
Rider 2
Road 2
Rocks 2
Rodgers 2
Roller@@ 2
Rollerblader 2
Russian 2
S 2
SCUBA 2
Samsung 2
Scooby 2
Scouts 2
Scuba 2
Seated 2
Segway 2
Series 2
Sesame 2
Shop 2
Shorts 2
Side 2
Sidewalk 2
Skater 2
Skiiers 2
Sle@@ 2
Snow 2
Soldier 2
Southeast 2
Space 2
Spider 2
Spiderman 2
Standing 2
Star 2
States 2
Stones 2
Stop 2
Story 2
Styrofoam 2
Summer 2
Sunday 2
Sunglasses 2
Sveral 2
Sw@@ 2
Swimmer 2
Swimmers 2
Tall 2
Tank 2
Tea 2
Terrier 2
Thai 2
Their 2
Thomas 2
Thursday 2
Tim 2
Time 2
Top 2
Tree 2
Twister 2
U.S. 2
UFC 2
United 2
VW 2
Vehic@@ 2
Very 2
Veteran 2
Vietnamese 2
Volkswagen 2
Waiting 2
Walkers 2
Walking 2
Walkman 2
Water 2
Waterskier 2
Well 2
Western 2
Wonder 2
Workman 2
YMCA 2
Year 2
Zune 2
able 2
abs 2
accompaniment 2
acrobat 2
acrobatics 2
actions 2
add 2
adds 2
adjacent 2
admire 2
adolesc@@ 2
adolescent 2
ads 2
advent@@ 2
adventure 2
adventurous 2
affection 2
again 2
agit@@ 2
aims 2
album 2
alcoholic 2
alig@@ 2
align 2
aling 2
allow 2
aloft 2
aloud 2
alpine 2
als 2
altitude 2
always 2
amber 2
ambulance 2
amplifier 2
angels 2
animatedly 2
ankle 2
announcement 2
anorak 2
answer 2
anticip@@ 2
antiqu@@ 2
anxiously 2
applauding 2
appreciate 2
approached 2
appropri@@ 2
archaeolo@@ 2
architectural 2
architecture 2
armored 2
arrange 2
array 2
ascends 2
ash@@ 2
asians 2
aside 2
assig@@ 2
assistance 2
assisted 2
assists 2
assorted 2
astoni@@ 2
ately 2
ation 2
atm 2
attaching 2
attack 2
attacked 2
attacking 2
attended 2
attentive 2
atv 2
atyl 2
auditioning 2
average 2
aviator 2
awaiting 2
awk@@ 2
backed 2
backflip 2
backing 2
bad 2
bagel 2
bagpipers 2
bake 2
baker 2
baking 2
bale 2
bales 2
bandage 2
bandannas 2
barbed 2
bares 2
barn 2
barricade 2
based 2
battery 2
batting 2
bazaar 2
bea@@ 2
beaker 2
bean 2
beauty 2
become 2
beds 2
bell 2
bemused 2
bibs 2
bicycler 2
billi@@ 2
binder 2
bins 2
bistro 2
bits 2
blackboard 2
blacksmith 2
blading 2
blank 2
blankly 2
blasts 2
blind 2
blinds 2
bling 2
bloody 2
bloom 2
blooming 2
blue@@ 2
blues 2
blur 2
bly 2
boaters 2
bodies 2
bom@@ 2
bonding 2
bone 2
bonfire 2
bonnet 2
border 2
bored 2
bottled 2
bout 2
boutique 2
bowled 2
bowties 2
brace 2
braid 2
braids 2
breakdances 2
breast 2
breaststroke 2
breeze 2
bridesmaid 2
briefcases 2
brigh@@ 2
bring 2
broccoli 2
brochures 2
brook 2
brothers 2
brownish 2
buck 2
bucked 2
bucks 2
bud@@ 2
buffalo 2
bug 2
builder 2
builds 2
bulldog 2
bullet 2
bump 2
bun 2
bundles 2
bunk 2
burger 2
burying 2
bushel 2
busily 2
busker 2
busking 2
bust 2
buttons 2
buys 2
bystander 2
cac@@ 2
caged 2
calendar 2
calmly 2
camo 2
camps 2
campus 2
candlelight 2
cann@@ 2
canoeing 2
capri 2
captivated 2
capture 2
caravan 2
careful 2
caressing 2
carpenter 2
cartons 2
cashier 2
catamaran 2
cavern 2
ce 2
cell 2
cells 2
cellular 2
cent 2
certific@@ 2
ces 2
challenging 2
ched 2
cheered 2
cheerful 2
chemical 2
chemistry 2
ches 2
chili 2
chimney 2
chinatown 2
chipper 2
chipping 2
chisel 2
chisels 2
chopped 2
choppy 2
choreographed 2
chores 2
churning 2
cing 2
circles 2
circuit 2
circuits 2
citizen 2
civilians 2
cking 2
clasps 2
classical 2
clea@@ 2
clenches 2
clever 2
clicking 2
cliffs 2
climbed 2
clipboard 2
clips 2
clog 2
closing 2
clustered 2
coached 2
coastline 2
coated 2
cob 2
coconut 2
coke 2
cola 2
collap@@ 2
colleagues 2
collision 2
colonial 2
colourful 2
comforter 2
comforts 2
comi@@ 2
comic 2
common 2
compartment 2
competitively 2
completes 2
concentrating 2
concession 2
condi@@ 2
condoms 2
congregation 2
coni@@ 2
consoles 2
consulting 2
consults 2
contained 2
containers 2
contestant 2
contestants 2
contested 2
contingent 2
contorts 2
controlled 2
converses 2
conveyor 2
copies 2
copy 2
cork 2
corre@@ 2
corsage 2
costumed 2
cottage 2
couches 2
could 2
counters 2
coworker 2
crabs 2
cracked 2
crag 2
crammed 2
cramped 2
crayola 2
cream@@ 2
creation 2
creature 2
creepy 2
crow 2
crumbling 2
crushed 2
cs 2
ctantly 2
ctment 2
ctor 2
cucum@@ 2
cue 2
culinary 2
culture 2
cupping 2
curbside 2
curiously 2
custody 2
cutoff 2
cutouts 2
cutter 2
dalmati@@ 2
dandelion 2
dappled 2
daring 2
dash 2
decides 2
deciding 2
decked 2
defending 2
deflated 2
delight 2
delivering 2
demoli@@ 2
dental 2
depicted 2
ders 2
describing 2
designing 2
detail 2
detergent 2
determined 2
dev@@ 2
devil 2
dge 2
dia@@ 2
diamond 2
diap@@ 2
diaper 2
didgerido@@ 2
die 2
diffic@@ 2
dim 2
diners 2
dingy 2
dip 2
diplo@@ 2
direct 2
disa@@ 2
disco 2
discovering 2
discusses 2
distracted 2
district 2
divi@@ 2
dj 2
documents 2
donations 2
doorstep 2
downing 2
downward 2
downwards 2
dragster 2
drain 2
drape 2
drawer 2
drawers 2
drawings 2
dressing 2
dribble 2
drifts 2
drum@@ 2
drummers 2
drumming 2
drunken 2
dueling 2
dumping 2
dut@@ 2
eagle 2
eccentri@@ 2
eclectic 2
ecstatically 2
ees 2
egret 2
elaborately 2
elegant 2
embraces 2
emotion 2
empanadas 2
emptying 2
en 2
ended 2
engaging 2
enjoyed 2
ensemble 2
ensure 2
ent 2
enthusiastic 2
entrepre@@ 2
envelope 2
equ@@ 2
erected 2
escalators 2
espresso 2
ethnicities 2
ets 2
euro 2
european 2
evenly 2
everyone 2
exam 2
examined 2
executes 2
exercises 2
exhau@@ 2
exotic 2
exper@@ 2
experi@@ 2
experiments 2
explains 2
exterior 2
extin@@ 2
ey 2
eyed 2
eyeliner 2
falcon 2
famous 2
fanny 2
fare 2
farming 2
fatigues 2
faux 2
feels 2
fencers 2
ferns 2
fetches 2
fiddles 2
fierce 2
figurines 2
filed 2
filmed 2
fingernails 2
finishes 2
fires 2
fishermen 2
fitting 2
fixture 2
flamboyant 2
flame 2
flap 2
flaps 2
flash 2
flashy 2
flexible 2
flexing 2
flier 2
flinging 2
flipped 2
flow 2
fluid 2
flutes 2
focal 2
folders 2
forearm 2
forehand 2
formally 2
fours 2
frantically 2
freestyle 2
freight 2
frilly 2
fringed 2
frisbe@@ 2
frolic 2
frolics 2
fronds 2
frothy 2
frown 2
frowning 2
frowns 2
function 2
fundraiser 2
funky 2
furiously 2
gallon 2
gambling 2
gap 2
garish 2
garments 2
garter 2
gates 2
ged 2
gerated 2
gig 2
gingerbread 2
gists 2
glances 2
glancing 2
glassy 2
glides 2
glittery 2
glow 2
glowing 2
glue 2
goal@@ 2
golfers 2
goofy 2
graffited 2
grain 2
grains 2
grandparents 2
grasps 2
grate 2
graying 2
graze 2
greenhouse 2
grilled 2
grin 2
grind 2
grinder 2
grinning 2
grips 2
grounds 2
growling 2
grown@@ 2
guidebook 2
guides 2
guiding 2
gyro 2
h 2
hairdo 2
hairdresser 2
hairy 2
halfway 2
hamming 2
hamper 2
handbags 2
handgun 2
handhold 2
handicapped 2
handkerchiefs 2
handled 2
handler 2
handshake 2
hardware 2
harne@@ 2
harvest 2
harvested 2
hatchet 2
haul 2
hazard 2
headdresses 2
header 2
headfirst 2
headlight 2
hedges 2
height 2
hello 2
helper 2
herbs 2
herd 2
heritage 2
hero 2
heron 2
hid 2
hide 2
hides 2
hijab 2
hip 2
hipsters 2
historical 2
hitchhiking 2
hitching 2
hitter 2
hoe 2
hog 2
hoi@@ 2
hokey 2
hollow 2
homes 2
homework 2
hoodies 2
hooked 2
hoping 2
hops 2
horizontal 2
horsemen 2
household 2
hovering 2
hugged 2
humans 2
humping 2
hundreds 2
hunter 2
hurry 2
hurt 2
hydraulic 2
ian 2
ic 2
iced 2
icic@@ 2
icing 2
ics 2
idle 2
ie 2
igloo 2
illu@@ 2
illuminating 2
imitation 2
imm@@ 2
immigration 2
important 2
improvement 2
incense 2
inclined 2
indigenous 2
inflating 2
informally 2
ining 2
ink 2
innertube 2
inno@@ 2
insect 2
inspired 2
instructions 2
instructors 2
international 2
internet 2
intertwin@@ 2
interviews 2
intricate 2
intrigued 2
involves 2
ious 2
irons 2
irritated 2
isle 2
issue 2
izing 2
jackhammers 2
jagged 2
janitor 2
japanese 2
jet@@ 2
jets 2
joggers 2
joking 2
jostle 2
journal 2
jousting 2
joy@@ 2
judge 2
juggle 2
juggler 2
kabo@@ 2
karaoke 2
kayaker 2
keeper 2
kelp 2
kerchief 2
kickboxer 2
kill 2
kimono 2
kitt@@ 2
knitted 2
knock 2
knol@@ 2
knotted 2
ky 2
labradoodle 2
lace 2
lack 2
language 2
laps 2
lapse 2
later 2
latin 2
lation 2
lava 2
lavender 2
law 2
leader 2
leaped 2
learn 2
learns 2
leashed 2
leave 2
lego 2
leisurely 2
lemonade 2
less@@ 2
lettering 2
letting 2
lettuce 2
licked 2
lifeguards 2
lighthouse 2
likes 2
limbs 2
linens 2
list 2
lizard 2
ll 2
loader 2
loaf 2
locker 2
lockers 2
locomotive 2
locomotives 2
lodge 2
london 2
loses 2
loudspeaker 2
lovers 2
lowering 2
ma 2
magic 2
magician 2
mail 2
mainly 2
maintain 2
maintained 2
mallet 2
management 2
mane 2
manicured 2
manipu@@ 2
manner 2
mantle 2
manu@@ 2
manure 2
maple 2
maracas 2
mariachi 2
marshal 2
mart 2
martini 2
masonry 2
mass 2
massage 2
masses 2
masterpiece 2
matador 2
matches 2
math 2
mattresses 2
mauve 2
meats 2
med@@ 2
medals 2
median 2
melon 2
melons 2
memorabilia 2
messages 2
met 2
metalworking 2
meter 2
mexican 2
milling 2
mime 2
mine 2
miners 2
mingle 2
mingling 2
mirrors 2
miscellaneous 2
mischie@@ 2
missed 2
misty 2
mixture 2
mob 2
modeling 2
mold 2
mood 2
moon 2
moored 2
moss 2
motions 2
mounds 2
mount 2
mouth@@ 2
mover 2
mowed 2
mugs 2
mulch 2
multitasking 2
murals 2
mushroom 2
mustang 2
names 2
natives 2
navigate 2
nears 2
neatly 2
necks 2
necktie 2
need 2
neighbors 2
newsc@@ 2
ney 2
nibbles 2
ninja 2
nips 2
non 2
normal 2
nuts 2
oars 2
oblivious 2
obsc@@ 2
obstruc@@ 2
occasion 2
occurred 2
oddly 2
offer 2
offered 2
officials 2
olympics 2
om 2
oncoming 2
ons 2
op 2
openings 2
operate 2
opinions 2
origin 2
ornamental 2
ous 2
outboard 2
overcast 2
owl 2
owned 2
ox 2
oxygen 2
packs 2
paddled 2
paddlers 2
pajama 2
palace 2
pamph@@ 2
pancakes 2
pane 2
paperback 2
parachutist 2
paraphernalia 2
parasail 2
parks 2
parrot 2
participant 2
particular 2
passer 2
pastry 2
pasture 2
patchy 2
patrolling 2
patties 2
pean@@ 2
pearls 2
pebbles 2
ped@@ 2
pedals 2
pedd@@ 2
peddling 2
peek 2
peep 2
pelican 2
penguins 2
peop@@ 2
peppers 2
percussion 2
period 2
peruses 2
pf 2
pharmacy 2
pies 2
pigs 2
pineapple 2
pineapples 2
placard 2
placid 2
plan 2
planes 2
plaque 2
plaster 2
platforms 2
platter 2
plow 2
plume 2
plywood 2
podiums 2
pollution 2
pomeranian 2
pompoms 2
populated 2
pork 2
port@@ 2
possible 2
postcards 2
poultry 2
pounces 2
pouncing 2
pout 2
powdered 2
pray 2
prepping 2
preschool 2
presented 2
presumably 2
pretend 2
pretzels 2
previously 2
price 2
private 2
proclaim 2
programs 2
projection 2
prop 2
propeller 2
proper@@ 2
props 2
protectors 2
puff 2
punches 2
putt 2
puzzled 2
quartet 2
question 2
questions 2
quietly 2
quilted 2
rackets 2
racks 2
rad 2
raging 2
ran 2
rates 2
rather 2
raw 2
reacting 2
reaction 2
reason 2
received 2
recent 2
reclining 2
reco@@ 2
recorder 2
recycling 2
reena@@ 2
reflecting 2
reflections 2
reflects 2
refreshments 2
refri@@ 2
refuge 2
region 2
registered 2
relaxed 2
release 2
releases 2
releasing 2
reluctant 2
rema@@ 2
remember 2
repairman 2
repelling 2
reporter 2
reporters 2
rescue 2
researchers 2
resem@@ 2
residence 2
residential 2
resour@@ 2
respective 2
respectively 2
restaraunt 2
retrieve 2
ribs 2
rid 2
rifles 2
rinsing 2
ripp@@ 2
rising 2
risk 2
riverbed 2
rocker 2
rocket 2
role 2
rollerblader 2
room@@ 2
roots 2
rose 2
routines 2
rugged 2
rushing 2
rust 2
rusted 2
ry 2
saddled 2
safely 2
sales 2
salesman 2
saluting 2
samples 2
sandwiches 2
sash 2
sauce 2
saucer 2
sausage 2
saving 2
sax 2
scaffolds 2
scan 2
scary 2
schools 2
scientific 2
scores 2
scoring 2
scrabble 2
scramble 2
scrapping 2
screened 2
screens 2
scrimmage 2
scrubbing 2
scruffy 2
scythe 2
seal 2
seamstress 2
seas 2
sections 2
secure 2
secures 2
securing 2
sed 2
sedan 2
selections 2
selects 2
seminar 2
sending 2
sends 2
separated 2
separates 2
sequence 2
serene 2
serious 2
setup 2
sew 2
sewer 2
sews 2
sh 2
shabby 2
shacking 2
shadowy 2
shampoo 2
shawls 2
shift 2
shined 2
shish 2
shoelaces 2
short@@ 2
should 2
shouts 2
showcasing 2
showers 2
showgirl 2
shrine 2
shrubbery 2
shu@@ 2
shuffles 2
shut@@ 2
sibling 2
sideline 2
sidewalks 2
silk 2
silverware 2
simple 2
simply 2
simultaneously 2
sisters 2
sites 2
situation 2
size 2
sketch 2
skim 2
skit 2
skulls 2
skyscraper 2
slalom 2
slamming 2
slan@@ 2
sledgehammer 2
sleepy 2
sliced 2
slim 2
slin@@ 2
sling 2
slingshot 2
slips 2
slou@@ 2
slow 2
slu@@ 2
slumped 2
slung 2
smear 2
smelling 2
smock 2
snail 2
snarling 2
snoopy 2
snorkeling 2
snowdrift 2
snowflakes 2
snowmobile 2
snowmobiling 2
snowshoe 2
snowstorm 2
snowsuits 2
snuggling 2
soaked 2
soaking 2
soapy 2
sodas 2
softly 2
solid 2
somebody 2
sou@@ 2
source 2
sous 2
spa 2
spaghetti 2
spare 2
sparks 2
sparsely 2
spattered 2
specialized 2
specific 2
speckled 2
spend 2
spending 2
spher@@ 2
spiky 2
spinner 2
spirit 2
splits 2
spoons 2
spotlights 2
spout 2
squash 2
squirrel 2
squirted 2
squirts 2
ss 2
ssed 2
sses 2
ssing 2
st 2
stainless 2
stake 2
starfish 2
started 2
state 2
steal 2
steals 2
sted 2
steeplechase 2
steering 2
stem 2
stock 2
stoops 2
stopping 2
stories 2
stout 2
streamers 2
streaming 2
stricken 2
strips 2
struggle 2
strums 2
strung 2
stumbling 2
stunning 2
styled 2
styling 2
stylist 2
subject 2
submerges 2
sucker 2
sucks 2
sunflower 2
super 2
superior 2
supervision 2
supported 2
supports 2
surfboarder 2
surprised 2
sushi 2
suspect 2
suspension 2
swaddled 2
swallowing 2
sweat 2
sweatpants 2
sweets 2
swerves 2
swir@@ 2
swoops 2
sword@@ 2
swung 2
symphony 2
syrup 2
tabl@@ 2
tackler 2
tail@@ 2
tambourines 2
taped 2
taping 2
targets 2
teachers 2
teaches 2
tear 2
tears 2
technical 2
technician 2
teeter 2
ten 2
ter 2
terminals 2
tests 2
textile 2
th 2
thatched 2
then 2
thong 2
thorugh 2
thought@@ 2
thousands 2
throat 2
throughout 2
tilted 2
tilts 2
timber 2
times 2
tin 2
tinsel 2
tinted 2
tion 2
tions 2
tipped 2
tipping 2
toenails 2
toes 2
toil 2
toll 2
tongues 2
tortillas 2
tot@@ 2
tote 2
toting 2
trade 2
trading 2
trails 2
transformer 2
travelling 2
traverse 2
treads 2
treatment 2
treed 2
treeless 2
trekking 2
trendy 2
tress 2
tri 2
trim 2
trinkets 2
troop 2
trooper 2
true 2
tucked 2
tugs 2
turbulent 2
ture 2
turf 2
turkeys 2
turn@@ 2
tux 2
twenty 2
twin 2
twins 2
twister 2
typewrit@@ 2
ued 2
underside 2
unfriendly 2
union 2
unkempt 2
unlo@@ 2
unload 2
unwraps 2
upraised 2
upturned 2
ure 2
urinal 2
uring 2
varied 2
vase 2
vat@@ 2
vault 2
vely 2
version 2
vessel 2
victim 2
view@@ 2
vine 2
ving 2
violence 2
violet 2
vision 2
visit 2
volcano 2
volkswagen 2
volunteer 2
volunteers 2
waffle 2
wagons 2
wakeboarding 2
wakeboards 2
wand 2
wands 2
wanting 2
wants 2
ward 2
warmers 2
warrior 2
washers 2
watered 2
waterfalls 2
waterproof 2
watery 2
wavy 2
web@@ 2
weight@@ 2
weights 2
welder 2
western 2
wetland 2
whisking 2
white@@ 2
wielding 2
wildfire 2
windowsill 2
winds 2
windsurfer 2
wineglass 2
winks 2
witne@@ 2
wits 2
wok 2
wonder@@ 2
wondering 2
worked 2
workmen 2
worn 2
worried 2
worshi@@ 2
would 2
wounds 2
wrangle 2
wre@@ 2
wrench 2
wrestles 2
wristband 2
wrists 2
ya@@ 2
yells 2
zigzag 2
zooms 2
$ 1
&apos;oeu@@ 1
.a 1
0 1
0095 1
08 1
0s 1
100 1
100@@ 1
10@@ 1
126 1
145 1
16 1
18@@ 1
18th 1
19 1
1950 1
195@@ 1
2010 1
20th 1
21 1
22 1
25 1
25@@ 1
27 1
28 1
281 1
30s 1
33 1
34 1
35 1
39 1
3d 1
40 1
40s 1
41 1
43 1
44 1
46 1
49ers 1
4th 1
5003 1
52 1
53 1
58 1
5K 1
60s 1
661 1
697 1
70 1
84 1
85 1
93 1
94 1
95@@ 1
96 1
96@@ 1
= 1
AA@@ 1
ACE 1
AGAIN 1
AIDS 1
AMC 1
AND 1
ARRIVO 1
ATMs 1
AVEDA 1
Aaron 1
Aberdeen 1
Accompani@@ 1
Acro@@ 1
Actors 1
Acura 1
Adidas 1
Adirondack 1
Adobe 1
Adol@@ 1
Aerial 1
Aeropostale 1
Africans 1
Aga@@ 1
Aggressive 1
Ahead 1
Air 1
Aladdin 1
Alley 1
Alliance 1
Ally 1
Amble 1
Ambulance 1
Ample 1
Amput@@ 1
Amsterdam 1
Anaheim 1
Angles 1
Animaniacs 1
Anne 1
Annual 1
Applebee 1
Approxi@@ 1
Arabian 1
Arc 1
Arch 1
Archaeolo@@ 1
Are 1
Argent@@ 1
Ariel 1
Armed 1
Armen@@ 1
Arms 1
Arsenal 1
Art@@ 1
Artisan 1
Artists 1
Astro 1
AstroTurf 1
Au 1
Audi 1
Aurora 1
Australi@@ 1
Auto 1
Available 1
Average 1
Avril 1
Axe 1
B 1
B.@@ 1
BBQ 1
BUA 1
Back 1
Bag 1
Baker 1
Ballerina 1
Ballerinas 1
Ballet 1
Barbecue 1
Bare 1
Bare@@ 1
Barker 1
Barney 1
Barret 1
Basking 1
Bass 1
Bay 1
Bear 1
Bears 1
Beat@@ 1
Beer 1
Before 1
Beijing 1
Bell 1
Bellingham 1
Benatar 1
Beside 1
Bespectacled 1
Best 1
Bicycle 1
Bieber 1
Bienvenue 1
Biker 1
Bills 1
Billy 1
Binky 1
Birmingham 1
Blackberry 1
Blacks 1
Blading 1
Blake 1
Block 1
Blockbuster 1
Blowing 1
Bmx 1
Boat 1
Bollywood 1
Bon 1
Boombox 1
Booth 1
Border 1
Boss 1
Bowling 1
Boxes 1
Bradford 1
Braun 1
Brazil@@ 1
Bread 1
Brenmark 1
Brewing 1
Bride 1
Bridges 1
Bright 1
Brightly 1
Britain 1
Broad 1
Broadway 1
Bronislaw 1
Bruce 1
Bryant 1
Bubble 1
Bucks 1
Buddha 1
Budweiser 1
Bug 1
Bugs 1
Building 1
Bum 1
Bunches 1
Bunny 1
Burberry 1
Burger 1
Burka 1
Burning 1
Busch 1
Bush 1
Buster 1
Buy 1
By@@ 1
CASQUE 1
CD 1
CYFD 1
Cab@@ 1
Cadillac 1
Camelbak 1
Camels 1
Campers 1
Canada 1
Candy 1
Canyon 1
Capitol 1
Carcassonne 1
Care@@ 1
Carhartt 1
Cariboos 1
Carnegie 1
Carnival 1
Carol 1
Carolina 1
Casino 1
Casterol 1
Castle 1
Caucasians 1
Cello 1
Celtics 1
Centre 1
Cha@@ 1
Chan 1
Channel 1
Cheap 1
Cheesecake 1
Chef 1
Chelsea 1
Cher 1
Chevrolet 1
Chevron 1
Chevy 1
Chi 1
Chica@@ 1
Chiefs 1
Childern 1
ChinaTo@@ 1
Chinatown 1
Choir 1
Chri@@ 1
Christian 1
Chung 1
Church 1
Cigar 1
Cirque 1
Citi@@ 1
Cityscape 1
Cla@@ 1
Classic 1
Clause 1
Clear 1
Clim@@ 1
Clippers 1
Club 1
Clydesdale 1
Coaches 1
Code 1
Coeds 1
Cold 1
Collector 1
Color 1
Color@@ 1
Colored 1
Columbia 1
Comcast 1
Comical 1
Comment@@ 1
Commut@@ 1
Compact 1
Compet@@ 1
Computer 1
Concords 1
Conference 1
Confetti 1
Connah 1
Connie 1
Contor@@ 1
Convention 1
Converse 1
Cooking 1
Corgis 1
Corp 1
Costa 1
Costco 1
Costumed 1
Counselors 1
Country 1
County 1
Couples 1
Cowboys 1
Craftsman 1
Cream 1
Cristy 1
Crou@@ 1
Cruz 1
Cul@@ 1
Cunningham 1
Cure 1
Cycling 1
Cyclist 1
Cyclothon 1
Cyranka 1
D. 1
DAHLAK 1
DEMOS 1
DHL 1
DIEGO 1
DIO 1
DMC 1
DOWN 1
DU 1
DVD 1
Da 1
Dachshund 1
Daniels 1
Dare@@ 1
Dave 1
De 1
Dead 1
Deep 1
Deer 1
Deleon 1
Delivery 1
Delwood 1
Demonstrators 1
Dennis 1
Department 1
Depressed 1
Dept. 1
Derby 1
Designer 1
Diet 1
Different 1
Digital 1
Dilapidated 1
Diner 1
Dior 1
Dirty 1
Discount 1
Do 1
Doc@@ 1
Dodgers 1
DollHouse 1
Domin@@ 1
Domingo 1
Domino 1
Donald 1
Dorado 1
Dorothy 1
Down 1
Downhill 1
Downtown 1
Dr 1
Dr. 1
Dressing 1
Driver 1
Dro@@ 1
Dut@@ 1
E 1
E.@@ 1
EC 1
EL 1
ELOIN 1
END 1
Ear@@ 1
Easy 1
Ebay 1
Eddies 1
Egy@@ 1
Egypti@@ 1
Eiffel 1
Eik 1
El 1
Elton 1
Em 1
Employ@@ 1
End 1
Energizer 1
Enforcement 1
England 1
Engli@@ 1
Enjoying 1
Ensuring 1
Enterta@@ 1
Espani@@ 1
Euro 1
Euros 1
Event 1
Exodus 1
Express 1
Exuma 1
F 1
FC 1
FROG 1
Facial 1
Fair 1
Fairway 1
Falcons 1
Fame 1
Fancy 1
Farmosa 1
Farms 1
Fashioned 1
Fasten@@ 1
Fat 1
Fatig@@ 1
FedEx 1
Females 1
Fence 1
Ferris 1
Fest 1
Festival 1
Fidel 1
Field 1
Finally 1
Finley 1
Fired 1
Firefox 1
Fireworks 1
Fisher 1
Fishmonger 1
Fitness 1
Flags 1
Florida 1
Flowers 1
Force 1
Fore@@ 1
Former 1
Fort 1
Foursome 1
Francisco 1
Frank 1
Friday 1
Frog 1
Front 1
Fruit 1
Fulton 1
Fun@@ 1
Fur@@ 1
GAP 1
GIGOLO 1
GONTAGA 1
GRAHAM 1
GameCube 1
Garden 1
Garden@@ 1
Gateway 1
Gators 1
Gay 1
Geishas 1
Gelados 1
Genocide 1
Genpac 1
Gentlemen 1
Geography 1
Germany 1
Getting 1
Ghand@@ 1
Ghostbusters 1
Giants 1
Gidday 1
Ginger 1
Giorgio 1
GlamWiki 1
Gloved 1
Goalie 1
God 1
Golfer 1
Gomez 1
Grace 1
Graffiti 1
Gran@@ 1
Grandfather 1
Grandmas 1
Grandpa 1
Graphics 1
Gras 1
Graying 1
Greenpeace 1
Griffin 1
Grill 1
Grizzles 1
Groom 1
Grouch 1
Ground 1
Guards 1
Guitarist 1
Gwan 1
Gyro 1
H 1
HO 1
HSBC 1
Habitat 1
Hair 1
Haiti 1
Half 1
Hall 1
Han@@ 1
Handbook 1
Hands 1
Handyman 1
Happily 1
Harley 1
Harrod 1
Hart 1
Hawkeyes 1
Head 1
Heal 1
Health 1
Heat 1
Hebrew 1
Helicopter 1
Hello 1
Hendrix 1
Herds 1
Highway 1
Hiker 1
Hilfiger 1
Hill 1
Hind@@ 1
Hindi 1
Hippie 1
Hmong 1
Hodo 1
Holmgren 1
Hopefully 1
Horse 1
Hot 1
House 1
How 1
Huckabee 1
Hug 1
Huge 1
Hugs 1
Hulk 1
Human 1
Humanity 1
Hundreds 1
Hungry 1
Hunt 1
Husband 1
Husky 1
Hyatt 1
ICE 1
Ices 1
Identi@@ 1
If 1
Ike@@ 1
Image 1
Incredible 1
Individu@@ 1
Indoors 1
Infan@@ 1
Info 1
Inju@@ 1
Inn 1
Inside 1
Inspe@@ 1
Ipod 1
Iran 1
Irish 1
Is 1
Isra@@ 1
Israel 1
Isuzu 1
Its 1
Iz@@ 1
Izabella 1
JAL 1
JP 1
Jacket 1
Jackie 1
Jacks 1
Jaguar 1
Janitor 1
Jasm@@ 1
Javelin 1
Jazz 1
Jeep 1
Jeeps 1
Jer@@ 1
Jers@@ 1
Jet 1
Jewel@@ 1
Jimi 1
Jobs 1
Jockey 1
Joker 1
Judea 1
Jul@@ 1
Jumbotron 1
Jump 1
Jumps 1
Justice 1
Justin 1
KISS 1
Karaoke 1
Karate 1
Karlova 1
Kayak 1
Kayaking 1
Kenji 1
Kennington 1
Kenya 1
Kenyan 1
Kerry 1
Khaki 1
Kicking 1
Kilburn 1
Killer 1
Kills 1
Kites 1
Klaus 1
Koffee 1
Kok 1
Komo@@ 1
Komorowski 1
Kuthhoop 1
Kwon 1
L.@@ 1
LEGO 1
LUCKY 1
La 1
LaFayette 1
Lab 1
Labor 1
Labrador 1
Lacrosse 1
Ladies 1
Lambs 1
Lampard 1
Lasts 1
Latinos 1
Laura 1
Lavigne 1
Laying 1
Leaf 1
Leak 1
Lets 1
Levi 1
Lewis 1
Lexmark 1
Liberty 1
Library 1
Lille 1
Lincoln 1
Line 1
Liverpool 1
Living 1
Located 1
Longboard 1
Longhorns 1
Look 1
Lot 1
Lou 1
Louis 1
Lounge 1
Lovely 1
Lug@@ 1
Luke 1
Lum@@ 1
Lunch 1
Lyppens 1
MAKE 1
ME 1
MUSI@@ 1
MY 1
Mac 1
MacBook 1
Machine 1
Machu 1
Madagascar 1
Madison 1
Madrid 1
Mae 1
Magpie 1
Main 1
Males 1
Mang 1
Mango 1
Map@@ 1
Marching 1
Mardi 1
Margarit@@ 1
Mariachi 1
Maritime 1
Mark 1
Marley 1
Marlins 1
Marquette 1
Marshmal@@ 1
Martins 1
Marug@@ 1
Marvel 1
Matt 1
Mature 1
May 1
Mayores 1
Mazda 1
McCain 1
Mcdonal@@ 1
Medieval 1
Melanie 1
Mellon 1
Memorial 1
Mercury 1
Messi 1
Metro 1
Mignon 1
Miller 1
Minivan 1
Minneapolis 1
Minny 1
Mohegan 1
Moms 1
Mongolian 1
Monk 1
Monster 1
Mooring 1
Morgan 1
Morning 1
Morse 1
Mountain 1
Mud 1
Multipurpose 1
Muscular 1
Musician 1
Muslims 1
Mustached 1
Mustangs 1
Mutual 1
My 1
Mystery 1
N.Y. 1
NERF 1
NEVER 1
NFL 1
NOISE 1
NY@@ 1
NYPD 1
Names 1
Nan@@ 1
Nancy 1
Nathalie 1
Naval 1
Negro 1
Neigh@@ 1
Nescaf@@ 1
Nesquik 1
Neuroscience 1
Nevada 1
Newly 1
Next 1
Nic@@ 1
Nikon 1
Noble 1
Nor@@ 1
North 1
Nottingham 1
November 1
Number 1
OBLIGATOIRE 1
OR 1
OU 1
OUT 1
Oakland 1
Observers 1
Oceanside 1
Odd 1
Odeon 1
Officers 1
On@@ 1
Opening 1
Opp@@ 1
Orca 1
Orchestra 1
Oregon 1
Oreos 1
Organ 1
Orient 1
Orphans 1
Oscar 1
Ourense 1
Outback 1
Outdoor 1
Outside 1
Overlooking 1
Overweight 1
Ow 1
Ozzy 1
P 1
P. 1
PADDINGTON 1
PC 1
PENSKE 1
PNC 1
PORT 1
Pacific 1
Packers 1
Paddlers 1
Paddy 1
Pair 1
Panasonic 1
Panel 1
Panthers 1
Papa 1
Para 1
Parking 1
Partici@@ 1
Party 1
Passengers 1
Passersby 1
Pastry 1
Pat 1
Patrol 1
Patrons 1
Pee 1
Peeking 1
Peeps 1
Pelosi 1
Peloton 1
Penske 1
Peoop@@ 1
Peop@@ 1
Pepper 1
Performing 1
Peri@@ 1
Perla 1
Persons 1
Peter 1
Peterson 1
Petronas 1
Peugeot 1
Phoenix 1
Phone 1
Photographer 1
Photojournalist 1
Physi@@ 1
Picchu 1
Pictures 1
Pigeon 1
Pink 1
Pioneer 1
PitBull 1
Placing 1
Playboy 1
Playing 1
Please 1
Pod 1
Polaris 1
Police@@ 1
Pop 1
Popcorn 1
Pope 1
Pops 1
Portland 1
Portuguese 1
Post 1
Pot@@ 1
Potato 1
Prar@@ 1
Prayer 1
Precision 1
Pregnant 1
Preparing 1
Preteen 1
Pretty 1
Prince 1
Princess 1
Prius 1
Propane 1
Protective 1
Protesting 1
Psyduck 1
Pug 1
Puma 1
Puppies 1
Quarterback 1
Quattro 1
Quinn 1
Quitting 1
Quiznos 1
R 1
RN 1
ROCKS 1
RONA 1
RV 1
RVS 1
Rabo@@ 1
Racer 1
Raclette 1
Radeo 1
Radio 1
Rafts 1
Raids 1
Raining 1
Rally 1
Random 1
Ranger 1
Rav@@ 1
Rawlings 1
Rays 1
Ready 1
Redhead 1
Redheaded 1
Reena@@ 1
Refle@@ 1
Regal 1
Regency 1
Reindeer 1
Relaxing 1
Relig@@ 1
Repairing 1
Reporter 1
Rescue 1
Restaurant 1
Return 1
Revel@@ 1
Revol@@ 1
Rhin@@ 1
Richardson 1
Riders 1
Riding 1
Right 1
Riot 1
Ritz 1
RoadWork 1
Robbins 1
Rock 1
Rod 1
Roller 1
Ron 1
Room 1
Roosevelt 1
Rou@@ 1
Row 1
Rows 1
Ruby 1
Runner 1
Running 1
Rus@@ 1
Russell 1
Ryan 1
S.@@ 1
SAN 1
SLEEP 1
SMU 1
SOME 1
SUCKS 1
SVA 1
SWAT 1
SWATCH 1
SXSWO 1
Sailboats 1
Sallie 1
Salvation 1
Salyo 1
Samar@@ 1
San 1
Sandwich 1
Sandy 1
Sanitation 1
Santo 1
Sara 1
Saris 1
Saxophone 1
Scan@@ 1
Schipper 1
Schwinn 1
Sci@@ 1
Scout 1
Screaming 1
Sea 1
Seag@@ 1
Seahaw@@ 1
Seahawks 1
Sedan 1
Seen 1
Seiko 1
Selena 1
Sem@@ 1
Serena 1
Seuss 1
Shakespeare 1
Sheepdog 1
Shell 1
Sheltie 1
Shepard 1
Shepherds 1
Shes 1
Shi@@ 1
Shier 1
Shine 1
Shipping 1
Shirt 1
ShoeGasm 1
Show 1
Siberian 1
Silk 1
Similarly 1
Skateboarders 1
Skaters 1
Ski 1
Sky 1
Sled 1
Slowly 1
Smoke 1
Smoked 1
Smoothies 1
Snowboarders 1
Soc@@ 1
Solders 1
Solei 1
Somewhere 1
Sonoma 1
Sooner 1
Sorv@@ 1
Sourdough 1
Sox 1
Soy 1
Sparks 1
Sparrow 1
Spartans 1
Spea@@ 1
Speedos 1
Spla@@ 1
Sport 1
SportsCenter 1
Spring 1
Springsteen 1
Sprite 1
Spyder 1
Stanford 1
Staples 1
Starting 1
Steakhouse 1
Steers 1
Steph 1
Stevie 1
Stewart 1
Sting 1
Stitch 1
Stonehurst 1
Store 1
String 1
Stripe 1
Stuff 1
Subaru 1
Subjects 1
Subs 1
Such 1
Sudan 1
Sugarland 1
Suit 1
Sun 1
Sun@@ 1
Superman 1
Surfers 1
Surgeons 1
Surrounded 1
Swan 1
Swi@@ 1
Swimming 1
Swit@@ 1
TEAM 1
TELL 1
THEFACESHOP 1
TRi@@ 1
TV@@ 1
TW@@ 1
Tab 1
Tae 1
Tai@@ 1
Takes 1
Taking 1
Tambor 1
Tan 1
Tannehill 1
Target 1
Tartuffe 1
Tattooed 1
Taxis 1
Tea@@ 1
Teaching 1
Tebow 1
Tech 1
Teenager 1
Teens 1
Tehelka 1
Television 1
Temporary 1
Ten 1
Tent 1
Terrain 1
Terrible 1
Teva 1
Texans 1
Thailand 1
That 1
Theater 1
Theatre 1
Thorn 1
Thre 1
Thriller 1
Ti 1
Tickets 1
Tigger 1
Tinker@@ 1
Tired 1
Tissues 1
To 1
Tommy 1
Tools 1
Torah 1
Torch 1
Toronto 1
Touchdown 1
Tournament 1
Tower 1
Toy 1
Trader 1
Traffic 1
Train 1
Tri 1
Tribe 1
Trucks 1
Trying 1
Turkey 1
Turkish 1
Twos 1
U 1
U.@@ 1
UNICEF 1
UTEP 1
UV 1
UW 1
Ugg 1
Ukraini@@ 1
Ultimate 1
Uniformed 1
Union 1
Urban 1
Urdu 1
V 1
VHS 1
Vader 1
Variety 1
Vegetable 1
Ven@@ 1
Verizon 1
Vespa 1
Victori@@ 1
Victoria 1
Vienna 1
Viewed 1
Vikings 1
Vil@@ 1
Vinci 1
Violin 1
Violinist 1
Vira 1
Virou 1
Visitors 1
Voice 1
VolleyBall 1
Volleyball 1
Volunte@@ 1
Volvo 1
Vons 1
Vuitton 1
WALK 1
WAR 1
WELCOME 1
WHY 1
Wader 1
Waist 1
Waitress 1
Walgreens 1
Walter 1
War 1
Warrior 1
Watch 1
Watcher 1
Wearing 1
Wedding 1
Wee 1
Weezer 1
Wells 1
Wendy 1
Whack 1
What 1
Whatever 1
Wheel 1
Wheels 1
When 1
Where 1
Whi@@ 1
Whole 1
Wiggles 1
Williams 1
Wine 1
Wisconsin 1
Wood 1
Wooden 1
Working 1
World 1
Worlds 1
Yanke@@ 1
Yankees 1
Yar@@ 1
Yongsan 1
Yorkie 1
Youngsters 1
Your 1
Youth 1
Ypoung 1
Zales 1
Zoo 1
abandon 1
abdomen 1
abound 1
abroad 1
abstra@@ 1
acce@@ 1
accel@@ 1
accept 1
accepts 1
access@@ 1
accomm@@ 1
accordions 1
account 1
accross 1
accurate 1
acid 1
acorn 1
acqua@@ 1
acrobats 1
active 1
actresses 1
acts 1
acy 1
adamantly 1
adjustment 1
admired 1
admits 1
adobe 1
adop@@ 1
adult&apos; 1
adultho@@ 1
advan@@ 1
advance 1
advertised 1
advice 1
advocacy 1
aeri@@ 1
aerodyna@@ 1
afar 1
affair 1
affected 1
affecting 1
affectionately 1
afloat 1
africa 1
africans 1
afro 1
aft 1
aftermath 1
againe@@ 1
aggressi@@ 1
aghast 1
agri@@ 1
agu@@ 1
aimed 1
ain 1
ains 1
aircrew 1
aired 1
airfield 1
airline 1
airman 1
airplanes 1
airwoman 1
alarm 1
alert 1
alfresco 1
alist 1
ality 1
alized 1
alle@@ 1
allig@@ 1
alling 1
allowing 1
allude 1
alot@@ 1
alpa@@ 1
alpha@@ 1
already 1
altar 1
alter 1
altering 1
amazed 1
amazement 1
ameras 1
america 1
amorous 1
amph@@ 1
amput@@ 1
amusing 1
ance 1
ances 1
anchor 1
anger 1
angles 1
angri@@ 1
angst 1
animat@@ 1
ankl@@ 1
anni@@ 1
anno@@ 1
annual 1
ant 1
antel@@ 1
anten@@ 1
anterior 1
anti 1
antled 1
antlers 1
anything 1
aped 1
apes 1
apiece 1
aping 1
appalled 1
apparently 1
appetiz@@ 1
applause 1
application 1
apprehend 1
apprentice 1
arbo@@ 1
arboards 1
arbor 1
arched 1
archer 1
arches 1
arching 1
archways 1
arcs 1
arctic 1
ards 1
aren 1
armbands 1
armchair 1
armstand 1
arrangements 1
arranging 1
arrest 1
arrest@@ 1
arresting 1
arriving 1
arrows 1
articles 1
artifact 1
asc@@ 1
ask 1
asked 1
asks 1
aspar@@ 1
aspi@@ 1
assembles 1
assembling 1
assess 1
assist 1
assistants 1
assume 1
aster 1
asters 1
astride 1
atative 1
atched 1
athelete 1
athletics 1
ations 1
atives 1
atmosp@@ 1
atomic 1
ators 1
ats 1
attach 1
attempted 1
attendees 1
attends 1
attractions 1
attrative 1
ature 1
auburn 1
auction 1
auda@@ 1
auth@@ 1
author@@ 1
autograph@@ 1
automati@@ 1
automobil@@ 1
avenue 1
avrovulcan.com 1
awar@@ 1
awe@@ 1
axes 1
babush@@ 1
backdropped 1
backgammon 1
backpacker 1
backpackers 1
backpacking 1
backside 1
backup 1
bagg@@ 1
bagging 1
baggy 1
bail 1
bailing 1
bait 1
balled 1
ballgame 1
balling 1
ballons 1
ballot 1
ballroom 1
balm 1
ban 1
bandaged 1
bandmate 1
bands 1
bandshell 1
bandstand 1
bangs 1
banister 1
banjos 1
bapti@@ 1
barbecued 1
barbecues 1
barbell 1
barbers 1
bardier 1
bared 1
barge 1
baring 1
barista 1
barker 1
barks 1
barred 1
barricaded 1
barrows 1
bas 1
basemen 1
bases 1
basin 1
bask 1
basks 1
bassi@@ 1
batch 1
bathe 1
bather 1
bathes 1
bathrobes 1
bathrooms 1
batic 1
bator 1
batsman 1
battered 1
beach@@ 1
beak 1
beakers 1
beanbag 1
beanbags 1
beanches 1
bear@@ 1
beaters 1
becomes 1
bedro@@ 1
bedspread 1
beech 1
beet@@ 1
begg@@ 1
begs 1
behalf 1
bells 1
belong 1
belonging 1
ben 1
benefit 1
bering 1
berjack 1
berline 1
bermu@@ 1
bern@@ 1
berries 1
berry 1
bers 1
bespectacled 1
bet 1
bets 1
biek 1
bies 1
big@@ 1
bikina 1
bikins 1
billboards 1
billowing 1
bills 1
billy 1
binding 1
bing 1
bingo 1
binocular 1
biohazard 1
biplane 1
birdcage 1
birdie 1
birth 1
biscuit 1
bison 1
bitten 1
bitter 1
blacked 1
blacksmith@@ 1
blader 1
blast 1
blazing 1
ble 1
bleached 1
bleacher 1
bled 1
bleeding 1
blemish 1
blended 1
blender 1
bles 1
blew 1
blinded 1
blindfolds 1
blossom 1
blossoms 1
blowtorch 1
blueish 1
bluish 1
blush 1
boarders 1
bobbing 1
bobsled 1
bocce 1
bodyboarder 1
bodyless 1
bodysuits 1
bold 1
bomb@@ 1
boned 1
bonnets 1
boo 1
bookcase 1
boot 1
borader 1
borders 1
borhood 1
borne 1
boug@@ 1
boulevard 1
bounced 1
bouncey 1
boundary 1
bowing 1
boyfriend 1
bracelets 1
bracing 1
brake 1
branched 1
brand 1
branded 1
branding 1
bras 1
brash 1
bratwurst 1
bravery 1
brawl 1
breakdancer 1
breakdancers 1
breakwall 1
breast@@ 1
breasts 1
breaths 1
breed 1
bricked 1
bridled 1
brie@@ 1
brilli@@ 1
brindled 1
broadca@@ 1
broadly 1
broen 1
brownies 1
browses 1
brulee 1
brun@@ 1
brushed 1
brut@@ 1
bs 1
bubbly 1
buckled 1
bud 1
budding 1
budweiser 1
buff 1
buggi@@ 1
bugs 1
bulb 1
bulbs 1
bulldozers 1
bulletin 1
bullfight 1
bullhorn 1
bulling 1
bullring 1
bump@@ 1
bumping 1
bunched 1
bunches 1
bundt 1
bungie 1
bunker 1
bunnies 1
bunting 1
burkas 1
burly 1
burned 1
burnished 1
burns 1
burqa 1
burrito 1
burritos 1
burrowing 1
bushels 1
businesses 1
businessmen 1
buss 1
busted 1
busting 1
butcher@@ 1
butchers 1
buting 1
butterflies 1
buttocks 1
buttoned 1
butts 1
byes 1
caban@@ 1
cabin@@ 1
caboo@@ 1
caches 1
cact@@ 1
caddy 1
cadillac 1
caffeine 1
calculate 1
cali@@ 1
calligraphy 1
calls 1
calzone 1
cam 1
camarad@@ 1
campground 1
cancer 1
candid 1
canines 1
cannot 1
canon 1
canopies 1
canteen 1
capital 1
capitali@@ 1
capped 1
cappucc@@ 1
capturing 1
carabiner 1
carca@@ 1
caring 1
carol 1
caroling 1
carousing 1
carpen@@ 1
carrot 1
carrots 1
cartload 1
carton 1
cartoons 1
cartri@@ 1
carves 1
carvings 1
cas 1
cases 1
cass@@ 1
castles 1
catacombs 1
caterer 1
caus@@ 1
ceful 1
ceilings 1
celebrated 1
celebrations 1
celebrity 1
celery 1
cely 1
cement@@ 1
cence 1
center@@ 1
centi@@ 1
centuri@@ 1
certi@@ 1
cgt 1
chairlift 1
chalkboards 1
chalked 1
challen@@ 1
cham@@ 1
chance 1
chanel 1
change 1
changed 1
changes 1
changing 1
chanting 1
chaotic 1
chap@@ 1
chaparral 1
chaps 1
charades 1
charge 1
charges 1
charted 1
chasers 1
chats 1
checker 1
checkpoint 1
cheeked 1
cheerfully 1
cheeses 1
chemise 1
cher 1
cherokee 1
chessboard 1
chestnuts 1
chests 1
childhood 1
chilled 1
chilling 1
chilly 1
china 1
chine 1
ching 1
chipmunk 1
choke 1
chops 1
chor@@ 1
chosen 1
chun 1
chun@@ 1
chut@@ 1
chute 1
chy 1
cigars 1
cigerette 1
cious 1
circled 1
circling 1
cist 1
cistern 1
ck 1
cked 1
ckle 1
cks 1
cl@@ 1
clarinets 1
clarity 1
clasp@@ 1
classmates 1
classwork 1
clause 1
clears 1
clergyman 1
clerics 1
client 1
climate 1
climbes 1
clime 1
climes 1
clings 1
clipper 1
clipping 1
cloak 1
clogs 1
closeby 1
clubs 1
cluster 1
clusters 1
clutch 1
co 1
coaches 1
coaching 1
coals 1
coast@@ 1
coastal 1
coasts 1
coating 1
cobble 1
coca 1
cock 1
cocked 1
cocker 1
cocks 1
cocktails 1
coeds 1
coffin 1
coil 1
colander 1
collage 1
collars 1
colleague 1
collectibles 1
collective 1
collectively 1
collects 1
collided 1
collides 1
coloful 1
colonist 1
columnar 1
columned 1
combing 1
combining 1
combs 1
comfort 1
comfortably 1
comforted 1
commandos 1
communicate 1
communicates 1
communication 1
communications 1
commute 1
commuters 1
compared 1
compass 1
competitor 1
complexion 1
complicated 1
composed 1
composure 1
comprised 1
comrades 1
conceal 1
conceal@@ 1
concentrate 1
concentrated 1
concepts 1
concerts 1
concessions 1
condition@@ 1
conditioning 1
condom 1
conduct 1
conducted 1
conducts 1
confe@@ 1
confeder@@ 1
confu@@ 1
confusing 1
congo 1
congratu@@ 1
congress 1
conical 1
connecting 1
connection 1
conser@@ 1
consider 1
considerably 1
considering 1
considers 1
consist 1
conso@@ 1
console 1
conspic@@ 1
constru@@ 1
consult 1
contact 1
containig 1
contemplates 1
contemporary 1
contently 1
continue 1
continues 1
continuing 1
contracption 1
controlling 1
convening 1
converge 1
conversations 1
convic@@ 1
convin@@ 1
cookers 1
cooktop 1
coolest 1
cooling 1
cop@@ 1
coping 1
cops 1
cordoned 1
corduroy 1
corgi 1
corgie 1
corks 1
corners 1
corporation 1
corset 1
cosmet@@ 1
cosplay 1
cots 1
coug@@ 1
council 1
counry 1
countertops 1
counting 1
countries 1
coupe 1
coupling 1
courtesy 1
courts 1
covert 1
cowgirls 1
crack 1
cracker 1
crackers 1
cracking 1
crafted 1
craftzine 1
crank 1
cranky 1
cravat 1
crawl 1
creams 1
credit 1
creeping 1
creme 1
crescent 1
crevice 1
crewmen 1
crews 1
crime 1
crimson 1
crippled 1
crisp 1
crisscrossing 1
crocheting 1
crocs 1
croos@@ 1
crop 1
croquet 1
crossbody 1
crossbones 1
crowding 1
crowned 1
cruising 1
crun@@ 1
crusad@@ 1
crush 1
crushers 1
crustacean 1
ctant 1
cted 1
cting 1
ction 1
ctions 1
ctious 1
ctively 1
ctly 1
ctors 1
cts 1
cuddles 1
cuddling 1
cuisine 1
culot@@ 1
culp@@ 1
culti@@ 1
cupboard 1
cupped 1
curled 1
curlers 1
currency 1
curry 1
curtained 1
curtains 1
curvy 1
custo@@ 1
customs 1
cutoffs 1
cylin@@ 1
da 1
dachshund 1
dachshunds 1
dad@@ 1
dagger 1
daggers 1
daisi@@ 1
dalmation 1
damage 1
damp 1
dandel@@ 1
dangerously 1
dangles 1
dangling 1
dapple 1
darker 1
dart 1
dashas 1
dashboard 1
dashiki 1
date 1
dayc@@ 1
daygl@@ 1
dding 1
de 1
deadly 1
dealership 1
dealing 1
deals 1
dear 1
deaths 1
debating 1
decent 1
declar@@ 1
declared 1
deco 1
decor@@ 1
decorate 1
decorates 1
decoration 1
decorator 1
decors 1
defended 1
defense 1
defle@@ 1
defying 1
delicatessen 1
delivered 1
delivers 1
delivery 1
demanding 1
demo 1
demonstrate 1
demonstrated 1
den 1
dense 1
depar@@ 1
deplo@@ 1
depress@@ 1
derssed 1
descri@@ 1
deserts 1
deserved 1
desper@@ 1
desserts 1
destro@@ 1
deta@@ 1
detail@@ 1
dete@@ 1
deteriora@@ 1
detritus 1
devel@@ 1
devis@@ 1
dew 1
diagno@@ 1
dials 1
dian 1
dic 1
dicapped 1
dice 1
diction@@ 1
did 1
dies 1
diesel 1
diet 1
differences 1
dili@@ 1
dimmed 1
dine 1
dinning 1
dinosaurs 1
dipping 1
dips 1
dirk 1
dirtbikes 1
diry 1
disco@@ 1
discovers 1
discus 1
disguises 1
dish@@ 1
disinterested 1
dism@@ 1
disne@@ 1
dispenses 1
disposing 1
disregarding 1
distant 1
distri@@ 1
distur@@ 1
dition 1
division 1
docked 1
document 1
dodges 1
dodging 1
dogh@@ 1
dogsled 1
dollar 1
dollars 1
dollhouse 1
dolphin@@ 1
dome 1
domed 1
dominance 1
dominate 1
dominated 1
dominates 1
dons 1
doo 1
dooor@@ 1
doorways 1
dor 1
doubles 1
doug@@ 1
douses 1
downcast 1
downpour 1
downs 1
downstairs 1
downsteps 1
dozens 1
dozes 1
dozing 1
drab 1
drafting 1
drags 1
dramati@@ 1
draping 1
drapped 1
dread 1
dreadlocked 1
dresser 1
drift 1
drifting 1
drills 1
drip 1
dropl@@ 1
dropper 1
drove 1
duces 1
ducts 1
dudes 1
due 1
dug 1
duking 1
dulcimer 1
dumb 1
dumbbell 1
dumpsters 1
dunce 1
dunked 1
dusted 1
dusting 1
dy 1
dye 1
dyes 1
eReader 1
eXXXotica 1
eager 1
earlobes 1
earn 1
earpiece 1
ease 1
easy 1
eatable 1
ec@@ 1
ecli@@ 1
econ@@ 1
edges 1
edging 1
ediate 1
edible 1
edibles 1
eeing 1
eeyeing 1
egde 1
egg@@ 1
eiffel 1
eigh@@ 1
el 1
elbowing 1
elbows 1
elders 1
electricity 1
eled 1
elem@@ 1
elevation 1
elevators 1
elf 1
eli 1
eling 1
elong@@ 1
els 1
ely 1
emban@@ 1
embel@@ 1
embla@@ 1
embro@@ 1
emerge 1
emery 1
emoti@@ 1
empties 1
ence 1
enced 1
encing 1
encounters 1
endur@@ 1
engineering 1
england 1
engra@@ 1
engulfed 1
enjoyable 1
enjoyment 1
enor@@ 1
enough 1
ens 1
ense 1
ensu@@ 1
entails 1
entang@@ 1
entence 1
entertainers 1
enthralled 1
enthusiasts 1
entire 1
entists 1
entran@@ 1
entry 1
entryway 1
entwin@@ 1
enviorment 1
eous 1
epee 1
eping 1
episodes 1
equipments 1
erase 1
erates 1
ered 1
erie 1
ering 1
erism 1
eroding 1
erole 1
eroned 1
errand@@ 1
erup@@ 1
escent 1
escorting 1
ess 1
established 1
estone 1
estran@@ 1
eted 1
ethereal 1
ethnic@@ 1
etop 1
ette 1
ety 1
europe 1
eved 1
evergreen 1
everyday 1
exag@@ 1
examination 1
examinations 1
exams 1
excess 1
exchange 1
exchanging 1
excitingly 1
execut@@ 1
exerts 1
exhibits 1
exhibt 1
exibit 1
exists 1
exited 1
expansive 1
explaining 1
explodes 1
explore 1
express 1
expresses 1
extendable 1
extensions 1
extract 1
extraordinary 1
extravagant 1
exuber@@ 1
eyeballing 1
eyebrow 1
eyebrows 1
eyeglass 1
eyeing 1
eyela@@ 1
eyepieces 1
fabrics 1
facilities 1
facturing 1
failing 1
fails 1
faint 1
fairground 1
fairgrounds 1
fairway 1
faith 1
faith@@ 1
false 1
fanned 1
fantasy 1
faraway 1
fargo 1
fashionably 1
fashions 1
fastening 1
fastens 1
faster 1
fatherhood 1
fathers 1
fatig@@ 1
fault 1
fauna 1
fawning 1
fear 1
fearing 1
feat 1
feathery 1
feature 1
feel 1
feeling 1
feild 1
feline 1
fella 1
felling 1
fending 1
fer 1
fermentation 1
fern 1
ferret 1
ferris 1
fers 1
fertil@@ 1
fest 1
fetal 1
fetched 1
fez 1
ff 1
ffer 1
fiddle 1
fied 1
fielders 1
fielding 1
fier@@ 1
fighters 1
fighting@@ 1
figur@@ 1
figuring 1
filets 1
filing 1
fillet 1
finale 1
finders 1
finds 1
finesse 1
fired 1
firetrucks 1
firework 1
fits 1
fitted 1
fitters 1
fix@@ 1
fixed 1
flagon 1
flagpole 1
flailing 1
flamboy@@ 1
flamingos 1
flanked 1
flare 1
flashcards 1
flashes 1
flashing 1
flats 1
flattening 1
flautist 1
flavored 1
flaying 1
flee 1
fleeing 1
flees 1
fleet 1
flew 1
flick 1
flicking 1
flin@@ 1
flings 1
flippers 1
floaters 1
floaty 1
flocking 1
florescent 1
florist 1
floury 1
flowerbed 1
flowering 1
flue 1
flume 1
flung 1
flurries 1
flushed 1
flyer 1
flyover@@ 1
foil 1
folder 1
foldout 1
folic 1
folio 1
folk 1
folks 1
fondue 1
fool 1
fooling 1
fools 1
foos@@ 1
footballer 1
footballers 1
footballs 1
footbride 1
footed 1
footh@@ 1
footrace 1
footrests 1
footstool 1
foraging 1
fore 1
forearms 1
forefront 1
forestry 1
forge 1
forges 1
forked 1
forlorn@@ 1
forms 1
forth 1
forty 1
fou@@ 1
found 1
fourteen 1
fractures 1
frag@@ 1
francisco 1
frayed 1
freckles 1
freedom 1
freefall 1
freen 1
frees@@ 1
freezer 1
fresco 1
fried 1
fries 1
frighten@@ 1
fringe 1
frisked 1
fro 1
fry 1
ft 1
fu 1
fuchsi@@ 1
fuels 1
fum@@ 1
fumes 1
funeral 1
funnel 1
furnace 1
furocious 1
furred 1
further 1
fut@@ 1
gad@@ 1
gage 1
gaggle 1
gain 1
gallopsing 1
galore 1
galoshes 1
gao 1
garages 1
garban@@ 1
gardener 1
gardens 1
garnished 1
gasol@@ 1
gateway 1
gating 1
gearing 1
gees 1
gender 1
generation 1
generator 1
gent 1
gentle 1
gently 1
geographic 1
ger 1
gerani@@ 1
gerator 1
gerbil 1
gerly 1
german 1
getup 1
geyser 1
gi 1
giance 1
gical 1
giganti@@ 1
giggle 1
giggling 1
gin@@ 1
ginger 1
gingham 1
giraffe 1
girder 1
girlfriends 1
gladiator 1
glamour 1
glare 1
glassblower 1
glassware 1
gleaming 1
gled 1
gleefully 1
gliders 1
gling 1
glittering 1
global 1
globe 1
gloomy 1
glossy 1
glows 1
gna@@ 1
gnarly 1
gni@@ 1
gnu 1
god 1
gog 1
goggle 1
golfing 1
gond@@ 1
gone 1
goof@@ 1
gorilla 1
gothic 1
gover@@ 1
graceful 1
grade 1
graduates 1
graduating 1
graffitti 1
grafitt@@ 1
gram 1
grams 1
grandfather 1
grandma 1
grandson 1
graph 1
grapher 1
grasp 1
grasses 1
grasshopper 1
grassland 1
grater 1
grave 1
gravey@@ 1
gravity 1
grayhound 1
grayish 1
greater 1
greenish 1
greens 1
greets 1
griddle 1
griev@@ 1
grim 1
grimaced 1
grimaces 1
grip 1
grits 1
grizz@@ 1
groom@@ 1
ground@@ 1
grout 1
grove 1
grumpy 1
grung@@ 1
gth 1
guardrails 1
guessing 1
guest@@ 1
guish 1
guishes 1
gulls 1
gun@@ 1
gunk 1
gur@@ 1
gut 1
gutter 1
ha 1
hacky 1
hagg@@ 1
hailing 1
haircuts 1
hairnets 1
hairstyles 1
halves 1
halway 1
ham 1
handball 1
handcart 1
handcrank 1
handker@@ 1
handle@@ 1
handout 1
handrails 1
handsaw 1
handset 1
handsome 1
handstands 1
handwork 1
handwritten 1
handymen 1
hanger 1
hangong 1
hapil@@ 1
happen 1
happen@@ 1
happiness 1
harmonized 1
hawai@@ 1
hazmat 1
headbut@@ 1
headlamp 1
headless 1
headlights 1
headlong 1
headphone 1
headress 1
headrests 1
headscarfs 1
headstand 1
heal@@ 1
heaps 1
heard 1
hearth 1
heat 1
heather 1
heats 1
heavier 1
heaving 1
heel 1
helemt 1
helm 1
helment 1
helpers 1
helple@@ 1
hi 1
highchairs 1
highlights 1
hijabs 1
hillock 1
hilltop 1
hing 1
hiply 1
hippie 1
hippies 1
hipster 1
histories 1
hitch 1
hitched 1
hnut 1
hobo 1
hoes 1
hoist 1
holder 1
holders 1
homestead 1
honda 1
honeycomb 1
honored 1
hoods 1
hooker 1
hooks 1
hope 1
horizont@@ 1
horrible 1
hors 1
horseshoes 1
horsing 1
hortons 1
hospitalized 1
host 1
hosted 1
hours 1
howling 1
hs 1
ht 1
huddles 1
hue 1
hulahoop 1
hulk 1
human@@ 1
humble 1
humid 1
humm@@ 1
hummer 1
humoro@@ 1
humorously 1
humvee 1
hunger 1
hungry 1
hunt 1
hunting 1
hurdlers 1
hurling 1
hurrying 1
hurting 1
husk 1
hustle 1
iMac 1
iPad 1
iPhone 1
iPods 1
ia 1
ial 1
ibi@@ 1
ical 1
ican 1
icon 1
idea 1
ident@@ 1
identific@@ 1
identifying 1
idered 1
idiot 1
idly 1
ies 1
ign 1
ign@@ 1
igno@@ 1
il 1
ile 1
iling 1
ills 1
ilot 1
impact 1
impeach 1
implem@@ 1
impover@@ 1
impress 1
impro@@ 1
ina 1
inactors 1
inches 1
incident 1
inclining 1
include 1
incredi@@ 1
incredible 1
incu@@ 1
indians 1
indigo 1
indu@@ 1
indulging 1
iners 1
infe@@ 1
infield 1
infielder 1
infir@@ 1
info 1
ingbird 1
inground 1
ings 1
inhal@@ 1
injuries 1
injury 1
ink@@ 1
inlet 1
innertubes 1
inning 1
inos 1
inse@@ 1
inspected 1
inspection 1
inspector 1
inspectors 1
inspiration 1
inst 1
install 1
installation 1
instructed 1
instruction 1
instructs 1
insurance 1
intan@@ 1
intensely 1
intensity 1
intent 1
intentionally 1
inter 1
interactive 1
interacts 1
intercep@@ 1
interchange 1
interest 1
interestingly 1
interfere 1
interiors 1
interlocked 1
interviewing 1
intraven@@ 1
intre@@ 1
intro@@ 1
invention 1
inver@@ 1
invisible 1
inwards 1
ion 1
ions 1
ire 1
irish 1
irs 1
ish 1
ished 1
island 1
ism 1
itan 1
itches 1
itching 1
ite 1
ities 1
ito 1
ive 1
ize 1
jacks 1
jade 1
jamm@@ 1
jams 1
jaywalk 1
jell@@ 1
jewelers 1
jig@@ 1
jodhpur@@ 1
john 1
join 1
joining 1
joint 1
joke 1
judged 1
jugglers 1
jugs 1
jukebox 1
jumpos 1
jut@@ 1
k 1
ka 1
kabab 1
kaki 1
kaleido@@ 1
kangaro@@ 1
karts 1
kazoo 1
ke 1
keeps 1
keg 1
kegs 1
kept 1
ker 1
kers 1
ketchup 1
kettlebell 1
keyboardist 1
kickbox 1
kickstand 1
kidding 1
killing 1
kiln 1
kilomet@@ 1
kilted 1
kimin@@ 1
king 1
kins 1
kiteboarder 1
kled 1
kment 1
knead 1
kneading 1
knelt 1
knobs 1
knocking 1
knocks 1
knows 1
knu@@ 1
korn 1
ks 1
kss 1
kuk 1
kung 1
kwon 1
label 1
labeling 1
labell@@ 1
labels 1
labor 1
labor@@ 1
laces 1
lagers 1
lago@@ 1
lakes 1
lama 1
lamp@@ 1
lamps 1
lances 1
landmarks 1
lapel 1
largest 1
lary 1
laser 1
lassos 1
lates 1
lating 1
lations 1
latory 1
latticed 1
laught 1
laughter 1
launched 1
lavish 1
lay@@ 1
leaders 1
leafing 1
leak 1
leaking 1
leap@@ 1
lease 1
leathers 1
lectern 1
lectures 1
lecturing 1
ledges 1
leis 1
lensed 1
lenses 1
lers 1
lesbi@@ 1
less 1
leur 1
lev@@ 1
levit@@ 1
lids 1
life@@ 1
lifestyle 1
lifter 1
lighter 1
lightly 1
limb@@ 1
liner 1
linked 1
linking 1
lioness 1
lions 1
liqui@@ 1
lished 1
lizards 1
llamas 1
lled 1
loaf@@ 1
loan 1
loaves 1
lobster 1
locations 1
locked 1
locking 1
locks 1
locksmith 1
lodged 1
logger 1
loggers 1
logos 1
loincloth 1
loiter 1
longer 1
longing 1
looms 1
lose 1
loser 1
losing 1
loud 1
loudly 1
louisiana 1
love@@ 1
loved 1
loves 1
loving 1
lowed 1
lows 1
lubricat@@ 1
luck 1
lul@@ 1
lumber 1
lun@@ 1
lungi 1
lunging 1
luxury 1
lw 1
lyrics 1
lywed 1
mache 1
madly 1
magnifier 1
maid 1
mailman 1
maine 1
majestic 1
majestically 1
majorette 1
majority 1
maker 1
makings 1
mama 1
managed 1
manager 1
manages 1
maneuvered 1
manic@@ 1
manikin 1
manning 1
mans 1
mansion 1
mantis 1
maps 1
marking 1
marlboro 1
marriage 1
marshmal@@ 1
mas 1
masc@@ 1
massa@@ 1
masters 1
matched 1
materi@@ 1
matter 1
maxi@@ 1
mean 1
meander@@ 1
meaning 1
measure 1
mechanics 1
med 1
medal 1
medal@@ 1
medic 1
medicine 1
meditate 1
medow 1
meets 1
melting 1
mementos 1
menac@@ 1
menorah 1
ments 1
messes 1
messi@@ 1
metalized 1
metalwork 1
meticulo@@ 1
metro@@ 1
mia 1
mics 1
midday 1
midri@@ 1
mids@@ 1
midway 1
mike 1
mild 1
militants 1
milking 1
milkshake 1
mill 1
mills 1
minding 1
minerature 1
miniatures 1
mining 1
miniskirts 1
minstrel 1
mint 1
mism@@ 1
mission 1
mist 1
mitten 1
mity 1
mize 1
mn 1
mobility 1
mockingbird 1
moderately 1
modernistic 1
modifier 1
mol@@ 1
mom@@ 1
moms 1
mongolian 1
monitored 1
monkeys 1
monoboard 1
months 1
mooch 1
mooning 1
moor 1
mort@@ 1
mortar 1
mosqu@@ 1
mossy 1
moth 1
motif 1
motioning 1
motorcade 1
motorist 1
motorists 1
mountaine@@ 1
mountaintops 1
mounting 1
mounts 1
mous 1
mouse 1
moustaches 1
mouthing 1
movem@@ 1
movement 1
movi@@ 1
mow 1
mowers 1
mown 1
mows 1
mp3 1
mudding 1
muffler 1
mules 1
mulke 1
multimedia 1
multitude 1
murder 1
muscle 1
mush@@ 1
musically 1
musk@@ 1
mussel 1
mustaches 1
myster@@ 1
n 1
nae 1
nain 1
nan 1
nan@@ 1
napa 1
napkins 1
naps 1
nascar 1
nation 1
national 1
national@@ 1
nations 1
natured 1
nd 1
neat 1
necess@@ 1
necked 1
ned 1
nee@@ 1
need@@ 1
negoti@@ 1
nerf 1
nervous 1
net@@ 1
neur 1
neurs 1
neut@@ 1
newest 1
newsboy 1
newsstand 1
ng 1
nike 1
nin@@ 1
ninj@@ 1
nipple 1
niture 1
nment 1
nments 1
nobody 1
noddles 1
noisemaker 1
nor 1
nostri@@ 1
noticea@@ 1
novel@@ 1
novice 1
ns 1
numerals 1
nursery 1
nylons 1
oak 1
oakland 1
obe@@ 1
obnoxiously 1
obscene 1
observation 1
obstacles 1
obtain 1
occup@@ 1
occupant 1
oceanside 1
odates 1
oed 1
oes 1
offensive 1
og 1
ohio 1
oid 1
oing 1
oka@@ 1
ola 1
oldest 1
oled 1
ols 1
olympic 1
omphe 1
oms 1
omy 1
onal 1
onball 1
ond 1
one@@ 1
oned 1
onion 1
onions 1
onlooking 1
onrushing 1
ons@@ 1
onward 1
ope 1
operations 1
operators 1
oping 1
opinion 1
oppre@@ 1
oppsing 1
ops 1
orangutan 1
orbs 1
orchard 1
ordinary 1
ordshire 1
ore 1
organ@@ 1
organic 1
organization 1
organize 1
organizes 1
ories 1
orized 1
ornam@@ 1
ornately 1
ors 1
ory 1
os 1
osing 1
ot 1
otherwi@@ 1
otion 1
otuside 1
ourdoors 1
ouse 1
outDo@@ 1
outdated 1
outer 1
outfield 1
outfielders 1
outfitted 1
outfut 1
outise 1
outlined 1
outmaneuver 1
outrun 1
outs 1
outward 1
oval 1
ovals 1
overcrowded 1
overeager 1
overgrown 1
overhangs 1
overnight 1
overshirt 1
oversize 1
overtake 1
overview 1
overwhelmed 1
oxford 1
oxfords 1
p 1
paced 1
packaged 1
packaging 1
packets 1
paddy 1
pail 1
paining 1
paintballer 1
painters 1
paired 1
pak 1
paler 1
panama 1
panelling 1
panels 1
panes 1
panora@@ 1
panties 1
papa@@ 1
para 1
parading 1
parakiting 1
paralell 1
parall@@ 1
paralympics 1
paramedi@@ 1
parasailer 1
paraskier 1
parkinglot 1
parkour 1
partial 1
partners 1
passage 1
passage@@ 1
passionate 1
pasta 1
paste 1
pasts 1
pastures 1
patched 1
patent 1
paths 1
patience 1
patriot 1
patriotism 1
patroni@@ 1
pavil@@ 1
payment 1
pays 1
pe 1
pea 1
peaking 1
pear 1
peas 1
peasant 1
pebble 1
pebbly 1
peddler 1
peddles 1
pede 1
pediatri@@ 1
pee 1
peels 1
peewee 1
pelicans 1
penalties 1
penn@@ 1
pens 1
pensive 1
pep 1
perch 1
perches 1
perfe@@ 1
performance@@ 1
performed 1
perfume 1
perfumes 1
perimeter 1
perked 1
perman@@ 1
permed 1
permits 1
perple@@ 1
pers 1
personal 1
perspiring 1
peruse 1
perusing 1
pest@@ 1
petri 1
petty 1
pew 1
pews 1
pharma@@ 1
phones 1
pianist 1
pic 1
pice 1
pickaxe 1
picked 1
pickoff 1
picnicking 1
picture@@ 1
pid 1
pidgin 1
piglet 1
pigtailed 1
piling 1
pilings 1
pinches 1
pinching 1
pinkish 1
pinky 1
pint 1
pinwheels 1
pioneer 1
pionship 1
pistol 1
pitbull 1
pitchfork 1
pizzas 1
pizzeria 1
placards 1
placem@@ 1
plains 1
planer 1
planked 1
planks 1
planning 1
plastered 1
playful 1
playmat 1
plead@@ 1
pleased 1
pleasure 1
pledge 1
plenty 1
plethor@@ 1
plows 1
ploy 1
plugs 1
plumber 1
plumes 1
plushie 1
plying 1
poached 1
poem 1
pointer 1
poke 1
polar 1
policewoman 1
poling 1
polis 1
polls 1
polos 1
pontiac 1
pontoon 1
poolside 1
pooper 1
popsicles 1
popu@@ 1
popular 1
popup 1
portion 1
possessions 1
posted 1
potenti@@ 1
pothole 1
potter 1
potters 1
pouch 1
pounding 1
pounds 1
pour 1
pow 1
powdering 1
powders 1
power@@ 1
ppoin@@ 1
practising 1
praises 1
pran@@ 1
prays 1
pre 1
precariously 1
prediction 1
predomin@@ 1
preppy 1
preps 1
prescrip@@ 1
presence 1
presenter 1
preserves 1
pressed 1
prestends 1
presume 1
preteens 1
prevention 1
prey 1
prices 1
primping 1
printing 1
prison 1
prist@@ 1
prize 1
probe 1
problem 1
procedure 1
process@@ 1
processing 1
production 1
profan@@ 1
proffer@@ 1
profile 1
program 1
prohi@@ 1
projects 1
prom 1
promin@@ 1
proof 1
propelling 1
proper 1
prosthet@@ 1
protected 1
protection 1
protru@@ 1
prove 1
provider 1
providing 1
prunes 1
pry 1
pse 1
ption 1
public@@ 1
pucks 1
pudding 1
puddles 1
pudgy 1
pueblo 1
puer@@ 1
pulleys 1
pullover 1
pulpit 1
puma 1
pumping 1
pumps 1
punting 1
punts 1
pups 1
purchases 1
pursed 1
pursing 1
pursu@@ 1
pursuit 1
putted 1
pylons 1
q 1
quar@@ 1
quarter@@ 1
que 1
queen 1
ques 1
question@@ 1
questioned 1
quir@@ 1
quite 1
quy 1
racecourse 1
racing- 1
radar@@ 1
radi@@ 1
railroads 1
rained 1
ral 1
rallies 1
ram 1
rambun@@ 1
ranch 1
ranching 1
random 1
ranging 1
ranks 1
raping 1
rapped 1
rasta 1
rat 1
rate 1
rations 1
rator 1
rattle 1
rav@@ 1
rave 1
rawr 1
react 1
reacts 1
realig@@ 1
realty 1
rebound 1
rebuilding 1
recedes 1
receiver 1
reci@@ 1
recieve 1
recital 1
recitals 1
recite 1
recline 1
reclined 1
recorded 1
recreate 1
recycled 1
reds 1
redwood 1
reeds 1
reeling 1
reference 1
references 1
referencing 1
refilling 1
refu@@ 1
rega@@ 1
regal 1
regarding 1
regional 1
registers 1
regre@@ 1
regular 1
rehearsal 1
rehearses 1
reindeer 1
reins 1
rejects 1
rejo@@ 1
relaxation 1
relie@@ 1
religion 1
relu@@ 1
remain 1
remem@@ 1
rements 1
remin@@ 1
remodeled 1
remodels 1
removal 1
renovated 1
renovating 1
rent 1
rental 1
repaired 1
repel 1
repels 1
replaces 1
replica 1
report 1
reporting 1
reports 1
represent@@ 1
represents 1
request@@ 1
res@@ 1
rescuing 1
research 1
resp@@ 1
respect 1
respi@@ 1
respon@@ 1
restauran@@ 1
restraining 1
restrains 1
restri@@ 1
reta@@ 1
retrei@@ 1
retri@@ 1
retrieves 1
retro 1
reunion 1
reve@@ 1
reversal 1
reverse 1
rhododendron 1
rhyth@@ 1
rickshaws 1
ridden 1
ridge 1
riffle 1
right@@ 1
rights 1
rim 1
rims 1
rinding 1
rinsed 1
rioting 1
ripe 1
rippled 1
rit 1
rival 1
riverside 1
rizes 1
roads 1
roasting 1
rockabilly 1
rockers 1
rockside 1
rogue 1
roles 1
rollers 1
rollerskate 1
rollerskater 1
roman@@ 1
roofer 1
roofs 1
rooms 1
root 1
roped 1
roper 1
rosary 1
rose@@ 1
rotating 1
roti@@ 1
rott@@ 1
roundabout 1
rounded 1
rowdy 1
rowed 1
royal 1
rub 1
rubbing 1
ruffles 1
ruin 1
rummage 1
rump@@ 1
rundown 1
rung 1
rusting 1
rustle 1
sac 1
sacked 1
sacking 1
sacred 1
safari 1
sailors 1
sails 1
saint 1
salads 1
salute 1
san 1
sanding 1
sandstorm 1
sang 1
sanitize 1
saro@@ 1
sarong 1
satchels 1
satin 1
saver 1
sawed 1
saws 1
saxaphones 1
saxophoni@@ 1
saxophonist 1
scalling 1
scamp@@ 1
scarfs 1
scarlet 1
schizophren@@ 1
schoolwork 1
scolded 1
scooper 1
scored 1
scorekeeper 1
scotti@@ 1
scrape 1
scraper 1
scraping 1
scraps 1
scratch 1
scratches 1
screeches 1
screw@@ 1
scribe 1
scrip@@ 1
scro@@ 1
scrub@@ 1
scrunched 1
scuffle 1
sculpt 1
sculpted 1
seahorse 1
seam 1
seamen 1
seamstre@@ 1
search 1
searches 1
seashell 1
seashells 1
seaside 1
seasons 1
seaworld 1
seconds 1
securely 1
sedu@@ 1
seeing 1
seeks 1
seem@@ 1
seers 1
seesaws 1
seful 1
selected 1
seller 1
send 1
senor 1
sensei 1
sequo@@ 1
sermon 1
serpent@@ 1
server 1
servic@@ 1
service@@ 1
sessions 1
settings 1
sewers 1
shaft 1
shallows 1
sham@@ 1
shampo@@ 1
shaping 1
shared 1
shares 1
shark 1
sharks 1
sharply 1
shaves 1
shears 1
sheath 1
sheep@@ 1
shell 1
shells 1
shelving 1
shepard 1
shews 1
shield 1
shin 1
shine 1
shiney 1
shingle 1
shingled 1
shinning 1
shipping 1
shipyard 1
shirtsleeves 1
shment 1
shock 1
shocked 1
shocking 1
shoeing 1
shoeless 1
shoo 1
shooing 1
shook 1
shooter 1
shooters 1
shopper 1
showcase 1
showdown 1
shower@@ 1
showered 1
showering 1
showroom 1
shredding 1
shrouded 1
shrubs 1
shrugs 1
shute 1
shy 1
sia 1
sible 1
sick 1
sicking 1
sickle 1
sidecar 1
sided 1
sideshow 1
sidwalk 1
sie 1
sifter 1
sifts 1
sight@@ 1
signage 1
significantly 1
signify 1
signpost 1
silence 1
silhouettes 1
silo 1
simm@@ 1
simultan@@ 1
sine 1
singlet 1
sinks 1
sion 1
situated 1
skatepark 1
skee@@ 1
sketching 1
skewer 1
skewered 1
skewers 1
skiff 1
skilled 1
skimboarder 1
skins 1
skip 1
skipping 1
skips 1
skunk 1
skydiver 1
skylights 1
slabs 1
slat@@ 1
slate 1
sled@@ 1
sledge 1
sleeding 1
sleek 1
sleepwear 1
slicked 1
slideshow 1
slight 1
slipper 1
slippery 1
slipping 1
sliver 1
sloped 1
slopped 1
slum 1
slums 1
smart 1
smart@@ 1
smas 1
smell 1
smelled 1
smelting 1
smen 1
smiley 1
smith@@ 1
smocks 1
smokey 1
smoky 1
smoldering 1
snakes 1
snare 1
snarls 1
snatch 1
sneaker 1
sneeze 1
snokel 1
snorkel@@ 1
snowblowing 1
snowed 1
snowfalls 1
snowfla@@ 1
snowmen 1
snowscape 1
snowshoeing 1
soaker 1
soaks 1
soaps 1
soaring 1
socialize 1
sofas 1
solder 1
sole 1
soled 1
solemn 1
solicits 1
solitude 1
soloi@@ 1
solution 1
somberly 1
sombreros 1
somethings 1
sometime 1
somewhat 1
songs 1
soothe 1
sorted 1
soul@@ 1
sounds 1
sowing 1
spac@@ 1
spacious 1
spaniel 1
spar 1
spark 1
sparkasse 1
sparkl@@ 1
sparkly 1
spays 1
specialize 1
specialty 1
species 1
specimen 1
speck 1
spectator 1
spectrum 1
spends 1
sphin@@ 1
spic@@ 1
spice 1
spicy 1
spider 1
spiderman 1
spig@@ 1
spill 1
splatter 1
splayed 1
splen@@ 1
split@@ 1
sponges 1
spoof 1
spool 1
spoonful 1
spooning 1
sportswoman 1
sporty 1
spotters 1
spouts 1
sprawled 1
spree 1
sprinkers 1
squabble 1
squaring 1
squatted 1
sque 1
squeals 1
squeezes 1
squid 1
squirt 1
sserie 1
ssion 1
ssional 1
ssly 1
stabbed 1
stabil@@ 1
stables 1
stabs 1
stadning 1
staff@@ 1
staffs 1
staged 1
stallions 1
stalls 1
stam@@ 1
stamp 1
stances 1
standard 1
standers 1
stange 1
stanza 1
stapler 1
stapling 1
statement 1
stati@@ 1
static 1
stature 1
staue 1
stays 1
ste 1
steadying 1
steak 1
steamed 1
stencil 1
stepped 1
stern 1
sters 1
stewarde@@ 1
sthen@@ 1
stickers 1
stiletto 1
sting 1
stion 1
stir 1
stitch 1
stle 1
stocked 1
stocks 1
stocky 1
stoking 1
stomachs 1
stomped 1
ston@@ 1
stoned 1
stood 1
stooping 1
stoplight 1
stored 1
stormy 1
straddles 1
straddling 1
strainer 1
strangely 1
strating 1
stration 1
strawberries 1
straws 1
stream@@ 1
streched 1
streetcar 1
stren@@ 1
strin@@ 1
stripey 1
stripping 1
stripy 1
strives 1
strokes 1
stroking 1
strong 1
struck 1
stry 1
stubble 1
stucco 1
stuffing 1
stuffs 1
stumbled 1
stumbles 1
stupid 1
stylus 1
styrofoam 1
submarine 1
suburb 1
success 1
success@@ 1
sug@@ 1
suites 1
summertime 1
sunbathe 1
sunbathes 1
sunflowers 1
sunlit 1
sunshade 1
superhero 1
superstore 1
supervise 1
supple 1
supporters 1
sure 1
surfboarding 1
surgeon 1
surly 1
surron@@ 1
surrounds 1
suspen@@ 1
suv 1
swab 1
swamp 1
swans 1
swap 1
swat@@ 1
sway 1
sweats 1
sweden 1
sweeper 1
sweeter 1
swept 1
swer@@ 1
swetashirts 1
swifter 1
swimmies 1
swinger 1
swipes 1
swishing 1
swit@@ 1
swo@@ 1
symb@@ 1
symmetry 1
sync 1
synchronizing 1
synthesizer 1
t.com 1
tacky 1
tacti@@ 1
tae 1
tailed 1
tails 1
tak 1
takeing 1
tame 1
tamed 1
tand@@ 1
tandem 1
tangled 1
tango 1
tanks 1
tapest@@ 1
tapping 1
tar 1
tari@@ 1
tarps 1
tassels 1
tastes 1
tato@@ 1
taughter 1
taupe 1
te 1
tearing 1
teases 1
teasing 1
tech 1
technicians 1
teepee 1
telephones 1
telescopes 1
tell 1
tellers 1
template 1
tended 1
tentatively 1
tented 1
terriers 1
terro@@ 1
terrorist 1
tery 1
tes 1
tether 1
textiles 1
texture 1
thanking 1
thck 1
thigh 1
thinks 1
thinner 1
thinning 1
thir@@ 1
thra@@ 1
threads 1
threes 1
thri@@ 1
thrower 1
thwest 1
thy 1
tian 1
tically 1
tightropes 1
tiki 1
tiling 1
till 1
tiller 1
tills 1
tily 1
tim@@ 1
timid@@ 1
tinkering 1
tional 1
tionist 1
tise 1
tissue 1
tive 1
tle 1
tle@@ 1
tment 1
toad 1
toaster 1
tobogg@@ 1
today 1
toed 1
toena@@ 1
told 1
tomatos 1
tomb@@ 1
tone 1
tons 1
toothpick 1
toots 1
topping 1
toppings 1
torching 1
torii 1
tors 1
torso 1
tortoise 1
torwards 1
tough 1
towarn 1
toweling 1
towing 1
tracked 1
tracker 1
tracksuits 1
tradition 1
trafficked 1
trailers 1
trailing 1
trainer 1
tramp@@ 1
tranquil 1
transfer 1
transform@@ 1
translu@@ 1
transparent 1
transported 1
transvest@@ 1
trape@@ 1
traps 1
traveled 1
travers@@ 1
tread 1
treading 1
treadle 1
treadmills 1
treated 1
treefilled 1
trek 1
trellis 1
tribesman 1
tribut@@ 1
trident 1
tried 1
trikes 1
trimmed 1
trinket 1
tripods 1
triumph@@ 1
troll 1
trolleys 1
trolly 1
troupe 1
trousers 1
trowel 1
trudge 1
trudging 1
tubas 1
tubing 1
tubs 1
tubular 1
tucks 1
tugboat 1
tumble 1
tumbles 1
tummy 1
tunics 1
tures 1
turing 1
turt@@ 1
tus 1
tusks 1
tussle 1
tuxes 1
twea@@ 1
twelve 1
twen@@ 1
twig 1
twos 1
u 1
ue 1
ugly 1
uline 1
ulls 1
ult 1
ulties 1
ulting 1
ump 1
ums 1
unable 1
unate 1
unclear 1
uncomfortable 1
unconven@@ 1
uncooked 1
uncovering 1
uncrowded 1
undone 1
unenthusiastic 1
uneven 1
unexcited 1
unfamili@@ 1
unfort@@ 1
unfur@@ 1
unicycles 1
unidentifiable 1
uniformly 1
unit@@ 1
united 1
units 1
universal 1
universit@@ 1
unlocks 1
unoccupied 1
unpainted 1
unrav@@ 1
unreco@@ 1
unsafely 1
unscre@@ 1
unspo@@ 1
unsure 1
untan@@ 1
unwar@@ 1
unwrapped 1
unwrapping 1
uously 1
uplifted 1
upstairs 1
ur 1
urer 1
ures 1
urged 1
urgently 1
urging 1
urin@@ 1
urn 1
usa 1
usage 1
usly 1
ut 1
utensil 1
util@@ 1
ution@@ 1
uts 1
v 1
vac 1
vacationing 1
vage 1
vaguely 1
vals 1
valve 1
vamp@@ 1
vand@@ 1
vans 1
vap@@ 1
vat 1
vate 1
vating 1
vation 1
vator 1
vaulter 1
vaults 1
ved 1
vegetated 1
velodro@@ 1
velveeta 1
venir 1
venti@@ 1
versary 1
versus 1
vested 1
veteran 1
veterans 1
vials 1
vibrantly 1
vicinity 1
video@@ 1
videoc@@ 1
vie 1
vietnamese 1
viewable 1
viewed 1
vigil 1
viking 1
vikings 1
vines 1
vineyard 1
violation 1
violini@@ 1
violist 1
vise 1
vised 1
visibility 1
visitor 1
visitors 1
visits 1
visual 1
vities 1
viz 1
vocabu@@ 1
vocal 1
vocals 1
voice 1
void 1
volley 1
volleys 1
volunteering 1
vote 1
voting 1
vous 1
vously 1
vres 1
vs 1
vulture 1
vy 1
vyset 1
waders 1
waffles 1
waistband 1
waiters 1
wake 1
wakeboarder 1
waling 1
walkways 1
wallpaper 1
walmart 1
waltzing 1
wan 1
wander 1
wandering 1
wardly 1
wardro@@ 1
wards 1
warily 1
warmer 1
warped 1
warplane 1
waste 1
watchful 1
waterproofs 1
watersk@@ 1
waterskiis 1
weair@@ 1
weak 1
wearfing 1
weating 1
weaves 1
wedd@@ 1
wedge 1
week 1
weigh 1
weighed 1
weighs 1
weiler 1
weiner 1
weld 1
welders 1
wells 1
went 1
whale 1
whales 1
whatever 1
whats 1
wheelbarrows 1
wheelers 1
where@@ 1
whie 1
whine 1
whips 1
whirl@@ 1
whistling 1
whites 1
wiel@@ 1
wieners 1
wifi 1
wiggling 1
wiht 1
wildly 1
window@@ 1
windshield 1
windsurfers 1
windsurfing 1
windsurfs 1
windy 1
wines 1
winters 1
wintry 1
wipe 1
wiped 1
wireless 1
wiring 1
wise 1
wisks 1
withdraw 1
wither@@ 1
wizards 1
wmo@@ 1
wn 1
wns 1
woks 1
wolf 1
won 1
wonder 1
wonders 1
woodsy 1
woodwork 1
woolly 1
wore 1
worthy 1
wow 1
wran@@ 1
wrapper 1
wrappers 1
wrestilng 1
wrin@@ 1
wristbands 1
wristwatch 1
writer 1
writhing 1
writings 1
wut@@ 1
x 1
xed 1
xylophones 1
yacht 1
yak 1
yel@@ 1
yell 1
yiel@@ 1
yong 1
youngster 1
zable 1
zed 1
zens 1
zerland 1
zes 1
zing 1
zippered 1
zips 1
zo 1
zoned 1
zoom 1
zooming 1
